{
  "version": "1.0",
  "truncation": null,
  "padding": null,
  "added_tokens": [
    {
      "id": 0,
      "content": "[PAD]",
      "single_word": false,
      "lstrip": false,
      "rstrip": false,
      "normalized": false,
      "special": true
    },
    {
      "id": 1,
      "content": "[UNK]",
      "single_word": false,
      "lstrip": false,
      "rstrip": false,
      "normalized": false,
      "special": true
    },
    {
      "id": 2,
      "content": "<|endoftext|>",
      "single_word": false,
      "lstrip": false,
      "rstrip": false,
      "normalized": false,
      "special": true
    }
  ],
  "normalizer": {
    "type": "BertNormalizer",
    "clean_text": true,
    "handle_chinese_chars": false,
    "strip_accents": false,
    "lowercase": true
  },
  "pre_tokenizer": {
    "type": "ByteLevel",
    "add_prefix_space": true,
    "trim_offsets": true,
    "use_regex": true
  },
  "post_processor": null,
  "decoder": null,
  "model": {
    "type": "BPE",
    "dropout": null,
    "unk_token": "[UNK]",
    "continuing_subword_prefix": null,
    "end_of_word_suffix": null,
    "fuse_unk": false,
    "byte_fallback": false,
    "ignore_merges": false,
    "vocab": {
      "[PAD]": 0,
      "[UNK]": 1,
      "<|endoftext|>": 2,
      "!": 3,
      "\"": 4,
      "#": 5,
      "$": 6,
      "%": 7,
      "&": 8,
      "'": 9,
      "(": 10,
      ")": 11,
      "*": 12,
      "+": 13,
      ",": 14,
      "-": 15,
      ".": 16,
      "/": 17,
      "0": 18,
      ":": 19,
      ";": 20,
      "<": 21,
      "=": 22,
      ">": 23,
      "?": 24,
      "@": 25,
      "[": 26,
      "\\": 27,
      "]": 28,
      "^": 29,
      "_": 30,
      "`": 31,
      "a": 32,
      "b": 33,
      "c": 34,
      "d": 35,
      "e": 36,
      "f": 37,
      "g": 38,
      "h": 39,
      "i": 40,
      "j": 41,
      "k": 42,
      "l": 43,
      "m": 44,
      "n": 45,
      "o": 46,
      "p": 47,
      "q": 48,
      "r": 49,
      "s": 50,
      "t": 51,
      "u": 52,
      "v": 53,
      "w": 54,
      "x": 55,
      "y": 56,
      "z": 57,
      "{": 58,
      "|": 59,
      "}": 60,
      "~": 61,
      "¡": 62,
      "¢": 63,
      "£": 64,
      "¤": 65,
      "¥": 66,
      "¦": 67,
      "§": 68,
      "¨": 69,
      "©": 70,
      "ª": 71,
      "«": 72,
      "¬": 73,
      "®": 74,
      "¯": 75,
      "°": 76,
      "±": 77,
      "²": 78,
      "³": 79,
      "´": 80,
      "µ": 81,
      "¶": 82,
      "·": 83,
      "¸": 84,
      "¹": 85,
      "º": 86,
      "»": 87,
      "¼": 88,
      "½": 89,
      "¾": 90,
      "¿": 91,
      "Â": 92,
      "Ã": 93,
      "Ä": 94,
      "Å": 95,
      "Æ": 96,
      "Ç": 97,
      "È": 98,
      "É": 99,
      "Ê": 100,
      "Ë": 101,
      "Ì": 102,
      "Í": 103,
      "Î": 104,
      "Ï": 105,
      "Ð": 106,
      "Ñ": 107,
      "Ò": 108,
      "Ó": 109,
      "Ô": 110,
      "Õ": 111,
      "Ö": 112,
      "×": 113,
      "Ø": 114,
      "Ù": 115,
      "Ú": 116,
      "Û": 117,
      "Ü": 118,
      "Ý": 119,
      "Þ": 120,
      "ß": 121,
      "à": 122,
      "á": 123,
      "â": 124,
      "ã": 125,
      "ä": 126,
      "å": 127,
      "æ": 128,
      "ç": 129,
      "è": 130,
      "é": 131,
      "ê": 132,
      "ë": 133,
      "ì": 134,
      "í": 135,
      "ï": 136,
      "ð": 137,
      "ñ": 138,
      "ó": 139,
      "Ġ": 140,
      "Ģ": 141,
      "ģ": 142,
      "Ĥ": 143,
      "ĥ": 144,
      "Ħ": 145,
      "ħ": 146,
      "Ĩ": 147,
      "ĩ": 148,
      "Ī": 149,
      "ī": 150,
      "Ĭ": 151,
      "ĭ": 152,
      "Į": 153,
      "į": 154,
      "İ": 155,
      "ı": 156,
      "Ĳ": 157,
      "ĳ": 158,
      "Ĵ": 159,
      "ĵ": 160,
      "Ķ": 161,
      "ķ": 162,
      "ĸ": 163,
      "Ĺ": 164,
      "ĺ": 165,
      "Ļ": 166,
      "ļ": 167,
      "Ľ": 168,
      "ľ": 169,
      "Ŀ": 170,
      "ŀ": 171,
      "Ł": 172,
      "ł": 173,
      "Ń": 174,
      "á»": 175,
      "áº": 176,
      "Ġt": 177,
      "ng": 178,
      "Ġc": 179,
      "Äĳ": 180,
      "ĠÄĳ": 181,
      "nh": 182,
      "Ãł": 183,
      "Ġv": 184,
      "Ġth": 185,
      "Ġh": 186,
      "Æ°": 187,
      "Ã¡": 188,
      "Ġl": 189,
      "Ġb": 190,
      "Ġm": 191,
      "Ġch": 192,
      "Ġk": 193,
      "iá»": 194,
      "Ġs": 195,
      "Ġtr": 196,
      "Ġnh": 197,
      "Æ°á»": 198,
      "Ġn": 199,
      "áº¡": 200,
      "Ġg": 201,
      "áº¿": 202,
      "Ġd": 203,
      "Ã´": 204,
      "Ġkh": 205,
      "Ġ0": 206,
      "Ġp": 207,
      "Ġng": 208,
      "áº£": 209,
      "Ãª": 210,
      "ĠÄĳá»": 211,
      "Ã³": 212,
      "Ġph": 213,
      "áº¥": 214,
      "iá»ĩ": 215,
      "Ã¢": 216,
      "Ã¡c": 217,
      "á»ĳ": 218,
      "á»Ļ": 219,
      "Ãªn": 220,
      "Ã´ng": 221,
      "Ġvá»": 222,
      "ĠvÃł": 223,
      "Ã¬": 224,
      "á»§": 225,
      "Ġgi": 226,
      "qu": 227,
      "Æ¡": 228,
      "Ġqu": 229,
      "áºŃ": 230,
      "Ġthá»": 231,
      "áº§": 232,
      "ĠlÃł": 233,
      "Ġr": 234,
      "Ġx": 235,
      "Ġtá»": 236,
      "iáº¿": 237,
      "ÃŃ": 238,
      "Ľi": 239,
      "Äĥ": 240,
      "Æ°á»£": 241,
      "áº¥t": 242,
      "Æ°á»Ŀ": 243,
      "áº¡i": 244,
      "Ġhá»": 245,
      "ĠcÃ¡c": 246,
      "ĠcÃ³": 247,
      "uy": 248,
      "Ġcá»§": 249,
      "Ġcá»§a": 250,
      "an": 251,
      "ong": 252,
      "Ãº": 253,
      "Ã£": 254,
      "Ġdá»": 255,
      "Ġchá»": 256,
      "áº¯": 257,
      "iá»ģ": 258,
      "Ã¬nh": 259,
      "ch": 260,
      "Æ°á»£c": 261,
      "Ã¢n": 262,
      "Ġsá»": 263,
      "Ġmá»": 264,
      "ĠÄĳÆ°á»£c": 265,
      "Ġtrong": 266,
      "Ġnhá»": 267,
      "Ġbá»": 268,
      "Ġlá»": 269,
      "á»Ļt": 270,
      "iá»ĩn": 271,
      "Ġcho": 272,
      "Ãły": 273,
      "Ġvá»Ľi": 274,
      "ay": 275,
      "Ã²": 276,
      "Ã¹": 277,
      "ĠkhÃ´ng": 278,
      "Ġmá»Ļt": 279,
      "anh": 280,
      "áº·": 281,
      "in": 282,
      "inh": 283,
      "iÃªn": 284,
      "ang": 285,
      "áº¡n": 286,
      "Ġngh": 287,
      "ĠhÃł": 288,
      "áº§n": 289,
      "Æ°á»Ľ": 290,
      "ao": 291,
      "am": 292,
      "iá»ģu": 293,
      "iá»ĥ": 294,
      "Ġho": 295,
      "¯ng": 296,
      "Æ°á»Ŀi": 297,
      "Æ°Æ¡": 298,
      "Ġnhá»¯ng": 299,
      "Æ°á»Ŀng": 300,
      "Ġtrá»": 301,
      "áº£n": 302,
      "ĠngÆ°á»Ŀi": 303,
      "ĠÄĳá»Ļ": 304,
      "áº£i": 305,
      "©ng": 306,
      "Æ°Æ¡ng": 307,
      "ai": 308,
      "áº§u": 309,
      "on": 310,
      "ĠnhÆ°": 311,
      "Ã¢y": 312,
      "ĠcÃ´ng": 313,
      "Ãłn": 314,
      "©c": 315,
      "Æ°á»Ľc": 316,
      "ung": 317,
      "áº¿n": 318,
      "±c": 319,
      "Ãłi": 320,
      "Ġá»": 321,
      "iáº¿t": 322,
      "Ġbáº¡n": 323,
      "ĠÄĳá»ĥ": 324,
      "áºŃn": 325,
      "uyá»": 326,
      "ĠÄĳÃ£": 327,
      "Ġviá»ĩ": 328,
      "ĠnÄĥ": 329,
      "Ġthá»ĥ": 330,
      "Ġcá»": 331,
      "ÃŃnh": 332,
      "Ã¹ng": 333,
      "Ġ-": 334,
      "áº©": 335,
      "âĢ": 336,
      "au": 337,
      "áºŃt": 338,
      "Ġtá»«": 339,
      "Ġsáº": 340,
      "Ãłnh": 341,
      "Ã½": 342,
      "Ã´i": 343,
      "Ŀi": 344,
      "Ġkhi": 345,
      "áº¿t": 346,
      "Æ¡n": 347,
      "Äĥn": 348,
      "Ġsá»ĳ": 349,
      "Ġthu": 350,
      "Ġ(": 351,
      "ĠÄĳáº¿n": 352,
      "Ġhá»į": 353,
      "Ã¡n": 354,
      "Ġtáº¡i": 355,
      "ĠnÃły": 356,
      "Ã©": 357,
      "Ġgiá»": 358,
      "á»Ļi": 359,
      "ĠgiÃ¡": 360,
      "iáº¿n": 361,
      "Ġnhiá»ģu": 362,
      "Ġdá»¥": 363,
      "ĵng": 364,
      "Ġvá»ģ": 365,
      "Ġsáº½": 366,
      "ĠnhÃł": 367,
      "Ã¡t": 368,
      "iá»ĩu": 369,
      "Ġá»Ł": 370,
      "er": 371,
      "ĠÄĳÃ³": 372,
      "ĠkhÃ¡c": 373,
      "Ġcáº£": 374,
      "Ġra": 375,
      "ĠlÃłm": 376,
      "Ã¡ng": 377,
      "em": 378,
      "eo": 379,
      "ĠhÃłng": 380,
      "ĠtrÃªn": 381,
      "á»ĳc": 382,
      "áºŃp": 383,
      "Ã¡i": 384,
      "áº±": 385,
      "Å©ng": 386,
      "Ġná»": 387,
      "ĠÄĳá»ĭ": 388,
      "Ġ\"": 389,
      "Ġhiá»ĩn": 390,
      "ĠvÃło": 391,
      "ĠmÃł": 392,
      "iÃª": 393,
      "en": 394,
      "áº«": 395,
      "Ġdá»¥ng": 396,
      "Ġnháº¥t": 397,
      "Ã²ng": 398,
      "ĠthÃłnh": 399,
      "Ġy": 400,
      "ĠÄĳáº§u": 401,
      "ĠcÅ©ng": 402,
      "ĠngÃły": 403,
      "Ġto": 404,
      "Ġsá»±": 405,
      "Ġchá»ī": 406,
      "ĠnÄĥm": 407,
      "ĭch": 408,
      "Äĥng": 409,
      "ÃŃch": 410,
      "..": 411,
      "áº¥p": 412,
      "ĠâĢ": 413,
      "Ġdo": 414,
      "uá»ĳ": 415,
      "Ġbá»ĭ": 416,
      "áº£o": 417,
      "Ġviá»ĩc": 418,
      "Æ°á»£ng": 419,
      "ķi": 420,
      "áº¥y": 421,
      "ĠÄĳá»Ļng": 422,
      "Ġlo": 423,
      "Ġláº¡i": 424,
      "Ã¢m": 425,
      "ĠchÃº": 426,
      "áº¯c": 427,
      "ar": 428,
      "áº·t": 429,
      "¥c": 430,
      "áº·c": 431,
      "áº¹": 432,
      "Ã¡o": 433,
      "Ã¢u": 434,
      "Ġsáº£n": 435,
      "ĠchÃŃnh": 436,
      "Ġká»": 437,
      "Ġhá»įc": 438,
      "uyÃªn": 439,
      "iá»ĥm": 440,
      "Ã¡y": 441,
      "áº¡o": 442,
      "Ġnam": 443,
      "Ä©": 444,
      "áº©m": 445,
      "Ã¡nh": 446,
      "uá»": 447,
      "Ġtá»ĳ": 448,
      "Ġtheo": 449,
      "ĠÄĳá»ĵng": 450,
      "Ãło": 451,
      "áº±ng": 452,
      "ĠcÃ¡ch": 453,
      "áº¡t": 454,
      "ĠnÃ³": 455,
      "Ã²n": 456,
      "Ġtiáº¿": 457,
      "Æ¡i": 458,
      "Ã¡p": 459,
      "Ġsau": 460,
      "£p": 461,
      "áº»": 462,
      "ĠnÆ°á»Ľc": 463,
      "Ġhá»£p": 464,
      "Ġgia": 465,
      "Ġkho": 466,
      "iá»ģn": 467,
      "Ġquy": 468,
      "Ã´n": 469,
      "Ġcao": 470,
      "ĠhÆ¡n": 471,
      "ĠthÃ´ng": 472,
      "ĠtrÆ°á»Ŀng": 473,
      "áº¥n": 474,
      "áº¯t": 475,
      "Ġthá»Ŀi": 476,
      "ĠnhÃ¢n": 477,
      "Ġpháº£i": 478,
      "Ġsá»Ń": 479,
      "á»Ļc": 480,
      "Ġnghiá»ĩ": 481,
      "Ãłng": 482,
      "Ġgá»": 483,
      "áº«n": 484,
      "ģn": 485,
      "al": 486,
      "ĠÄĳiá»ģu": 487,
      "Ġdá»±": 488,
      "ĠthÃ¬": 489,
      "Ġquan": 490,
      "Ġxu": 491,
      "ĠâĢĵ": 492,
      "áº£ng": 493,
      "Ãºc": 494,
      "ĠcÃ¹ng": 495,
      "ĠmÃ¡y": 496,
      "ĠhÃ¬nh": 497,
      "Ġráº¥t": 498,
      "Ġsinh": 499,
      "ĠÄĳÃ¢y": 500,
      "Ġtin": 501,
      "Ġtháº¿": 502,
      "Ġbá»Ļ": 503,
      "ĠtÃ´i": 504,
      "Ġphá»": 505,
      "ĠcÆ¡": 506,
      "uyá»ĩ": 507,
      "Ġviá»ĩt": 508,
      "ĠÄĳá»ģ": 509,
      "Ġmá»Ľi": 510,
      "ĠÄĳá»ĭnh": 511,
      "Ġnghá»": 512,
      "ĠnÃªn": 513,
      "á»ĳng": 514,
      "iá»ĥn": 515,
      "Ġquá»ĳc": 516,
      "Ġthá»±c": 517,
      "ĠcÃ²n": 518,
      "Æ°a": 519,
      "Æ°á»Ł": 520,
      "ĠkhÃ¡ch": 521,
      "iá»ĩt": 522,
      "ħn": 523,
      "ĠÄĳá»ĳ": 524,
      "Æ°á»Łng": 525,
      "Ġlu": 526,
      "ĠÄĳi": 527,
      "im": 528,
      "Ġf": 529,
      "Ġtá»ķ": 530,
      "Ġpháº©m": 531,
      "Ġcon": 532,
      "ĠÄĳang": 533,
      "or": 534,
      "Ġtrung": 535,
      "Ġanh": 536,
      "áº¡nh": 537,
      "iá»ĥu": 538,
      "ĠmÃ¬nh": 539,
      "Ġa": 540,
      "ĠnhÆ°ng": 541,
      "es": 542,
      "Ġchá»§": 543,
      "¯a": 544,
      "ĠchÃºng": 545,
      "áº¿u": 546,
      "ĠphÃ¡t": 547,
      "Ġan": 548,
      "Ġthá»ĭ": 549,
      "įn": 550,
      "ĠviÃªn": 551,
      "Ġthiáº¿t": 552,
      "áº¡ng": 553,
      "it": 554,
      "iÃªu": 555,
      "ĠnÄĥng": 556,
      "áº¥u": 557,
      "ĠlÆ°á»£ng": 558,
      "Ġhá»Ļi": 559,
      "ĠlÃ½": 560,
      "Ġngá»": 561,
      "Ġcáº¥p": 562,
      "et": 563,
      "Ġvá»¥": 564,
      "Ġqua": 565,
      "Ġcháº¥t": 566,
      "ĠtrÃ¬nh": 567,
      "Ġngo": 568,
      "ia": 569,
      "ĠÄĳiá»ĥm": 570,
      "ĩnh": 571,
      "Ġcáº§n": 572,
      "Ġlá»Ľ": 573,
      "ĠÄĳáº¡i": 574,
      "ĠtrÆ°á»Ľc": 575,
      "á»ĳi": 576,
      "áº£nh": 577,
      "Ġxuáº¥t": 578,
      "ĠvÃ¬": 579,
      "ĠhÃłnh": 580,
      "ĠnháºŃn": 581,
      "Ġtrang": 582,
      "ua": 583,
      "Ġw": 584,
      "Ġkáº¿t": 585,
      "Ãºp": 586,
      "ĠphÃ²ng": 587,
      "įng": 588,
      "Ġbiáº¿t": 589,
      "Ġná»Ļi": 590,
      "Ġvi": 591,
      "Ġdá»ĭch": 592,
      "Ġloáº¡i": 593,
      "ĠtoÃłn": 594,
      "ĵi": 595,
      "Ġbáº£o": 596,
      "áº£m": 597,
      "Ġxe": 598,
      "uyá»ĩn": 599,
      "Ġrá»": 600,
      "ĠÄĳá»ĳi": 601,
      "Ġnghiá»ĩp": 602,
      "Ġbáº£n": 603,
      "Ġcáº§u": 604,
      "Ġmáº·t": 605,
      "ĠtÆ°": 606,
      "Ã³a": 607,
      "Ġgian": 608,
      "Ġkinh": 609,
      "ĠtÃ¡c": 610,
      "Ġthá»§": 611,
      "Ã³ng": 612,
      "ĠlÃªn": 613,
      "Ġhiá»ĩu": 614,
      "ĠgiÃºp": 615,
      "Ã¨": 616,
      "Ġtáº¡o": 617,
      "Ġkhá»": 618,
      "Ġvá»ĭ": 619,
      "Ġtá»±": 620,
      "Ġpháº§n": 621,
      "Ġtáº¿": 622,
      "el": 623,
      "Ġtiáº¿p": 624,
      "Ġbá»ĩnh": 625,
      "Ġta": 626,
      "ĠtÃŃnh": 627,
      "ĠÄĳo": 628,
      "Ġhay": 629,
      "ĠtÃ¢m": 630,
      "Ġtá»ĳt": 631,
      "Ġbáº±ng": 632,
      "ĠnÃło": 633,
      "ĠdÃ¢n": 634,
      "ĠÄĳiá»ĩn": 635,
      "ĠÄĳÆ°á»Ŀng": 636,
      "Ġgiáº£i": 637,
      "áº¯ng": 638,
      "Ġnay": 639,
      "Ġkhu": 640,
      "Ġáº£nh": 641,
      "Æ°á»Ľng": 642,
      "ĠthÆ°á»Ŀng": 643,
      "įi": 644,
      "áº¡ch": 645,
      "ĠÃ´ng": 646,
      "at": 647,
      "Ġgiá»Ľi": 648,
      "ĠvÄĥn": 649,
      "ĠtÃ¬nh": 650,
      "Ġtiá»ģn": 651,
      "Ãªu": 652,
      "Ãªm": 653,
      "Ġu": 654,
      "Ġem": 655,
      "áº¹p": 656,
      "ĠthÃ¡ng": 657,
      "Ġkáº¿": 658,
      "Ġcu": 659,
      "Ã¡ch": 660,
      "Ġchá»įn": 661,
      "áº¯n": 662,
      "Ġquáº£": 663,
      "Ġhá»ĩ": 664,
      "ĠÃ½": 665,
      "Æ°u": 666,
      "áºŃy": 667,
      "om": 668,
      "«a": 669,
      "ĥn": 670,
      "ĠbÃ¬nh": 671,
      "ĠdÃ¹ng": 672,
      "uá»ķi": 673,
      "ĠÄĥn": 674,
      "ĠliÃªn": 675,
      "Å©": 676,
      "ĠphÃ¡p": 677,
      "Ġnáº¿u": 678,
      "uyá»ĥn": 679,
      "Ġtuy": 680,
      "ic": 681,
      "Ġso": 682,
      "ĠnhiÃªn": 683,
      "Ńa": 684,
      "ĠbÃłi": 685,
      "Ĺi": 686,
      "iá»ħn": 687,
      "Ġlá»Ľn": 688,
      "ĠphÃŃ": 689,
      "Ãºt": 690,
      "Ġthá»©": 691,
      "ĠÄĳáº¹p": 692,
      "ĠtÃłi": 693,
      "Ġchá»©c": 694,
      "ĠgÃ¬": 695,
      "ĠnÃ³i": 696,
      "ĠtáºŃp": 697,
      "ĠdÆ°á»": 698,
      "ĠtÄĥng": 699,
      "ĵn": 700,
      "įc": 701,
      "Ġhoáº·c": 702,
      "Ġdoanh": 703,
      "áº©n": 704,
      "Ġthá»©c": 705,
      "Ġtá»Ľi": 706,
      "âĢ¦": 707,
      "ĠbÃ¡o": 708,
      "...": 709,
      "Ġtháº¥y": 710,
      "Ġtrá»ĭ": 711,
      "Ġmang": 712,
      "Ġhai": 713,
      "ĠthÆ°Æ¡ng": 714,
      "áº¡c": 715,
      "Łi": 716,
      "Ã¬m": 717,
      "ĠbÃ¡n": 718,
      "as": 719,
      "ĠngoÃłi": 720,
      "Ġtrá»įng": 721,
      "uá»ĳn": 722,
      "Ġtriá»ĥn": 723,
      "Ġty": 724,
      "Ġ|": 725,
      "á»Ļng": 726,
      "Ġthanh": 727,
      "īnh": 728,
      "Ġi": 729,
      "ĠhÃ£": 730,
      "ĠyÃªu": 731,
      "Ġxem": 732,
      "ĠhÃ³a": 733,
      "Ġcáº£m": 734,
      "ıi": 735,
      "Ġbiá»ĩt": 736,
      "Ġmua": 737,
      "Ã³c": 738,
      "ĠtÃ¬m": 739,
      "ĠphÆ°Æ¡ng": 740,
      "ĠváºŃy": 741,
      "Ġsá»ĳng": 742,
      "ĠÄĳá»ĭa": 743,
      "Ġsá»Ł": 744,
      "ĠÄĳáº·c": 745,
      "Ġthá»ĳng": 746,
      "ĠbÃªn": 747,
      "ĠtiÃªu": 748,
      "Ġtho": 749,
      "ro": 750,
      "Ġin": 751,
      "£i": 752,
      "Ġmá»¹": 753,
      "Ġváº«n": 754,
      "ĠquÃ¡": 755,
      "Ġda": 756,
      "ĠÄĳÆ¡n": 757,
      "Ġgiao": 758,
      "Ġcuá»Ļc": 759,
      "Ġhoáº¡t": 760,
      "th": 761,
      "Ġminh": 762,
      "áº§m": 763,
      "ĠcÃ´": 764,
      "Ġchiáº¿": 765,
      "Ġchi": 766,
      "ĠtrÃŃ": 767,
      "Ġbao": 768,
      "iá»ĩm": 769,
      "ĠÃ¡n": 770,
      "Ġchu": 771,
      "le": 772,
      "ĠchÆ¡i": 773,
      "Ġtrá»Ł": 774,
      "uyá»ģn": 775,
      "Ġá»©ng": 776,
      "ac": 777,
      "Ġco": 778,
      "ĠhoÃłn": 779,
      "Ġká»³": 780,
      "id": 781,
      "ĠthÃªm": 782,
      "Ġdu": 783,
      "Ġláº§n": 784,
      "Ġliá»ĩu": 785,
      "Ãµ": 786,
      "Ġtay": 787,
      "ph": 788,
      "ĠchuyÃªn": 789,
      "ĠsÃ¡ng": 790,
      "áº³": 791,
      "Ġo": 792,
      "Ġthi": 793,
      "Ġdáº«n": 794,
      "Ġnghá»ĩ": 795,
      "Ġtham": 796,
      "Ġcá»©": 797,
      "Ġlá»±c": 798,
      "Ġtráº»": 799,
      "Ġbáº¥t": 800,
      "áº¡m": 801,
      "Ġtiáº¿ng": 802,
      "Ġtá»īnh": 803,
      "Ġmuá»ĳn": 804,
      "Ġhoa": 805,
      "ĠtÃŃch": 806,
      "ĠnguyÃªn": 807,
      "Ġnhau": 808,
      "ĠchÃŃ": 809,
      "Ġchá»ĭ": 810,
      "«ng": 811,
      "Ġtá»ķng": 812,
      "Ġváº¥n": 813,
      "ur": 814,
      "Ġban": 815,
      "Ã¡m": 816,
      "ĠhÆ°á»Ľng": 817,
      "ĠmÃłu": 818,
      "Ġsá»©c": 819,
      "Ġlá»ĭch": 820,
      "±a": 821,
      "Ġtuá»ķi": 822,
      "ed": 823,
      "Ġgiáº£m": 824,
      "ĠÄĳáº¥t": 825,
      "ĠÄĳá»ģu": 826,
      "ing": 827,
      "is": 828,
      "Ġsao": 829,
      "ĠxÃ£": 830,
      "ĠnghÄ©": 831,
      "uá»ĳng": 832,
      "áº§y": 833,
      "Ġxá»": 834,
      "Ġchuyá»ĥn": 835,
      "Äĥm": 836,
      "ĠÄĳÃ¬nh": 837,
      "Ġcung": 838,
      "Ġhá»ĵ": 839,
      "ĠÄĳá»Ļi": 840,
      "Ġvá»«a": 841,
      "Ã©p": 842,
      "áº±m": 843,
      "Ġcháº¿": 844,
      "áºŃu": 845,
      "Ġngay": 846,
      "ĠÄĳá»ķi": 847,
      "ĠtiÃªn": 848,
      "ĠnháºŃt": 849,
      "Ã©t": 850,
      "ĠÄĳáº·t": 851,
      "Ġtiáº¿t": 852,
      "Ġsu": 853,
      "ad": 854,
      "ĠÄĳÃ¡nh": 855,
      "Ġbá»Łi": 856,
      "Ġtu": 857,
      "Ġmá»įi": 858,
      "áº¥m": 859,
      "Ġmáº¡nh": 860,
      "áº«u": 861,
      "Ãºng": 862,
      "Ġgh": 863,
      "Ġráº±ng": 864,
      "ĠcÃ¡i": 865,
      "áº³ng": 866,
      "ĠthÃ¢n": 867,
      "Ã²a": 868,
      "Ġgiá»Ŀ": 869,
      "áº¯p": 870,
      "ĠcÃ¡": 871,
      "áº¯m": 872,
      "Ġphá»ĳ": 873,
      "Ġphong": 874,
      "Ġphá»¥": 875,
      "Ġquyáº¿t": 876,
      "ĠluÃ´n": 877,
      "Ġgáº§n": 878,
      "ĠthÃŃch": 879,
      "tr": 880,
      "Ġdá»ħ": 881,
      "Ġná»¯": 882,
      "Ġhá»Ļ": 883,
      "Ġbiáº¿n": 884,
      "ĠchÆ°a": 885,
      "Ġdiá»ħn": 886,
      "ĠbÃłn": 887,
      "Ġbáº¯t": 888,
      "ĠváºŃt": 889,
      "Ġcá»ķ": 890,
      "Ġj": 891,
      "ĠkhÃ³": 892,
      "Ġtá»Ń": 893,
      "ĠxÃ¢y": 894,
      "Ġnhanh": 895,
      "Ġnhá»ı": 896,
      "Ġe": 897,
      "Ġtriá»ĩu": 898,
      "ĠphÃ¢n": 899,
      "Ġdiá»ĩn": 900,
      "us": 901,
      "oo": 902,
      "ĠlÃºc": 903,
      "ĠthuáºŃt": 904,
      "Ġmáº¯t": 905,
      "Ġkhiáº¿n": 906,
      "Ġmá»Ĺi": 907,
      "Ġtrá»£": 908,
      "iÃªm": 909,
      "Ġdá»±ng": 910,
      "ĠbÃ³ng": 911,
      "áº·p": 912,
      "ĠÄĳÃ´ng": 913,
      "ĠlÃ£": 914,
      "Ġchiáº¿n": 915,
      "ĠnÆ¡i": 916,
      "eb": 917,
      "ĠÄĳÃ¡": 918,
      "uyá»ħn": 919,
      "ĠÄĳáº¡o": 920,
      "Ġmáº¹": 921,
      "Ġphá»¥c": 922,
      "il": 923,
      "ĠgÃ¢y": 924,
      "ĠÄĳá»ĵ": 925,
      "Ġkiáº¿n": 926,
      "Ġvá»±c": 927,
      "Ã´m": 928,
      "ĠdÆ°á»Ľi": 929,
      "Ġnghiá»ĩm": 930,
      "Ġthay": 931,
      "ĠtÆ°á»£ng": 932,
      "ine": 933,
      "Ġtruyá»ģn": 934,
      "áº·ng": 935,
      "Ġviáº¿t": 936,
      "Ġcá»Ńa": 937,
      "Ġcáº£nh": 938,
      "Ġlá»£i": 939,
      "ĠgiÃ¡o": 940,
      "Ġtá»¥c": 941,
      "ĠmÃ¹": 942,
      "ag": 943,
      "Ġvá»ĩ": 944,
      "ĠchÆ°Æ¡ng": 945,
      "Ġnguyá»ħn": 946,
      "ÃŃn": 947,
      "Æ°ng": 948,
      "uá»ĵn": 949,
      "ĠÄĳáº¥u": 950,
      "ĠbÃ©": 951,
      "uá»ĳi": 952,
      "Ġchá»©ng": 953,
      "iáº¿u": 954,
      "Ġtiáº¿n": 955,
      "ĠmÃ£": 956,
      "ĠláºŃp": 957,
      "Ġai": 958,
      "Ġtáº¥t": 959,
      "ĠÄĳÄĥng": 960,
      "Æ°á»£t": 961,
      "Ġtinh": 962,
      "Ġchiáº¿c": 963,
      "ĠsÄ©": 964,
      "Ġtá»·": 965,
      "ĠquÃ½": 966,
      "Ġmáº«u": 967,
      "ĠvÃ´": 968,
      "Ġkhoáº£ng": 969,
      "ĠhÃ£y": 970,
      "Ġca": 971,
      "ĠsÃ¡ch": 972,
      "ĠÄĳa": 973,
      "Ġkhai": 974,
      "Ã¬n": 975,
      "¯u": 976,
      "ÃŃt": 977,
      "ĠtÃªn": 978,
      "Ġhiá»ĥu": 979,
      "Ġhá»¯u": 980,
      "lo": 981,
      "Ġgam": 982,
      "Ġmá»©c": 983,
      "Ġtá»«ng": 984,
      "un": 985,
      "¡ng": 986,
      "ĠÄĳÆ°a": 987,
      "Ġtrá»±c": 988,
      "Ġlá»±a": 989,
      "Ġmá»¥c": 990,
      "ĠnháºŃp": 991,
      "ter": 992,
      "Ġháº¿t": 993,
      "Ġkiá»ĩn": 994,
      "Ġchá»ĳng": 995,
      "ĠÄĳoÃłn": 996,
      "Ġrá»ĵi": 997,
      "Ġchung": 998,
      "Ġsáº¯c": 999,
      "Ġná»ķi": 1000,
      "ĠbÃł": 1001,
      "Ġchuáº©n": 1002,
      "ĠcÄĥn": 1003,
      "ĠlÆ°u": 1004,
      "Ġba": 1005,
      "Ġquáº£n": 1006,
      "áº½": 1007,
      "áº£y": 1008,
      "ĠtráºŃn": 1009,
      "Ġquyá»": 1010,
      "Ġbá»ı": 1011,
      "Ġdi": 1012,
      "Ġtra": 1013,
      "Ġthuá»Ļc": 1014,
      "ĵm": 1015,
      ").": 1016,
      "Ġhá»Ĺ": 1017,
      "Ġbá»ĳ": 1018,
      "áº¿p": 1019,
      "Ġlá»Ŀi": 1020,
      "ĠcÃ¢y": 1021,
      "Ä©nh": 1022,
      "Ġchia": 1023,
      "Ġtp": 1024,
      "os": 1025,
      "ĠdÃłi": 1026,
      "ĠÄĳá»§": 1027,
      "áº¡y": 1028,
      "ĠcÃ¢u": 1029,
      "ol": 1030,
      "ĠhÃ²a": 1031,
      "Ġgiá»¯a": 1032,
      "Ġkiá»ĥm": 1033,
      "ĠtrÆ°á»Łng": 1034,
      "Ġgá»ĵm": 1035,
      "Ġnhu": 1036,
      "),": 1037,
      "ĠgÃ³": 1038,
      "iÃªng": 1039,
      "ĠthÃ¡i": 1040,
      "ho": 1041,
      "Ġká»¹": 1042,
      "ĠkhÃŃ": 1043,
      "Ġdanh": 1044,
      "ĠsÃ¡t": 1045,
      "Ġkháº£": 1046,
      "ĠtÃŃn": 1047,
      "Ġquyá»ģn": 1048,
      "cm": 1049,
      "ĠxÃ¡c": 1050,
      "ĠtÆ°Æ¡ng": 1051,
      "ĠchÃ¢n": 1052,
      "Ġcá»¥": 1053,
      "Ã³n": 1054,
      "Ġcá»©u": 1055,
      "Ġdung": 1056,
      "ĠÄĳáº£m": 1057,
      "ĠtháºŃt": 1058,
      "\".": 1059,
      "Ġphim": 1060,
      "ĠthÆ°": 1061,
      "uyá»ĩt": 1062,
      "Ġmá»Ł": 1063,
      "Ġcá»±c": 1064,
      "ĠnhÃ¬n": 1065,
      "ĠÃ¡p": 1066,
      "Ã¡u": 1067,
      "Ġviá»ĩn": 1068,
      "Ġgáº·p": 1069,
      "one": 1070,
      "Ġmáº¡ng": 1071,
      "Ġkhoa": 1072,
      "Ġnguá»ĵn": 1073,
      "©a": 1074,
      "Ġgame": 1075,
      "ĠÄĳá»Ŀi": 1076,
      "Ġsang": 1077,
      "ĠdÃ¹": 1078,
      "Ġháº¡n": 1079,
      "ap": 1080,
      "ĠkÃ½": 1081,
      "Ġtá»ĳi": 1082,
      "Ġtiá»ĩn": 1083,
      "ĠÄĳáº¡t": 1084,
      "Ġyáº¿u": 1085,
      "iáº¿m": 1086,
      "ĠÄĳáº§y": 1087,
      "ĠphÃ¹": 1088,
      "vn": 1089,
      "Ġvu": 1090,
      "ĠváºŃn": 1091,
      "ĠchÃ¢u": 1092,
      "ĠnghÄ©a": 1093,
      "ot": 1094,
      "ĠluáºŃt": 1095,
      "Ġgá»įi": 1096,
      "Ġ,": 1097,
      "ĠcÃ¡o": 1098,
      "Ġcam": 1099,
      "Ġthuá»ĳc": 1100,
      "ĠngÃłnh": 1101,
      "ĠdÆ°Æ¡ng": 1102,
      "ĠhÆ°á»Łng": 1103,
      "ĠlÃ²ng": 1104,
      "Ġbiá»ĥu": 1105,
      "Ġkhá»ı": 1106,
      "ĠbÆ°á»Ľc": 1107,
      "ĠÄĳá»©c": 1108,
      "ĠÃ¢m": 1109,
      "Ġhá»ıi": 1110,
      "Ġbay": 1111,
      "Ġhuy": 1112,
      "ĠÄĳÃºng": 1113,
      "Ġcá»ĳ": 1114,
      "ĠcÃłng": 1115,
      "áº©u": 1116,
      "Ġchuyá»ĩn": 1117,
      "Ġnhiá»ĩm": 1118,
      "Ġkhá»ıe": 1119,
      "Ġcáº¡nh": 1120,
      "nd": 1121,
      "ĠkhÃ¡": 1122,
      "Ġthoáº¡i": 1123,
      "ĠdÆ°á»¡ng": 1124,
      "Ġhuyá»ĩn": 1125,
      "Ġpháº¡m": 1126,
      "Ġ/": 1127,
      "Ġnghá»ĭ": 1128,
      "ĠdÃ²ng": 1129,
      "Ġtáº£i": 1130,
      "Ã¢ng": 1131,
      "ĠÃŃt": 1132,
      "Ġgiá»¯": 1133,
      "ĠsÆ¡n": 1134,
      "ĠÆ°u": 1135,
      "Ġtranh": 1136,
      "Ġgiáº£": 1137,
      "Ġrá»Ļng": 1138,
      "Ġná»¯a": 1139,
      "ĠvÃłng": 1140,
      "Ġdáº¡ng": 1141,
      "ĠÂ": 1142,
      "Ġmáº¥t": 1143,
      "ĠquÃ¢n": 1144,
      "ĠÄĳá»Ļc": 1145,
      "Ġtháº¯ng": 1146,
      "ĠsÃ¢n": 1147,
      "ĠtrÃ²": 1148,
      "Ġháº£i": 1149,
      "ĠmÃ¹a": 1150,
      "ĠquáºŃn": 1151,
      "Ġcuá»ĳi": 1152,
      "iv": 1153,
      "ec": 1154,
      "Ġtá»©c": 1155,
      "ĠvÃ¹ng": 1156,
      "ĠriÃªng": 1157,
      "Ġtháº¥t": 1158,
      "ew": 1159,
      "Ã³m": 1160,
      "ĠhoÃłng": 1161,
      "ĠÃ¡o": 1162,
      "Ġbiá»ĥn": 1163,
      "ĠthiÃªn": 1164,
      "ent": 1165,
      "ĠkÃ©": 1166,
      "ĠcáºŃp": 1167,
      "Ġlan": 1168,
      "Ġtráº£": 1169,
      "ĠrÃµ": 1170,
      "Ãłu": 1171,
      "Ġquáº£ng": 1172,
      "Ġtháº§n": 1173,
      "áºŃm": 1174,
      "Ġá»§": 1175,
      "ĠmÃ³n": 1176,
      "Ġon": 1177,
      "Ġ:": 1178,
      "á»ĳn": 1179,
      "Ġlá»Ľp": 1180,
      "ĠvÃ²ng": 1181,
      "ĠmÃ´i": 1182,
      "ion": 1183,
      "Ġlá»ĩ": 1184,
      "ĠÄĳÃł": 1185,
      "ĠhÃ´m": 1186,
      "com": 1187,
      "Ġbu": 1188,
      "Ġsáº»": 1189,
      "ĠdÃłnh": 1190,
      "line": 1191,
      "ip": 1192,
      "Ġtráº¡ng": 1193,
      "ĠÄĳÃ¡ng": 1194,
      "Ã¨o": 1195,
      "Ġkim": 1196,
      "Ġweb": 1197,
      "Ġcá»Ļng": 1198,
      "Ġngoáº¡i": 1199,
      "ĠtÆ°á»Łng": 1200,
      "Ġcháº¯c": 1201,
      "Ġláº¥y": 1202,
      "Ġbáº¯c": 1203,
      "ĠcÆ°": 1204,
      "áº¡p": 1205,
      "ĠnÃ¢ng": 1206,
      "ĠphÃŃa": 1207,
      "ĠkÃŃch": 1208,
      "re": 1209,
      "Ġvui": 1210,
      "Ġxá»Ń": 1211,
      "ĠtoÃ¡n": 1212,
      "ĠnhÃ©": 1213,
      "ĠtÃ¢y": 1214,
      "Ġdá»¥c": 1215,
      "ĠngÃ¢n": 1216,
      "to": 1217,
      "Ġxin": 1218,
      "Ġtuyáº¿n": 1219,
      "Ġká»ĥ": 1220,
      "Ġkháº©u": 1221,
      "uyáº¿n": 1222,
      "Ġdáº§u": 1223,
      "Ġxanh": 1224,
      "um": 1225,
      "ĠphÃº": 1226,
      "and": 1227,
      "ĠlÃ¢u": 1228,
      "ĠÄĳÃ´i": 1229,
      "Ġ.": 1230,
      "ĠĠ": 1231,
      "Ġphá»§": 1232,
      "\",": 1233,
      "Ġkiáº¿m": 1234,
      "Ġlinh": 1235,
      "ĠhÃºt": 1236,
      "Ġchiá»ģu": 1237,
      "Ġnhiá»ĩt": 1238,
      "ig": 1239,
      "Ġlong": 1240,
      "ĠÄĳoáº¡n": 1241,
      "ĠmÃ´": 1242,
      "Ãºi": 1243,
      "ĠgÃ¡i": 1244,
      "Ġhá»ĵi": 1245,
      "Ġgiáº£n": 1246,
      "Ġáº¥y": 1247,
      "Ġnáº±m": 1248,
      "Ġthiá»ĩn": 1249,
      "Ġsuáº¥t": 1250,
      "ĠÃŃch": 1251,
      "ĠluáºŃn": 1252,
      "Ġuá»ĳng": 1253,
      "ĠthÆ¡": 1254,
      "áº©y": 1255,
      "Ġlá»ħ": 1256,
      "ĠbÃ¡c": 1257,
      "Ġhoáº¡ch": 1258,
      "Ńi": 1259,
      "Ġnháº±m": 1260,
      "Ġráº»": 1261,
      "ĠtrÃ¡i": 1262,
      "ex": 1263,
      "ĠthuáºŃn": 1264,
      "Ġchá»ĭu": 1265,
      "Ġtráº¯ng": 1266,
      "ĠhÃ£ng": 1267,
      "ĠÄĳÃłn": 1268,
      "ĠdÃłng": 1269,
      "Ġtuáº§n": 1270,
      "ĠÄĳá»įc": 1271,
      "Ġtuyá»ĩt": 1272,
      "Ġkhoáº£n": 1273,
      "ĠháºŃu": 1274,
      "Ġthá»§y": 1275,
      "Ġná»ģn": 1276,
      "Ġtuyá»ĥn": 1277,
      "ĠsÆ¡": 1278,
      "Ġthiáº¿u": 1279,
      "ĠgiÃ¡m": 1280,
      "Ġlao": 1281,
      "iá»ĩp": 1282,
      "Ġhá»ĵng": 1283,
      "ĠÄĳÃło": 1284,
      "Ġnghe": 1285,
      "ĠmÃłn": 1286,
      "Ã¨n": 1287,
      "Ġáº¥n": 1288,
      "Ġus": 1289,
      "ĠhÃłn": 1290,
      "Ġtráº§n": 1291,
      "Ġgiáº¥y": 1292,
      "ĠhÆ°Æ¡ng": 1293,
      "Ġxuá»ĳng": 1294,
      "ĭp": 1295,
      "ĠÄĳÃ´": 1296,
      "ĠÄĳÃ¡p": 1297,
      "ĠnhÃ³m": 1298,
      "ĠÃ´": 1299,
      "Ġma": 1300,
      "Ġgá»Ńi": 1301,
      "Ġninh": 1302,
      "ĳng": 1303,
      "ĠphÃºt": 1304,
      "Ġ'": 1305,
      "Ã£i": 1306,
      "Ġst": 1307,
      "ĠsiÃªu": 1308,
      "Ġ+": 1309,
      "Ġbá»ķ": 1310,
      "ģm": 1311,
      "ĠtÃ¢n": 1312,
      "Ġgiá»ĳng": 1313,
      "ĠÄĳÃ¢u": 1314,
      "Ġduy": 1315,
      "Ġghi": 1316,
      "ĠÄĳau": 1317,
      "ĠphÃ¡": 1318,
      "kh": 1319,
      "ĠphÃ©p": 1320,
      "ĠÄĳÃ³ng": 1321,
      "Æ°Æ¡i": 1322,
      "Ġmáº·c": 1323,
      "ĠphiÃªn": 1324,
      "iá»ħ": 1325,
      "Ġphá»ĳi": 1326,
      "Ġuy": 1327,
      "ĠâĢľ": 1328,
      "co": 1329,
      "ĠgÃ³p": 1330,
      "áº§ng": 1331,
      "ite": 1332,
      "Ġxa": 1333,
      "ĠmÃ´n": 1334,
      "Ġchá»¯a": 1335,
      "ĠxÃ©t": 1336,
      "Ġmo": 1337,
      "Ġmá»ģm": 1338,
      "Ġvá»ĳn": 1339,
      "Ġtá»ĭch": 1340,
      "ra": 1341,
      "ĠkhÄĥn": 1342,
      "Ġtráº£i": 1343,
      "ĠcÃ¢n": 1344,
      "âĢĿ": 1345,
      "Ġz": 1346,
      "Ġnháº¡c": 1347,
      "Ġngá»§": 1348,
      "iá»ģm": 1349,
      "Ġbáº£ng": 1350,
      "ĠÄĳáº£o": 1351,
      "Ġláº¡nh": 1352,
      "Æ°á»Ľi": 1353,
      "ĠnghiÃªn": 1354,
      "Ġnguy": 1355,
      "Ġtáº§ng": 1356,
      "Ġváº»": 1357,
      "Ġvay": 1358,
      "Ġháº¡": 1359,
      "ĠbÃŃ": 1360,
      "ĠchÄĥm": 1361,
      "ĠthuÃª": 1362,
      "art": 1363,
      "vid": 1364,
      "Ġtháº£o": 1365,
      "ut": 1366,
      "ĠkhÃ³a": 1367,
      "Ġthe": 1368,
      "ĠkÃŃnh": 1369,
      "ĠvÅ©": 1370,
      "ĠnÃ´ng": 1371,
      "Ġsáº¡ch": 1372,
      "ĠÂ»": 1373,
      "Ġmay": 1374,
      "ĠkhÃ¡m": 1375,
      "Ġcl": 1376,
      "ul": 1377,
      "Ġtrá»Ŀi": 1378,
      "st": 1379,
      "Ġcháº¡y": 1380,
      "ĠnÃ³ng": 1381,
      "ĠlÃ£nh": 1382,
      "ĠbÃ¡nh": 1383,
      "Ġháº¥p": 1384,
      "Ġsá»Ńa": 1385,
      "ĠvÃłi": 1386,
      "Ġ...": 1387,
      "Ġre": 1388,
      "ĠthÆ°á»Łng": 1389,
      "Ġvá»£": 1390,
      "Ġgá»Ĺ": 1391,
      "ĠngÃ´i": 1392,
      "Ġlá»Ļ": 1393,
      "Ġtiá»ĥu": 1394,
      "Ġnghá»ī": 1395,
      "Ġmiá»ħn": 1396,
      "Ġmáº¡i": 1397,
      "ĠchÃ³ng": 1398,
      "ĠxuyÃªn": 1399,
      "ĠxuÃ¢n": 1400,
      "Ġchá»ĵng": 1401,
      "ĠdÃ¢y": 1402,
      "ĠyÃªn": 1403,
      "Ġmong": 1404,
      "ĠmÃ¡i": 1405,
      "Ġá»ķ": 1406,
      "Ġtai": 1407,
      "Ġcáº£i": 1408,
      "Ġvá»įng": 1409,
      "ĠphÃ³": 1410,
      "Ġá»§y": 1411,
      "ĠÄĳá»ı": 1412,
      "phone": 1413,
      "Ġmáº¯c": 1414,
      "ĠgiÃ¡c": 1415,
      "Ġal": 1416,
      "ĠthÃº": 1417,
      "Ġviet": 1418,
      "ĠcÆ°á»Ŀng": 1419,
      "Ġonline": 1420,
      "Ġkháº£o": 1421,
      "Ġbuá»ķi": 1422,
      "ĠtÃ´": 1423,
      "Ġná»ĳi": 1424,
      "ıng": 1425,
      "Ġle": 1426,
      "įt": 1427,
      "Ġla": 1428,
      "Ġnhá»Ŀ": 1429,
      "Ġnhá»Ľ": 1430,
      "Ġchá»īnh": 1431,
      "Ġnháº¹": 1432,
      "Ġsá»¯a": 1433,
      "Ġphá»ķ": 1434,
      "ĠlÃª": 1435,
      "Ġkiá»ĥu": 1436,
      "Ġngá»įc": 1437,
      "ik": 1438,
      "uÃ´i": 1439,
      "Ġro": 1440,
      "tt": 1441,
      "ĠÄĳá»©ng": 1442,
      "Ġbáº¿p": 1443,
      "ĠkÃª": 1444,
      "ĠsÆ°": 1445,
      "ĠlÄ©nh": 1446,
      "if": 1447,
      "ĠsÃ¢u": 1448,
      "ĠtÃ³c": 1449,
      "Ġtháº©m": 1450,
      "ĠphÃºc": 1451,
      "Ġkhá»ıi": 1452,
      "ĠÄĳáº£ng": 1453,
      "iá»ħm": 1454,
      "ĠbáºŃt": 1455,
      "Ġtáº¥n": 1456,
      "Ġthiá»ĩu": 1457,
      "pt": 1458,
      "Ġmiá»ģn": 1459,
      "Ġtá»ĳc": 1460,
      "ĠtÃ¹": 1461,
      "Ġnghiá»ģn": 1462,
      "ĠtÃłu": 1463,
      "Ġhiá»ĥm": 1464,
      "Ġquang": 1465,
      "ĠsÃ³c": 1466,
      "Ġthao": 1467,
      "Ġkhá»Łi": 1468,
      "Ġvai": 1469,
      "ĠÃ¡nh": 1470,
      "Ġnha": 1471,
      "do": 1472,
      "Ġsh": 1473,
      "ĠvÆ°á»£t": 1474,
      "ĠmáºŃt": 1475,
      "pp": 1476,
      "ĠtrÃ¡nh": 1477,
      "ıa": 1478,
      "ĠÄĳÃªm": 1479,
      "Ġtrai": 1480,
      "Ġdáº¥u": 1481,
      "ub": 1482,
      "ĠrÄĥng": 1483,
      "Ġtháº¥p": 1484,
      "ĠlÆ°á»£t": 1485,
      "ĠtÆ°á»Ľng": 1486,
      "Ġká»·": 1487,
      "ĠkÃ©o": 1488,
      "Ġpháº£n": 1489,
      "vi": 1490,
      "ook": 1491,
      "Ġnghá»ģ": 1492,
      "Ġ<": 1493,
      "ĠxÃºc": 1494,
      "Ġcovid": 1495,
      "me": 1496,
      "Ġngon": 1497,
      "Ġxáº£y": 1498,
      "Ġtáº·ng": 1499,
      "ĠquÃ¡n": 1500,
      "Ġkháº¯c": 1501,
      "ess": 1502,
      "Ġcháº¯n": 1503,
      "ĠÄĳÃ¨n": 1504,
      "Ã£n": 1505,
      "ĠmÃ¡u": 1506,
      "ĠtáºŃn": 1507,
      "Ġhu": 1508,
      "Ġgiang": 1509,
      "Ġcháº¥p": 1510,
      "ark": 1511,
      "ĠlÃ¡": 1512,
      "est": 1513,
      "Ġ&": 1514,
      "Ġhy": 1515,
      "Ġnhiá»ħm": 1516,
      "Ġam": 1517,
      "Ġthá»Ń": 1518,
      "Ġcan": 1519,
      "Ġmai": 1520,
      "ĠbiÃªn": 1521,
      "Ġcháº¿t": 1522,
      "era": 1523,
      "ĠniÃªn": 1524,
      "Ġthai": 1525,
      "ĠviÃªm": 1526,
      "ĠÃ¡": 1527,
      "Ã¨m": 1528,
      "Ġquáº§n": 1529,
      "ie": 1530,
      "Ġcáº¥u": 1531,
      "Ġsho": 1532,
      "Ġláº¡c": 1533,
      "Ġ[": 1534,
      "ak": 1535,
      "Ġháº¡i": 1536,
      "Ġláº¯p": 1537,
      "Ġsp": 1538,
      "ĠtrÃ¬": 1539,
      "ĠhÆ¡i": 1540,
      "Ġquanh": 1541,
      "Ġusd": 1542,
      "áº·n": 1543,
      "Ġtim": 1544,
      "mt": 1545,
      "Ľm": 1546,
      "Ġub": 1547,
      "url": 1548,
      "Ġvn": 1549,
      "Ġtop": 1550,
      "Ġháº¡ng": 1551,
      "Ġchá»©a": 1552,
      "Ġbá»¥": 1553,
      "á»Ļn": 1554,
      "Ġcháº³ng": 1555,
      "Ġnghi": 1556,
      "Ġâ": 1557,
      "ĠÄĳá»ĳc": 1558,
      "ĠÄĳem": 1559,
      "ĠÄĳáº©y": 1560,
      "Ġluyá»ĩn": 1561,
      "ff": 1562,
      "µn": 1563,
      "Ġgiai": 1564,
      "Ãµi": 1565,
      "Ġquay": 1566,
      "ity": 1567,
      "ĠÄĳen": 1568,
      "uá»ĳt": 1569,
      "Ġquá»": 1570,
      "ĠnuÃ´i": 1571,
      "Ġxo": 1572,
      "ard": 1573,
      "Ġly": 1574,
      "Ġxáº¿p": 1575,
      "Ġsá»Ľm": 1576,
      "Ġtá»§": 1577,
      "Ġsai": 1578,
      "Ġnáº·ng": 1579,
      "net": 1580,
      "Ġlai": 1581,
      "Ġcáº¯t": 1582,
      "Ġchá»¯": 1583,
      "ĠtrÃ¡ch": 1584,
      "==": 1585,
      "Ġpro": 1586,
      "Ġngá»Ŀ": 1587,
      "ĠÃ¢u": 1588,
      "Ġcá»Ń": 1589,
      "Ġháº¡t": 1590,
      "Ġtrao": 1591,
      "Ġcá»¥c": 1592,
      "Ġquen": 1593,
      "ĠmÅ©": 1594,
      "ĠlÃ¢m": 1595,
      "Ġar": 1596,
      "se": 1597,
      "ĠtÆ°Æ¡i": 1598,
      "Ġsáº¡n": 1599,
      "ĠnÃłng": 1600,
      "Ġand": 1601,
      "Ġtáº¿t": 1602,
      "ĠdÃ¡ng": 1603,
      "ĠcÃł": 1604,
      "Ġngá»¯": 1605,
      "ĠlÆ°Æ¡ng": 1606,
      "Ġchá»Ĺ": 1607,
      "Ġthá»¥": 1608,
      "Ġphi": 1609,
      "Ġ>": 1610,
      "ĠcÅ©": 1611,
      "Ġq": 1612,
      "Ġthá»ĭt": 1613,
      "Ġsáºµn": 1614,
      "ĠmÆ¡": 1615,
      "ĠÄĳÃ³n": 1616,
      "Ġá»ķn": 1617,
      "ack": 1618,
      "Ġniá»ĩm": 1619,
      "Ġtáº§m": 1620,
      "ĠngÄĥn": 1621,
      "ĠtrÃºc": 1622,
      "Ġbáº§u": 1623,
      "Ġhot": 1624,
      "Ġnáº¡n": 1625,
      "ab": 1626,
      "site": 1627,
      "ĠgÃ³i": 1628,
      "Ġnga": 1629,
      "áºµ": 1630,
      "Ġubnd": 1631,
      "io": 1632,
      "Ġlá»Ĺi": 1633,
      "Ġbáº¡c": 1634,
      "Ġkhá»ĳi": 1635,
      "Ġkiá»ĩm": 1636,
      "áºµng": 1637,
      "ĠsÃłn": 1638,
      "Ġbá»ģn": 1639,
      "Ġrá»Ńa": 1640,
      "Ġvid": 1641,
      "ĠthÃºc": 1642,
      "ail": 1643,
      "á»ĳt": 1644,
      "ĠthÆ°á»Ľc": 1645,
      "ĠtuyÃªn": 1646,
      "ĠquÃł": 1647,
      "Ġhome": 1648,
      "Ġcha": 1649,
      "ĠtrÃł": 1650,
      "ort": 1651,
      "ore": 1652,
      "ĠthÄĥm": 1653,
      "Ġgá»ĳc": 1654,
      "ĠtÃ¹y": 1655,
      "ĠchÃºt": 1656,
      "Ġnáºµng": 1657,
      "Ġcamera": 1658,
      "Ġcáº§m": 1659,
      "ĠnÃ©t": 1660,
      "ĠhÃłi": 1661,
      "Ġsuy": 1662,
      "ĠngÅ©": 1663,
      "Ġvideo": 1664,
      "Ġgháº¿": 1665,
      "Ġwebsite": 1666,
      "ce": 1667,
      "Ġháº§u": 1668,
      "ĠcÃ¡nh": 1669,
      "ĠsoÃ¡t": 1670,
      "Ġbá»©c": 1671,
      "ck": 1672,
      "Ġthuáº¿": 1673,
      "Ġláº¡": 1674,
      "ĠkhÃ´": 1675,
      "ver": 1676,
      "ord": 1677,
      "Ġbá»Ļt": 1678,
      "ĠphÃª": 1679,
      "Ġlá»įc": 1680,
      "Ġno": 1681,
      "Ġtháº»": 1682,
      "Ġáº©m": 1683,
      "¥p": 1684,
      "ĠcÃ¡n": 1685,
      "áº¹n": 1686,
      "Ġmáº¡ch": 1687,
      "ue": 1688,
      "nam": 1689,
      "Ġmi": 1690,
      "Ġcom": 1691,
      "Ġhiá»ĩp": 1692,
      "Ġsong": 1693,
      "ĠsÃ´ng": 1694,
      "Ġsung": 1695,
      "ĠÄĳÃłi": 1696,
      "Ġyo": 1697,
      "Ġdáº¡y": 1698,
      "ĠphÆ°á»Ŀng": 1699,
      "Ġsa": 1700,
      "ile": 1701,
      "ĠvÃ©": 1702,
      "Ġsáº¯p": 1703,
      "ĠkÃ¨o": 1704,
      "Ġmá»ĳi": 1705,
      "Ġtruy": 1706,
      "Ġdá»¯": 1707,
      "Ã¹i": 1708,
      "te": 1709,
      "uyáº¿t": 1710,
      "Ġpl": 1711,
      "Ġngá»ĵi": 1712,
      "Ġchuyáº¿n": 1713,
      "Ġháº¡nh": 1714,
      "Ġiphone": 1715,
      "Ġvinh": 1716,
      "Ã²i": 1717,
      "ĠnghiÃªm": 1718,
      "¥n": 1719,
      "Ã£o": 1720,
      "Ġtrá»ĵng": 1721,
      "ĠmÃ¡t": 1722,
      "Ġkhuyáº¿n": 1723,
      "ĠtÃ²a": 1724,
      "Ġhá»įa": 1725,
      "Ġvá»Ŀi": 1726,
      "ĠtháºŃm": 1727,
      "ĠthÃ´i": 1728,
      "Æ°á»Ŀn": 1729,
      "Ġnew": 1730,
      "Ġdáº§n": 1731,
      "Ġfac": 1732,
      "Ġthá»«a": 1733,
      "Ġtháº§y": 1734,
      "Ã¹a": 1735,
      "Ġman": 1736,
      "ĠlÃłn": 1737,
      "©t": 1738,
      "ĠhÃ¡t": 1739,
      "ĠtÆ°á»Ŀng": 1740,
      "ĠtÃ´n": 1741,
      "gi": 1742,
      "ĠmÅ©i": 1743,
      "ĠgÃł": 1744,
      "age": 1745,
      "up": 1746,
      "Ġinter": 1747,
      "ĠâĢ¦": 1748,
      "hcm": 1749,
      "ĠtÃºi": 1750,
      "ly": 1751,
      "iz": 1752,
      "ĠthÃ¡c": 1753,
      "ĠvÃŃ": 1754,
      "Ġvs": 1755,
      "Ġngáº¯n": 1756,
      "Ġse": 1757,
      "ĠchÃºa": 1758,
      "ĠÄĳÃŃch": 1759,
      "Ġad": 1760,
      "Ġsuá»ĳt": 1761,
      "Ġtáº¥m": 1762,
      "ĠÄĳÃ¡o": 1763,
      "Ġchá»£": 1764,
      "Ġdá»ĭ": 1765,
      "Ġ#": 1766,
      "Ġko": 1767,
      "Ġau": 1768,
      "Ġtáº¯c": 1769,
      "Ġcuá»ĳn": 1770,
      "Ġchiáº¿u": 1771,
      "ate": 1772,
      "ĠhÃ¹ng": 1773,
      "Ġtháº³ng": 1774,
      "Ġkhá»ķ": 1775,
      "ĠÄĳoÃ¡n": 1776,
      "ers": 1777,
      "ĠhÃ´n": 1778,
      "ĠkÃ¨m": 1779,
      "ĠmÃª": 1780,
      "Ġtáº¡p": 1781,
      "ĠvÃ¢n": 1782,
      "Ġláº½": 1783,
      "Ġpha": 1784,
      "Ġnhá»±a": 1785,
      "Ġkem": 1786,
      "ink": 1787,
      "Ġliá»ģn": 1788,
      "Ìģ": 1789,
      "Ġhuyáº¿t": 1790,
      "Ġchá»¥p": 1791,
      "ĠtrÆ°ng": 1792,
      "....": 1793,
      "ĠdÃµi": 1794,
      "Ġchá»Ŀ": 1795,
      "ĩt": 1796,
      "Ġhá»įp": 1797,
      "Ġtá»ī": 1798,
      "ĠmÃ¹i": 1799,
      "Ã³t": 1800,
      "ir": 1801,
      ",âĢ¦": 1802,
      "ĠpháºŃn": 1803,
      "ts": 1804,
      "Ġphiáº¿u": 1805,
      "ox": 1806,
      "ĠkÃ©m": 1807,
      "ĠbÃło": 1808,
      "ĠgiÃ³": 1809,
      "ass": 1810,
      "Ġmá»¥n": 1811,
      "Ġdá»±a": 1812,
      "Ġnáº¯ng": 1813,
      "ĠcáºŃn": 1814,
      "Ġáº¥m": 1815,
      "ĠbÃły": 1816,
      "ebook": 1817,
      "Ġbuá»Ļc": 1818,
      "ĠÄĳá»«ng": 1819,
      "ĠthÆ°á»£ng": 1820,
      "Ġxung": 1821,
      "Ġnáº¯m": 1822,
      "ĠsÃ³ng": 1823,
      "ĠtÃ¡i": 1824,
      "ĠtrÃ¹ng": 1825,
      "ĠrÆ°á»£": 1826,
      "ĠtrÆ°Æ¡ng": 1827,
      "ĠgÃ³c": 1828,
      "ta": 1829,
      "ib": 1830,
      "ĠÄĳáº³ng": 1831,
      "Ġkia": 1832,
      "ĠsÃłi": 1833,
      "Ġnháº¥n": 1834,
      "Ġloáº¡t": 1835,
      "Ġmu": 1836,
      "Ġac": 1837,
      ".\"": 1838,
      "Ġpr": 1839,
      "ĠrÆ°á»£u": 1840,
      "Ġcoi": 1841,
      "Ġtruyá»ĩn": 1842,
      "ĠlÃłng": 1843,
      "Ġapp": 1844,
      "ĠmÆ°a": 1845,
      "ĠcÆ°á»Ŀi": 1846,
      "ĠmÃ£i": 1847,
      "Ġtá»Ļi": 1848,
      "Ġhá»Ļp": 1849,
      "ĠcáºŃu": 1850,
      "lv": 1851,
      "Ġthoáº£i": 1852,
      "ĠchÃ¡y": 1853,
      "Ġháº¯n": 1854,
      "ank": 1855,
      "Ã³i": 1856,
      "Ġmáº¥y": 1857,
      "Ġgáº¯n": 1858,
      "Ġrau": 1859,
      "la": 1860,
      "Ġvá»¯ng": 1861,
      "ĠhÃłm": 1862,
      "ĠÄĳiá»ĥn": 1863,
      "ĠcÆ°á»Ľi": 1864,
      "Ġháº£o": 1865,
      "Ġcá»©ng": 1866,
      "Ġvin": 1867,
      "Ġnháº¯c": 1868,
      "ĠnÃºi": 1869,
      "Ġtá»Ļc": 1870,
      "Ġmáº½": 1871,
      "ĠgÃ²n": 1872,
      "Ġmá»Ŀi": 1873,
      "Ġmá»Ļ": 1874,
      "ĠdÃły": 1875,
      "ĠcÆ°á»£c": 1876,
      "Ġlá»¥c": 1877,
      "Ġfacebook": 1878,
      "ĠnhiÃªu": 1879,
      "ld": 1880,
      "Ġsá»£": 1881,
      "ĠgiÃłnh": 1882,
      "ĠvÆ°Æ¡ng": 1883,
      "Ľt": 1884,
      "ĠÆ°á»Ľc": 1885,
      "Ġnáº¥u": 1886,
      "ist": 1887,
      "Ġá»ĳng": 1888,
      "ĠdÆ°á»£c": 1889,
      "Ġtá»¥": 1890,
      "ĠphÃ³ng": 1891,
      "ĠlÃ´": 1892,
      "ĠhÆ°ng": 1893,
      "Ġgá»įn": 1894,
      "ĠchÃło": 1895,
      "ĠlÃ¡i": 1896,
      "Ġsm": 1897,
      "Ġláº¯ng": 1898,
      "Ġbiá»ĩn": 1899,
      "Ġsáº¯t": 1900,
      "Ġchiáº¿m": 1901,
      "Ġsoi": 1902,
      "Ġbl": 1903,
      "Ġniá»ģm": 1904,
      "ĠsÃłng": 1905,
      "Ġdinh": 1906,
      "ĠbÄĥng": 1907,
      "Äĳá»": 1908,
      "áº¥c": 1909,
      "tv": 1910,
      "Ġkhung": 1911,
      "Æ°á»¡ng": 1912,
      "Ġun": 1913,
      "Ġtá»Ŀ": 1914,
      "Ġdá»ĭp": 1915,
      "Ġtáº¯m": 1916,
      "ĠÄĳá»ķ": 1917,
      "tá»": 1918,
      "Ġde": 1919,
      "Ġkháº³ng": 1920,
      "ĠthÃŃ": 1921,
      "Ġlá»Ńa": 1922,
      "ĠtÄ©nh": 1923,
      "Ġtrá»¥": 1924,
      "ĠlÃłnh": 1925,
      "ĠlÆ°á»£c": 1926,
      "ĠhÃ¨": 1927,
      "ĠthÆ¡m": 1928,
      "ĠvÆ°á»Ŀn": 1929,
      "Ġfor": 1930,
      "ĠgiÃłu": 1931,
      "Ġxinh": 1932,
      "Ġwin": 1933,
      "ĠrÃºt": 1934,
      "de": 1935,
      "Ġcáº·p": 1936,
      "log": 1937,
      "Ġkáº»": 1938,
      "av": 1939,
      "ĠlÃ´ng": 1940,
      "iá»ĩng": 1941,
      "Ġbo": 1942,
      "ĠcÃłi": 1943,
      "Ġhlv": 1944,
      "Ġas": 1945,
      "á»§ng": 1946,
      "xy": 1947,
      "Ġmá»«ng": 1948,
      "Ġmiá»ĩng": 1949,
      "Ġtph": 1950,
      "ĠkÃ¬": 1951,
      "ĠÄĳá»Ļt": 1952,
      "pl": 1953,
      "so": 1954,
      "Ġsá»ķ": 1955,
      "ĠlÃ£i": 1956,
      "ĠÆ¡n": 1957,
      "amin": 1958,
      "ĠpháºŃt": 1959,
      "ĠrÃłng": 1960,
      "ian": 1961,
      "ĠcÃ¡t": 1962,
      "ĠvÄ©nh": 1963,
      "Ġchá»©": 1964,
      "Ì£": 1965,
      "Ġung": 1966,
      "Ġnhi": 1967,
      "Ġtrá»©ng": 1968,
      "ĠkhÃºc": 1969,
      "Ġsam": 1970,
      "Ġcity": 1971,
      "Ġpo": 1972,
      "Ġ?": 1973,
      "Ġof": 1974,
      "Ġtáº¡m": 1975,
      "Ġtá»ĵn": 1976,
      "ĠngÆ°á»£c": 1977,
      "ill": 1978,
      "ĠxÆ°Æ¡ng": 1979,
      "tc": 1980,
      "ry": 1981,
      "Ġxáº¥u": 1982,
      "ĠngÃ´n": 1983,
      "ĠkhuÃ´n": 1984,
      "ĠthÃ´n": 1985,
      "Ġgiáº£ng": 1986,
      "Ġvit": 1987,
      "ĠkhÃ¡nh": 1988,
      "Ġbá»ģ": 1989,
      "Ġthuyáº¿t": 1990,
      "ĠÆ°Æ¡ng": 1991,
      "Ġliá»ĩt": 1992,
      "Ġte": 1993,
      "Ġthua": 1994,
      "wn": 1995,
      "Ġgoo": 1996,
      "Ġtphcm": 1997,
      "ĠkhÃ¡ng": 1998,
      "Ġpin": 1999,
      "Ġgáº¥p": 2000,
      "Ġpháº¡t": 2001,
      "Ġrá»«ng": 2002,
      "ĠtÃ´ng": 2003,
      "Ġmar": 2004,
      "Ġxong": 2005,
      "ht": 2006,
      "top": 2007,
      "ĠvÃµ": 2008,
      "Ġbáº¡ch": 2009,
      "Ġsá»©": 2010,
      "Ġváº¿t": 2011,
      "Ġser": 2012,
      "all": 2013,
      "Ġxá»©": 2014,
      "ey": 2015,
      "Ġbar": 2016,
      "ĠÄĳÃ£i": 2017,
      "ber": 2018,
      "bo": 2019,
      "ĠbÃ¨": 2020,
      "Ġkhiá»ĥn": 2021,
      "ĠchÃºc": 2022,
      "Ġkhuáº©n": 2023,
      "áºŃc": 2024,
      "áº³n": 2025,
      "ÌĢ": 2026,
      "Ġbr": 2027,
      "Ġbáº¡i": 2028,
      "ĠÄĳÃ¡m": 2029,
      "Ġby": 2030,
      "Ġtá»ĩ": 2031,
      "ĠthoÃ¡t": 2032,
      "ĠtháºŃn": 2033,
      "Ġmin": 2034,
      "ĠgiÃły": 2035,
      "ell": 2036,
      "Ġtháº£i": 2037,
      "Ġxi": 2038,
      "sh": 2039,
      "ĠthÃ¡nh": 2040,
      "Ġká»ĭp": 2041,
      "Ġcá»ķng": 2042,
      "ĠthÃ©p": 2043,
      "ĠchÃłng": 2044,
      "Ġngá»įt": 2045,
      "ĠbáºŃc": 2046,
      "Ã©n": 2047,
      "Ġbá»¯a": 2048,
      "ĠtÃº": 2049,
      "Ġháº³n": 2050,
      "Ġvá»ı": 2051,
      "Ġmá»ĩnh": 2052,
      "Ġinternet": 2053,
      "ost": 2054,
      "Ġtá»ı": 2055,
      "ation": 2056,
      "ĠÄĳÆ°Æ¡ng": 2057,
      "Ġfan": 2058,
      "Ġthá»±": 2059,
      "Ġkháº¯p": 2060,
      "Ġbe": 2061,
      "ĭn": 2062,
      "ĠbÃ£i": 2063,
      "iáº¿ng": 2064,
      "uc": 2065,
      "Ġson": 2066,
      "ĠlÆ°á»Ľi": 2067,
      "ick": 2068,
      "Ġche": 2069,
      "ĠbÃ¢y": 2070,
      "--": 2071,
      "Ľp": 2072,
      "ĠchÃ¡u": 2073,
      "ĠrÆ¡i": 2074,
      "gle": 2075,
      "ĠhoÃ¡": 2076,
      "ĠquÃª": 2077,
      "Ġthang": 2078,
      "Ġshop": 2079,
      "Ġhcm": 2080,
      "ĠkÃªnh": 2081,
      "Ġhá»ģ": 2082,
      "Ġex": 2083,
      "ĠÄĳáºŃu": 2084,
      "Ġdá»«ng": 2085,
      "ĠkhÃ¡n": 2086,
      "ĠÄĳáº¥y": 2087,
      "ĠcÄĥng": 2088,
      "Ġváº£i": 2089,
      "Ġbá»¥ng": 2090,
      "Ġgr": 2091,
      "Ġná»£": 2092,
      "įa": 2093,
      "go": 2094,
      "Ġngáº¡i": 2095,
      "ĠbÆ¡": 2096,
      "Ġbinh": 2097,
      "Ġha": 2098,
      "Ġgáº¯ng": 2099,
      "Ġat": 2100,
      "Ġthá»į": 2101,
      "Ġru": 2102,
      "Ã©o": 2103,
      "ĠtrÃº": 2104,
      "Ġtam": 2105,
      "Ġvitamin": 2106,
      "ĠtrÄĥm": 2107,
      "end": 2108,
      "ĠâĢ¢": 2109,
      "Ġtrá»įn": 2110,
      "Ġthá»ıa": 2111,
      "ĠÄĳá»¡": 2112,
      "Ġgiáº¥c": 2113,
      "Ġbi": 2114,
      "Ġphan": 2115,
      "mm": 2116,
      "Ġtáº¯t": 2117,
      "Ġwor": 2118,
      "ke": 2119,
      "Ġtáº£": 2120,
      "ina": 2121,
      "uá»Ĺi": 2122,
      "Ġgoogle": 2123,
      "ĠÄĳá»£i": 2124,
      "Äĳt": 2125,
      "ĠhÃło": 2126,
      "und": 2127,
      "Ġlá»ĳi": 2128,
      "Ġmá»¡": 2129,
      "Ġtrá»¯": 2130,
      "ĠsÃ¡u": 2131,
      "ash": 2132,
      "Ġháº¹n": 2133,
      "Ġláº«n": 2134,
      "pr": 2135,
      "ĠlÆ°ng": 2136,
      "ĠÄĳá»īnh": 2137,
      "Ġkhá»§ng": 2138,
      "ĠgÆ°Æ¡ng": 2139,
      "Ġlá»Ļc": 2140,
      "Ġcá»±": 2141,
      "Ġlá»Ĺ": 2142,
      "ĠcÆ¡m": 2143,
      "Ãºa": 2144,
      "Ġhd": 2145,
      "ĠÄĳá»ĭch": 2146,
      "Ġlá»ĩnh": 2147,
      "ino": 2148,
      "ĠÄĳua": 2149,
      "ĠcÃº": 2150,
      "ĠlÃ£o": 2151,
      "Ġbang": 2152,
      "ĠquÃªn": 2153,
      "ah": 2154,
      "Ġcar": 2155,
      "±ng": 2156,
      "ll": 2157,
      "Ġrá»ĳi": 2158,
      "ment": 2159,
      "Ġcháº£y": 2160,
      "Ġáº©n": 2161,
      "ĠloÃłi": 2162,
      "ĠÃ©p": 2163,
      "há»": 2164,
      "³nh": 2165,
      "Ġná»Ńa": 2166,
      "Ġis": 2167,
      "Ġthá»Ŀ": 2168,
      "iáº¿p": 2169,
      "uá»ĵng": 2170,
      "fa": 2171,
      "Ġsan": 2172,
      "Ġmáº¯n": 2173,
      "Ġláº¯m": 2174,
      "£t": 2175,
      "ague": 2176,
      "Ġtuáº¥n": 2177,
      "ft": 2178,
      "Ġngang": 2179,
      "ĠnhuáºŃn": 2180,
      "ast": 2181,
      "Ġtri": 2182,
      "Ġtnh": 2183,
      "Ġnon": 2184,
      "ws": 2185,
      "Ġngá»«ng": 2186,
      "Ġnguyá»ĩn": 2187,
      "Ġmy": 2188,
      "Ġcháº·t": 2189,
      "Ġhiá»ĥn": 2190,
      "ĠthÃ¹": 2191,
      "ĠcháºŃm": 2192,
      "Ġtráº¥n": 2193,
      "ĠtrÃ²n": 2194,
      "iá»ĩc": 2195,
      "Ġbá»¥i": 2196,
      "ĠÄĳáº¿": 2197,
      "ĠÆ°a": 2198,
      "Ġ*": 2199,
      "cc": 2200,
      "Ġmáº¡c": 2201,
      "Ġpm": 2202,
      "kg": 2203,
      "alo": 2204,
      "ud": 2205,
      "Ġthá»ķ": 2206,
      "Ġná»ķ": 2207,
      "Ġdao": 2208,
      "Ġgan": 2209,
      "ala": 2210,
      "ĠcÆ¡n": 2211,
      "Ġloáº¡n": 2212,
      "ĠbÃ²": 2213,
      "á»Ļp": 2214,
      "rus": 2215,
      "Ġrá»Ŀi": 2216,
      "Ġvo": 2217,
      "Ġbuá»ĵn": 2218,
      "Ġsá»ĳt": 2219,
      "ĠgiÃ£n": 2220,
      "per": 2221,
      "Ġfr": 2222,
      "ĠnghÃ¨o": 2223,
      "ice": 2224,
      "ĠbÃ©o": 2225,
      "Ġcup": 2226,
      "Ġvietnam": 2227,
      "ĠdÆ°": 2228,
      "ĠchÃ³": 2229,
      "Ġcháº¡m": 2230,
      "Ġlink": 2231,
      "Ġdáº¡": 2232,
      "Ġjo": 2233,
      "ĠdÅ©ng": 2234,
      "====": 2235,
      "Ġná»Ĺ": 2236,
      "Ġmá»±c": 2237,
      "Ġtnhh": 2238,
      "Ġtiá»ģm": 2239,
      "Ġtrá»«": 2240,
      "ty": 2241,
      "ĠbÃª": 2242,
      "ĠkiÃªn": 2243,
      "Ġloa": 2244,
      "Ġgiáº·t": 2245,
      "Ġmob": 2246,
      "Ġseo": 2247,
      "Ġphá»©c": 2248,
      "ĠgiÃ¡p": 2249,
      "pe": 2250,
      "Ġtá»ķn": 2251,
      "Ġtáº£ng": 2252,
      "ĠthoÃ¡ng": 2253,
      "Ġmark": 2254,
      "Ġgmt": 2255,
      "Ġeu": 2256,
      "Ġair": 2257,
      "ĠkÃŃn": 2258,
      "Ġmic": 2259,
      "ĠÄĳá»©a": 2260,
      "Ġtan": 2261,
      "Ġsk": 2262,
      "Ġvong": 2263,
      "ect": 2264,
      "Ġsáº¯m": 2265,
      "ĠÄĳá»ĩ": 2266,
      "ĠphÃ¡i": 2267,
      "Ġim": 2268,
      "sa": 2269,
      "Ġháº±ng": 2270,
      "ich": 2271,
      "Ġsmart": 2272,
      "Ġná»Ĺi": 2273,
      "uá»ĩ": 2274,
      "ĠÄĳÃ²i": 2275,
      "Ġváº½": 2276,
      "Ġpháº«u": 2277,
      "ĠtháºŃp": 2278,
      "sung": 2279,
      "Ġhá»©ng": 2280,
      "are": 2281,
      "ton": 2282,
      "Ġtreo": 2283,
      "ĠchÃ¹a": 2284,
      "Ġres": 2285,
      "Ġkhá»Ľp": 2286,
      "Ġhá»§": 2287,
      "á»ĳp": 2288,
      "Ġbáº¿n": 2289,
      "Ġworld": 2290,
      "ps": 2291,
      "Ġbáº£y": 2292,
      "Ġláº»": 2293,
      "Ġga": 2294,
      "Ġgá»£i": 2295,
      "Ġlap": 2296,
      "Ġsá»¹": 2297,
      "roid": 2298,
      "ĠgiÆ°á»Ŀng": 2299,
      "Ġquá»¹": 2300,
      "Ġsim": 2301,
      "Ġhuyá»ģn": 2302,
      "Ġtháº¡ch": 2303,
      "Ġit": 2304,
      "Ä©a": 2305,
      "ĠÄĳá»Ĺ": 2306,
      "ĠcÆ°Æ¡ng": 2307,
      "Ġel": 2308,
      "Ġhuáº¥n": 2309,
      "ĠbuÃ´n": 2310,
      "thá»": 2311,
      "Ġbáº¯n": 2312,
      "ĠnhÃłng": 2313,
      "ĠngÃłn": 2314,
      "Ġblog": 2315,
      "ĠxÆ°a": 2316,
      "ive": 2317,
      "ĠÄĳáºŃm": 2318,
      "ien": 2319,
      "ull": 2320,
      "ma": 2321,
      "ee": 2322,
      "Ġsc": 2323,
      "Ġmá»ĭn": 2324,
      "Ġngá»«a": 2325,
      "ĠÂ·": 2326,
      "ĠÄĳá»£t": 2327,
      "ĠhÆ°": 2328,
      "Ġcr": 2329,
      "ĠtrÃ´ng": 2330,
      "gmt": 2331,
      "Ġá»§ng": 2332,
      "Ġsamsung": 2333,
      "ĠnÆ°á»Ľng": 2334,
      "oc": 2335,
      "Ġtriá»ģu": 2336,
      "Ġduyá»ĩt": 2337,
      "Ġthiá»ĥu": 2338,
      "xi": 2339,
      "Ġgiá»ıi": 2340,
      "ga": 2341,
      "khÃ´ng": 2342,
      "á»Ļm": 2343,
      "ĠcÃ¡p": 2344,
      "Ġchua": 2345,
      "Ġgáº¡o": 2346,
      "Ġgol": 2347,
      "ĠthÄĥng": 2348,
      "Ġme": 2349,
      "Ġapple": 2350,
      "ĠngÃ´": 2351,
      "ĠgiÃł": 2352,
      "Ġandroid": 2353,
      "Ġcháº·n": 2354,
      "Ġcanh": 2355,
      "Ġpháº¥n": 2356,
      "ĠbÃ¡t": 2357,
      "ĠrÃ£i": 2358,
      "da": 2359,
      "Ġhuáº¿": 2360,
      "Ġdiá»ĩt": 2361,
      "ĠphÆ°á»Ľc": 2362,
      "Ġii": 2363,
      "Ġbá»ĳi": 2364,
      "Ġpark": 2365,
      "%.": 2366,
      "Ġled": 2367,
      "ĠbÆ¡i": 2368,
      "Ġtáº©y": 2369,
      "Ġsex": 2370,
      "ĠÄĳá»±ng": 2371,
      "ĠtrÃło": 2372,
      "ada": 2373,
      "ĠnÃ£o": 2374,
      "ca": 2375,
      "Ġlaptop": 2376,
      "ĠÄĳÃłm": 2377,
      "Ġmuá»ĳi": 2378,
      "Ġngá»±c": 2379,
      "min": 2380,
      "Ġnháº¯n": 2381,
      "ve": 2382,
      "ĠlÃ²": 2383,
      "Ġwindo": 2384,
      "ba": 2385,
      "ĠlÅ©": 2386,
      "ix": 2387,
      "Ġ=": 2388,
      "ĠnhÃ£n": 2389,
      "Ġhá»ĵn": 2390,
      "ĠtiÃªm": 2391,
      "Ġthá»Ł": 2392,
      "Ġthan": 2393,
      "Ġpost": 2394,
      "ĠbÃ´ng": 2395,
      "Ġsen": 2396,
      "bank": 2397,
      "va": 2398,
      "ct": 2399,
      "ĠkhoÃ¡n": 2400,
      "ĠnghÃ¬n": 2401,
      "ĠxÆ°á»Łng": 2402,
      "ish": 2403,
      "Ġcá»Ļt": 2404,
      "ĠthÃ¡ch": 2405,
      "tÃ´i": 2406,
      "fe": 2407,
      "Ġbá»Ŀ": 2408,
      "ines": 2409,
      "Ġrá»§": 2410,
      "Ġthiá»ĩt": 2411,
      "ĠtÃŃ": 2412,
      "Ġmen": 2413,
      "Ġtrá»Ļn": 2414,
      "Ġfl": 2415,
      "Ġvan": 2416,
      "az": 2417,
      "Ġphun": 2418,
      "ĠmÆ°á»Ŀi": 2419,
      "Ġtráº§m": 2420,
      "ĠnÃºt": 2421,
      "Ġmá»ıi": 2422,
      "ĠbÆ¡m": 2423,
      "po": 2424,
      "Ġmod": 2425,
      "ight": 2426,
      "chá»": 2427,
      "Ġcháº¥m": 2428,
      "Ġkm": 2429,
      "Ġcas": 2430,
      "Ġlam": 2431,
      "ĠbÃ³": 2432,
      "xh": 2433,
      "ĠchÃŃn": 2434,
      "Ġvá»¡": 2435,
      "load": 2436,
      "Ġtung": 2437,
      "Ġhiáº¿m": 2438,
      "ĠlÃŃ": 2439,
      "Ġtiá»ĩc": 2440,
      "ays": 2441,
      "Ġhá»ıng": 2442,
      "Ġcá»Ŀ": 2443,
      "má»": 2444,
      "Ġloan": 2445,
      "Ġmal": 2446,
      "ĠmÃłng": 2447,
      "roup": 2448,
      "don": 2449,
      "Ġsing": 2450,
      "con": 2451,
      "Ġdown": 2452,
      "iver": 2453,
      "Ġmá»ĩt": 2454,
      "Ġtháº£m": 2455,
      "Ġleague": 2456,
      "ge": 2457,
      "Ġbá»ĳn": 2458,
      "ĠkhoÃ¡ng": 2459,
      "Ġtrá»Ļi": 2460,
      "Ġshow": 2461,
      "Ġvang": 2462,
      "Ġcm": 2463,
      "Ġhe": 2464,
      "view": 2465,
      "ona": 2466,
      "ĠthÃ¹ng": 2467,
      "ĠhÃ¢m": 2468,
      "Ġwindows": 2469,
      "Ġtrá»¥c": 2470,
      "Ġnáº¡p": 2471,
      "Ġhá»§y": 2472,
      "Ġmarket": 2473,
      "tel": 2474,
      "ump": 2475,
      "ĠbÃ¬": 2476,
      "ĠsÃ´i": 2477,
      "Ġká»ĭch": 2478,
      "ĠgiÃ¢y": 2479,
      "Ġtháº¯c": 2480,
      "Ġhoang": 2481,
      "Ġcá»±u": 2482,
      "Ġchuá»Ĺi": 2483,
      "ĠbÃ£o": 2484,
      "Ġtá»±a": 2485,
      "Ġgáº¡ch": 2486,
      "ĠhÄĳ": 2487,
      "ĠkÃªu": 2488,
      "ĠÄĳÄ©a": 2489,
      "Ġtá»ĳn": 2490,
      "ĠtÃ¡o": 2491,
      "Ġvua": 2492,
      "eth": 2493,
      "no": 2494,
      "Ġtag": 2495,
      "Ġnáº¥m": 2496,
      "ĠtÃ¹ng": 2497,
      "ĠdÃłn": 2498,
      "ĠdáºŃy": 2499,
      "Ġná»Ļp": 2500,
      "Ġemail": 2501,
      "ĠtrÃłn": 2502,
      "ĠrÃ¡c": 2503,
      "ĠbÃ¡": 2504,
      "Ġcháº¥n": 2505,
      "Ġchuá»Ļng": 2506,
      "ide": 2507,
      "Ġthá»ĭnh": 2508,
      "Ġbá»įn": 2509,
      "ĠmÃły": 2510,
      "vá»": 2511,
      "Ġgd": 2512,
      "Ġtá»ıa": 2513,
      "Ġong": 2514,
      "Æ°á»Ľp": 2515,
      "Ġtour": 2516,
      "ĠÄĳiá»ĩu": 2517,
      "Ġgiá»įng": 2518,
      "Ġsy": 2519,
      "Ġcáº¥m": 2520,
      "ĠvÃ¡y": 2521,
      "ĠduyÃªn": 2522,
      "ies": 2523,
      "ĠÄĳam": 2524,
      "Ã£y": 2525,
      "Ã¹m": 2526,
      "Ġná»ĵi": 2527,
      "ha": 2528,
      "mp": 2529,
      "ĠmÃ£n": 2530,
      "ĠxÃ³a": 2531,
      "ĠsÃ¡nh": 2532,
      "Ġ>>": 2533,
      "Ġip": 2534,
      "Ġgu": 2535,
      "Ġ)": 2536,
      "ĠnhÃ´m": 2537,
      "ĠmÃ³c": 2538,
      "cs": 2539,
      "ĠdÃ¢u": 2540,
      "ool": 2541,
      "Ġvirus": 2542,
      "cÃ³": 2543,
      "Ġáº£o": 2544,
      "ester": 2545,
      "Ġchá»§ng": 2546,
      "Æ°á»Ľt": 2547,
      "cn": 2548,
      "ml": 2549,
      "Ġva": 2550,
      "uk": 2551,
      "Ġthpt": 2552,
      "ĠÄĳh": 2553,
      "Ġhá»©a": 2554,
      "ico": 2555,
      "Ġcá»ĳt": 2556,
      "Ġmá»Ļc": 2557,
      "ĠÄĳeo": 2558,
      "Ġclip": 2559,
      "ĠdÃ¡n": 2560,
      "Ġgala": 2561,
      ",...": 2562,
      "Ġbit": 2563,
      "ĠmÃŃ": 2564,
      "ĠhÃ´i": 2565,
      "ĠnÃªu": 2566,
      "Ġgá»¡": 2567,
      "Ġgo": 2568,
      "Ġcá»ı": 2569,
      "Ġen": 2570,
      "uch": 2571,
      "Ġed": 2572,
      "Ĺng": 2573,
      "Ġtrump": 2574,
      "Ġsáº¡c": 2575,
      "Ġmiáº¿ng": 2576,
      "Ġxá»ķ": 2577,
      "Ìī": 2578,
      "ĠÃ¡i": 2579,
      "âĢ¦âĢ¦": 2580,
      "Ġview": 2581,
      "ĠkhuyÃªn": 2582,
      "Ġfile": 2583,
      "km": 2584,
      "Ġreal": 2585,
      "Ġviá»ħn": 2586,
      "ĠtÃ´m": 2587,
      "Ġdr": 2588,
      "Ġstr": 2589,
      "ĠthÃ¢m": 2590,
      "Ġfull": 2591,
      "ano": 2592,
      "Ġtháº¥m": 2593,
      "Ġtt": 2594,
      "ðŁ": 2595,
      "Ġhuynh": 2596,
      "ant": 2597,
      "Ġkháº¥u": 2598,
      "Ãłm": 2599,
      "¥t": 2600,
      "ĠsÄĥn": 2601,
      "ĠtÃ¡n": 2602,
      "Ġor": 2603,
      "):": 2604,
      "ĠÃºc": 2605,
      "%,": 2606,
      "Ġbá»įc": 2607,
      "ĠngÆ¡i": 2608,
      "ĠlÃ¢y": 2609,
      "Ġnai": 2610,
      "ier": 2611,
      "Ġmá»ıng": 2612,
      "ĠhÃ´": 2613,
      "?\"": 2614,
      "Ġyáº¿n": 2615,
      "ĠÄĳuá»ķi": 2616,
      "Ġthuyá»ģn": 2617,
      "Ġchuá»Ļt": 2618,
      "ĠÄĳáºŃp": 2619,
      "ĠchÄĥn": 2620,
      "!!": 2621,
      "Ġtáº§n": 2622,
      "ome": 2623,
      "Ġmon": 2624,
      "Ġdownload": 2625,
      "gb": 2626,
      "Ġmicro": 2627,
      "man": 2628,
      "apore": 2629,
      "ĠlÃ£ng": 2630,
      "ĠthÃ¡p": 2631,
      "Ġcs": 2632,
      "Ġchá»Ł": 2633,
      "Ġchá»¥c": 2634,
      "Ġhuá»ĳng": 2635,
      "Ġsal": 2636,
      "ĠÄĳá»ĳt": 2637,
      "Ġclb": 2638,
      "ĠngÃ£": 2639,
      "Ġtráº¡i": 2640,
      "Ġhi": 2641,
      "Ġmarketing": 2642,
      "¥ng": 2643,
      "onal": 2644,
      "Ġbá»ĥ": 2645,
      "Ġmac": 2646,
      "ĠngÆ°Æ¡i": 2647,
      "Ġcáº©n": 2648,
      "we": 2649,
      "Ġhotline": 2650,
      "ĠthÃ¡o": 2651,
      "ĠdÃŃnh": 2652,
      "Ġgalaxy": 2653,
      "Ġeuro": 2654,
      "Ġmad": 2655,
      "Ġcn": 2656,
      "Ġcáº£ng": 2657,
      "Ġdá»©t": 2658,
      "ĠthÃ³i": 2659,
      "Ġbá»ĵi": 2660,
      "Ġgiáº¿t": 2661,
      "ĠtÃ¡ch": 2662,
      "gh": 2663,
      "Ġcomment": 2664,
      "Ġláº¡t": 2665,
      "Ġxoay": 2666,
      "sen": 2667,
      "Ġsofa": 2668,
      "ĠÄĳá»ĵn": 2669,
      "ngÆ°á»Ŀi": 2670,
      "Ġxá»©ng": 2671,
      "Ġchuyá»ģn": 2672,
      "Ġpar": 2673,
      "Ġlau": 2674,
      "ĠsÃºng": 2675,
      "Ġup": 2676,
      "ĠngÆ°á»¡ng": 2677,
      "ĠbÃ¡m": 2678,
      "ĠxÄĥng": 2679,
      "Ġsun": 2680,
      "Ġsingapore": 2681,
      "ĠhoÃłi": 2682,
      "use": 2683,
      "Ġcong": 2684,
      "Ġsá»£i": 2685,
      "ĠxÃ¢m": 2686,
      "viet": 2687,
      "Ġlá»«a": 2688,
      "ĠÄĳinh": 2689,
      "ĠÄĳáº¡p": 2690,
      "mo": 2691,
      "Ġruá»Ļt": 2692,
      "Ġláº§m": 2693,
      "rid": 2694,
      "ĠmÃ¬": 2695,
      "Ġhang": 2696,
      "su": 2697,
      "Ġnhá»ĭp": 2698,
      "Ġcp": 2699,
      "ri": 2700,
      "Ġphá»ıng": 2701,
      "Ġxay": 2702,
      "cel": 2703,
      "Ġwh": 2704,
      "Ġchá»ĳt": 2705,
      "ĠngÃłi": 2706,
      "bs": 2707,
      "Ġrao": 2708,
      "int": 2709,
      "cl": 2710,
      "Ġrá»§i": 2711,
      "ĠphÃ¡n": 2712,
      "Ġcá»¡": 2713,
      "Ġbáº©n": 2714,
      "ĠghÃ©p": 2715,
      "ĠtÃºc": 2716,
      "Ġlang": 2717,
      "Ġhá»ķ": 2718,
      "coin": 2719,
      "Ġtá»©": 2720,
      "ĠbÃ¹i": 2721,
      "Ġxá»ī": 2722,
      "lá»": 2723,
      "Ġná»Ł": 2724,
      "ĠtrÃŃch": 2725,
      "Ġá»ĳc": 2726,
      "sá»": 2727,
      "Ġmáº§m": 2728,
      "Ġven": 2729,
      "ĠtáºŃt": 2730,
      "ko": 2731,
      "Ġphil": 2732,
      "ĠtrÃºng": 2733,
      "ans": 2734,
      "ĠÄĳai": 2735,
      "Ġinox": 2736,
      "ĠÃ´m": 2737,
      "mi": 2738,
      "Ġhiáº¿n": 2739,
      "ĠlÃ£m": 2740,
      "Ġcáº©m": 2741,
      "Ġváº¡n": 2742,
      "Ġhuá»": 2743,
      "Ĥ«": 2744,
      "Ġmáº£nh": 2745,
      "Ġhá»Ĺn": 2746,
      "ĠÄĳiá»ĩp": 2747,
      "Ġmass": 2748,
      "'s": 2749,
      "Ġkhen": 2750,
      "Ġká»ĩ": 2751,
      "Ġcor": 2752,
      "ĠphÃŃm": 2753,
      "Ġap": 2754,
      "Ġtháº§u": 2755,
      "Ġmau": 2756,
      "Ġcai": 2757,
      "son": 2758,
      "Ġmá»įc": 2759,
      "yl": 2760,
      ");": 2761,
      "Ġmá»ı": 2762,
      "Ġháº§m": 2763,
      "Ġoff": 2764,
      "Ġtráº¡m": 2765,
      "Ġsmartphone": 2766,
      "Ġchim": 2767,
      "Ġmini": 2768,
      "na": 2769,
      "ĠxÃ¡ch": 2770,
      "Ġcáº£n": 2771,
      "ĠnhÃ¡nh": 2772,
      "ĠkÄ©": 2773,
      "ĠtÃłn": 2774,
      "ĠbÃ¹": 2775,
      "Ġtá»įa": 2776,
      "ne": 2777,
      "ĠkhÃŃch": 2778,
      "di": 2779,
      "£n": 2780,
      "ood": 2781,
      "Ġtrinh": 2782,
      "ork": 2783,
      "Ġchiáº¿t": 2784,
      "Ġpe": 2785,
      "Ġtre": 2786,
      "Ġir": 2787,
      "Ġngáº¯m": 2788,
      "ĠlÄĥng": 2789,
      "Ġtháº£": 2790,
      "ĠlÃło": 2791,
      "ĠdÆ°á»Ŀng": 2792,
      "Ġhá»ıa": 2793,
      "ĠngáºŃp": 2794,
      "Ġquáº¡t": 2795,
      "yo": 2796,
      "Ġáº¡": 2797,
      "Ġnháº£y": 2798,
      "Ġmobile": 2799,
      "ngÃły": 2800,
      "Ġtrá»ĳng": 2801,
      "ĠhoÃł": 2802,
      "amp": 2803,
      "Ġphu": 2804,
      "Ġnáº¡": 2805,
      "Ġkar": 2806,
      "ifi": 2807,
      "Ġpc": 2808,
      "ĠtÃºy": 2809,
      "ach": 2810,
      "áº¯k": 2811,
      "Ġváº·t": 2812,
      "ĠkÃŃ": 2813,
      "ĠdÃ¢m": 2814,
      "Ġváº¹n": 2815,
      "ĠÄĳá»ģn": 2816,
      "Ġspa": 2817,
      "Ġbá»ĵn": 2818,
      "Ġts": 2819,
      "Ġbh": 2820,
      "ace": 2821,
      "Ã©m": 2822,
      "gr": 2823,
      "wer": 2824,
      "ath": 2825,
      "ĠÄĳáº¯c": 2826,
      "ĠvÅ©ng": 2827,
      "ĠÃ": 2828,
      "land": 2829,
      "ure": 2830,
      "Ġkiá»ģu": 2831,
      "ĠÄĳt": 2832,
      "ĠÃ¢n": 2833,
      "Ġtuyáº¿t": 2834,
      "cp": 2835,
      "ĠkhÃ³c": 2836,
      "Ãªnh": 2837,
      "áº«y": 2838,
      "ĠchÃ¡nh": 2839,
      "ĠtrÆ°a": 2840,
      "Ġchai": 2841,
      "Ġcafe": 2842,
      "Ġcá»ĳc": 2843,
      "ade": 2844,
      "¡i": 2845,
      "press": 2846,
      "Ġbáº¡o": 2847,
      "Ġbá»ī": 2848,
      "áº¹t": 2849,
      "ĠnÃ©n": 2850,
      "Ġphilip": 2851,
      "Ġgá»ĳi": 2852,
      "Ġbá»ĵ": 2853,
      "ĠÄĳáº¯t": 2854,
      "Ġcá»¥m": 2855,
      "Ġinch": 2856,
      "Ġquyáº¿n": 2857,
      "Ġbia": 2858,
      "ions": 2859,
      "Ġnháº¡y": 2860,
      "ĠtÃ¡": 2861,
      "Ġdá»«a": 2862,
      "Ġhiáº¿u": 2863,
      "âĢĿ.": 2864,
      "ĠcÃ´n": 2865,
      "ike": 2866,
      "ĠÄĳiá»ģn": 2867,
      "ern": 2868,
      "Ġmáº»": 2869,
      "tin": 2870,
      "vel": 2871,
      "xit": 2872,
      "Ġdá»ĭu": 2873,
      "Ġtv": 2874,
      "Ġtrá»Ļm": 2875,
      "dr": 2876,
      "tu": 2877,
      "ith": 2878,
      "ĠbÃº": 2879,
      "ota": 2880,
      "sea": 2881,
      "ivi": 2882,
      "acc": 2883,
      "Ġthá»£": 2884,
      "Ġnguyá»ĩt": 2885,
      "ĠbÃºt": 2886,
      "Ġham": 2887,
      "Ġtriá»ĩt": 2888,
      "Ġmassage": 2889,
      "Ġmáº¡n": 2890,
      "Ġtiáº¿c": 2891,
      "Ġgroup": 2892,
      "Ġcol": 2893,
      "Ġkháº©n": 2894,
      "má»Ļt": 2895,
      "Ġthuáº§n": 2896,
      "Ġposted": 2897,
      "ãĢ": 2898,
      "ama": 2899,
      "alia": 2900,
      "Ġxáº¿": 2901,
      "Ġchá»«ng": 2902,
      "ĠdÃ¡m": 2903,
      "aysia": 2904,
      "nhá»": 2905,
      "Ġmá»Ļng": 2906,
      "ĠcáºŃy": 2907,
      "Ġchinh": 2908,
      "Ġbá»Ľt": 2909,
      "iss": 2910,
      "âĢ¦]": 2911,
      "Ġchanh": 2912,
      "Ġthuá»": 2913,
      "Ġmáº¹o": 2914,
      "Ġmá»ĳc": 2915,
      "ĠnhÆ°á»£ng": 2916,
      "ĠrÅ©": 2917,
      "ial": 2918,
      "str": 2919,
      "Ġval": 2920,
      "Ġvisa": 2921,
      "Ġbáº¥m": 2922,
      "ĠdÄ©": 2923,
      "Ġlá»ĩch": 2924,
      "ĠcÃºng": 2925,
      "Ġpv": 2926,
      "Ġcáº¯m": 2927,
      "Ġláº·ng": 2928,
      "sp": 2929,
      "ĠmÃ¨o": 2930,
      "Ġheo": 2931,
      "Ġhiá»ģn": 2932,
      "Ġtuá»ĩ": 2933,
      "ĠlÃºa": 2934,
      "Ġ[âĢ¦]": 2935,
      "oto": 2936,
      "Ġsay": 2937,
      "Ġhuá»³nh": 2938,
      "ĠnÃ¡m": 2939,
      "ara": 2940,
      "Æ°á»¡i": 2941,
      "Ã£ng": 2942,
      "sm": 2943,
      "Ġbitcoin": 2944,
      "ĠÄĳá»ĩm": 2945,
      "Ġnhan": 2946,
      "Ġ!": 2947,
      "Ġdá»įc": 2948,
      "nÄĥm": 2949,
      "ĠmÃ³ng": 2950,
      "Ġbong": 2951,
      "cÃ¡c": 2952,
      "Ġmalaysia": 2953,
      "ĠcÆ°á»Ľc": 2954,
      "Ġthá»¥y": 2955,
      "Ġadmin": 2956,
      "Ġwifi": 2957,
      "Ġgen": 2958,
      "ĠtuÃ¢n": 2959,
      "vo": 2960,
      "ĠtrÄĥng": 2961,
      "Ġngu": 2962,
      "ind": 2963,
      "Ġcanada": 2964,
      "Ġhond": 2965,
      "ĠmÄĥng": 2966,
      "Ġkhá»ķng": 2967,
      "ĠtrÃłng": 2968,
      "ĠghÃ©": 2969,
      "bá»": 2970,
      "ĠchiÃªu": 2971,
      "cha": 2972,
      "Ġmas": 2973,
      "sk": 2974,
      "ĠgiáºŃt": 2975,
      "ĠkhÃ¡i": 2976,
      "Ġliá»ģu": 2977,
      "Ġdn": 2978,
      "ĠÄĳáº§m": 2979,
      "ĠÃ¡c": 2980,
      "ited": 2981,
      "tp": 2982,
      "utub": 2983,
      "ĠtÃŃm": 2984,
      "ĠÄĳan": 2985,
      "py": 2986,
      "be": 2987,
      "Ġcáº¥t": 2988,
      "act": 2989,
      "Ġrung": 2990,
      "Ġoxy": 2991,
      "Ġnhá»ĭ": 2992,
      "elsea": 2993,
      "Ġxáº£": 2994,
      "cÃ´ng": 2995,
      "Ġnews": 2996,
      "iá»ħu": 2997,
      "sn": 2998,
      "ĠphÆ°á»£ng": 2999,
      "ĠðŁ": 3000,
      "ĠvÄ©": 3001,
      "ĠmÃ¢y": 3002,
      "Ġplus": 3003,
      "trong": 3004,
      "Ġsoáº¡n": 3005,
      "Ġquá»³nh": 3006,
      "Ġtivi": 3007,
      "Ġli": 3008,
      "Ġná»ĵng": 3009,
      "Ġmá»Ŀ": 3010,
      "Æ°Æ¡n": 3011,
      "Ġhonda": 3012,
      "ĠxÆ¡": 3013,
      "ary": 3014,
      "náº¿u": 3015,
      "Ġkeo": 3016,
      "Ġreview": 3017,
      "Ġchelsea": 3018,
      "Ġnho": 3019,
      "Ġhoáº£ng": 3020,
      "Ġtang": 3021,
      "Ġyoutub": 3022,
      "Ġtha": 3023,
      "ĠnhÆ°á»£c": 3024,
      "hn": 3025,
      "Ġhar": 3026,
      "ote": 3027,
      "ĠbÃ¹ng": 3028,
      "ĠtÃłng": 3029,
      "ĠbÃ¡ch": 3030,
      "let": 3031,
      "Ġyou": 3032,
      "ĠngÃ¢m": 3033,
      "td": 3034,
      "ata": 3035,
      "Ġngá»Ļ": 3036,
      "xem": 3037,
      "Ġkhoe": 3038,
      "Ġkg": 3039,
      "ium": 3040,
      "ĠthÃ´": 3041,
      "Ġrá»¡": 3042,
      "pa": 3043,
      "ĠlÃ¡t": 3044,
      "Ġcua": 3045,
      "Ġti": 3046,
      "Ġmáº¡o": 3047,
      "ĠlÃ³t": 3048,
      "Ġháº¹p": 3049,
      "Ġnáº¿p": 3050,
      "ĠkhÃ´n": 3051,
      "ĠÄĳÃºc": 3052,
      "ĠtrÃ¡ng": 3053,
      "Ġdai": 3054,
      "ĠkhÃ¡t": 3055,
      "Ġrá»ĵng": 3056,
      "Ġleo": 3057,
      "Ġlá»ĵ": 3058,
      "ĠsÃ¢m": 3059,
      "ĠvuÃ´ng": 3060,
      "ĠÄĳáº±ng": 3061,
      "Ġna": 3062,
      "ĠngÃµ": 3063,
      "Ġngáº¡c": 3064,
      "Ġkhoan": 3065,
      "ree": 3066,
      "Ġcasino": 3067,
      "Ġmil": 3068,
      "Ġpan": 3069,
      "Ġic": 3070,
      "by": 3071,
      "cho": 3072,
      "ero": 3073,
      "ĠchÃ¬": 3074,
      "Ġtoy": 3075,
      "Ġnet": 3076,
      "Ġmadrid": 3077,
      "ĭt": 3078,
      "ĠhÃ²": 3079,
      "Ġlá»£n": 3080,
      "Ġplay": 3081,
      "cá»": 3082,
      "Ġlá»ıng": 3083,
      "ĠsÆ°u": 3084,
      "ĠmÆ°u": 3085,
      "Ġid": 3086,
      "lock": 3087,
      "ðĿ": 3088,
      "ĠchÃ¡n": 3089,
      "ĠdÃ£": 3090,
      "á»ĳm": 3091,
      "Ġnháº«n": 3092,
      "ym": 3093,
      "Ġdá»įa": 3094,
      "thÃ¡ng": 3095,
      "Ġmm": 3096,
      "Ġfpt": 3097,
      "ĠchÄĥng": 3098,
      "chÃºng": 3099,
      "Ġmc": 3100,
      "Ġcal": 3101,
      "Ġpol": 3102,
      "Ġmat": 3103,
      "Ġá»ĳp": 3104,
      "ĠcÆ°á»Ľp": 3105,
      "Ġbáº¯p": 3106,
      "Ġtw": 3107,
      "ds": 3108,
      "dá»": 3109,
      "soft": 3110,
      "ica": 3111,
      "Ġlen": 3112,
      "ĠkhÃ´i": 3113,
      "ĠcÃºp": 3114,
      "ĠtrÃ´i": 3115,
      "edia": 3116,
      "ĠsÃ³t": 3117,
      "ĠniÃªm": 3118,
      "ĠtrÆ°á»£t": 3119,
      "Ġká»ģ": 3120,
      "Ġsáº¥y": 3121,
      "Ġbá»ķng": 3122,
      "Ġyoutube": 3123,
      "Ġcamp": 3124,
      "----": 3125,
      "Ġtia": 3126,
      "ĠÄĳáº·ng": 3127,
      "Ġios": 3128,
      "ĠsÃºt": 3129,
      "ks": 3130,
      "Ġnang": 3131,
      "Ġcá»ĳng": 3132,
      "ere": 3133,
      "ĠnhÃ£": 3134,
      "vent": 3135,
      "Ġviettel": 3136,
      "agen": 3137,
      "ĠÄĳoáº¡t": 3138,
      "gt": 3139,
      "ĠxÃ³m": 3140,
      "ĠcháºŃu": 3141,
      "ics": 3142,
      "Ġblack": 3143,
      "ime": 3144,
      "ĠvnÄĳ": 3145,
      "ĠhÃ²n": 3146,
      "ose": 3147,
      "Æ°á»Łi": 3148,
      "Ġtiá»ĩm": 3149,
      "Ġhung": 3150,
      "Ġkhuyáº¿t": 3151,
      "esia": 3152,
      "reen": 3153,
      "Ġchá»ĳi": 3154,
      "Ġkhá»Ń": 3155,
      "Ġráº¯n": 3156,
      "ana": 3157,
      "ĠÃ´n": 3158,
      "Ġphá»ķi": 3159,
      "ire": 3160,
      "ĠÄĳe": 3161,
      "Ġdá»įn": 3162,
      "pool": 3163,
      "ĠgiáºŃn": 3164,
      "ĠnÃ¢u": 3165,
      "ĠngÃ³n": 3166,
      "Ġwat": 3167,
      "ĠlÃ´i": 3168,
      "Ġcomp": 3169,
      "========": 3170,
      "áº»o": 3171,
      "ug": 3172,
      "ĠchÃ¢m": 3173,
      "ss": 3174,
      "Æ°á»£n": 3175,
      "ax": 3176,
      "Ġprem": 3177,
      "Ġá»©c": 3178,
      "ĠngÆ°": 3179,
      "ka": 3180,
      "Ġben": 3181,
      "Ġtoyota": 3182,
      "Ġgl": 3183,
      "ĠlÄĥn": 3184,
      "??": 3185,
      "Ġgold": 3186,
      "Ġngá»¥": 3187,
      "ĠlÃµi": 3188,
      "Ġhá»ĳi": 3189,
      "ĠbÄĳ": 3190,
      "ĠmÃłi": 3191,
      "Ġram": 3192,
      "ĠbáºŃn": 3193,
      "ĠngoÃ¡i": 3194,
      "Ġaf": 3195,
      "Ġarsen": 3196,
      "Ġdiá»ĩu": 3197,
      "Ġaxit": 3198,
      "rl": 3199,
      "he": 3200,
      "Ġngá»įn": 3201,
      "ĠphÃ¡o": 3202,
      "Ġbra": 3203,
      "Ġlogo": 3204,
      "donesia": 3205,
      "!\"": 3206,
      "Ġmer": 3207,
      "Ġresort": 3208,
      "giá»": 3209,
      "Ġbom": 3210,
      "Ġná»¥": 3211,
      "ĠtráºŃt": 3212,
      "bet": 3213,
      "Ġtháº¡nh": 3214,
      "Ġbá»ĳc": 3215,
      "Ġlas": 3216,
      "ĠtÃ¡m": 3217,
      "ĠÃ°": 3218,
      "Ġchr": 3219,
      "Ġnáº¯p": 3220,
      "ĭa": 3221,
      "Ġrá»±c": 3222,
      "Ġsil": 3223,
      "Ġset": 3224,
      "Ġtem": 3225,
      "Ġmáº£ng": 3226,
      "Ġliver": 3227,
      "âĢ¦.": 3228,
      "Ġthiá»ĩp": 3229,
      "enn": 3230,
      "Ġrang": 3231,
      "ĠkhoÃ¡c": 3232,
      "Ġtrá»ĳn": 3233,
      "ĠbÃ³n": 3234,
      "Ġdan": 3235,
      "Ġcay": 3236,
      "ĠcÃ£i": 3237,
      "book": 3238,
      "Ġlá»¡": 3239,
      "Ġbet": 3240,
      "Ġdec": 3241,
      "ĠlÃŃt": 3242,
      "Ġindonesia": 3243,
      "Ġao": 3244,
      "Ġmá»ĵ": 3245,
      "ĠkhÃ³i": 3246,
      "ker": 3247,
      "Ġâľ": 3248,
      "mar": 3249,
      "ign": 3250,
      "Ġchamp": 3251,
      "Ġuk": 3252,
      "Ġusb": 3253,
      "Ġkhe": 3254,
      "ĠmÃ²n": 3255,
      "Ġxáº¡": 3256,
      "Ġkiá»ĩt": 3257,
      "ĠnhÆ¡n": 3258,
      "Ġab": 3259,
      "Ġvá»Ļi": 3260,
      "Ġnháº¡t": 3261,
      "ĠÄĳáº¯p": 3262,
      "Ġcháº½": 3263,
      "Ġne": 3264,
      "kho": 3265,
      "ĠxÄĥm": 3266,
      "dy": 3267,
      "Ġlá»ĵng": 3268,
      "ĠchiÃªn": 3269,
      "ĠlÃ¢n": 3270,
      "port": 3271,
      "Ġmess": 3272,
      "Ġliverpool": 3273,
      "áº¹o": 3274,
      "Ġtá»ıi": 3275,
      "Ġunited": 3276,
      "Ġarsenal": 3277,
      "áº«m": 3278,
      "Ġone": 3279,
      "ria": 3280,
      "Ġkhoáº»": 3281,
      "zil": 3282,
      "ley": 3283,
      "Ġá»ĵn": 3284,
      "ĠgiÃª": 3285,
      "Ġkhoai": 3286,
      "ĠhÄĳnd": 3287,
      "gen": 3288,
      "Ġes": 3289,
      "Ġcen": 3290,
      "ĠkhÃ¢u": 3291,
      "ĠÆ¡i": 3292,
      "ĠtrÃ¢n": 3293,
      "Ġmá»ī": 3294,
      "ĠrÃ¨m": 3295,
      "Ġtháº¥u": 3296,
      "aw": 3297,
      "Ġtháº¯t": 3298,
      "sc": 3299,
      "ĠvÃ¡ch": 3300,
      "Ġpháº¿": 3301,
      "Ġmet": 3302,
      "ase": 3303,
      "Ġcoll": 3304,
      "Ġsáº¹": 3305,
      "arl": 3306,
      "ĠrÃło": 3307,
      "ĠÄĳuÃ´i": 3308,
      "Ġchuá»ĳi": 3309,
      "Ġwe": 3310,
      "Ġgolf": 3311,
      "orn": 3312,
      "Ġword": 3313,
      "ĠkhÃ©o": 3314,
      "ĠquÃ©t": 3315,
      "ĠÃ¡m": 3316,
      "ond": 3317,
      "iel": 3318,
      "ĠluÃ¢n": 3319,
      "Ġchip": 3320,
      "ĠxÃł": 3321,
      "Ġsáº¹o": 3322,
      "ĠxÃŃ": 3323,
      "Ġngáº§m": 3324,
      "Ġmáº¿n": 3325,
      "Ġoly": 3326,
      "Ġhá»įng": 3327,
      "Ġphilipp": 3328,
      "ĠtrÆ¡n": 3329,
      "ĠxÃŃch": 3330,
      "Ġmuá»Ļn": 3331,
      "ii": 3332,
      "ĠmÃ¡": 3333,
      "Ġcháº£": 3334,
      "Ġbá»ıng": 3335,
      "ame": 3336,
      "Ġdes": 3337,
      "ars": 3338,
      "Ġkhá»©": 3339,
      "nhÃł": 3340,
      "Ġrob": 3341,
      "tÃ´": 3342,
      "âĢĿ,": 3343,
      "ĠÃªm": 3344,
      "Ġve": 3345,
      "Ġang": 3346,
      "Ġnhung": 3347,
      "Ġá»Ľt": 3348,
      "ĠgÃ²": 3349,
      "omes": 3350,
      "Ġgiam": 3351,
      "mail": 3352,
      "Ġste": 3353,
      "ĠmÃ©t": 3354,
      "Ġmax": 3355,
      "ĠrÃ¨n": 3356,
      "nhá»¯ng": 3357,
      "Ġtáº¡": 3358,
      "ĠsÆ°Æ¡ng": 3359,
      "âĤ«": 3360,
      "ĠmÃ´ng": 3361,
      "thu": 3362,
      "tein": 3363,
      "Ġolymp": 3364,
      "ti": 3365,
      "Ġje": 3366,
      "Ġquá»·": 3367,
      "Ġváº¯ng": 3368,
      "ĠlÆ°á»¡i": 3369,
      "Ġsl": 3370,
      "Ġtok": 3371,
      "Ġper": 3372,
      "Ġhoan": 3373,
      "ĠchÃ¨": 3374,
      "Ġsw": 3375,
      "Ġcont": 3376,
      "ives": 3377,
      "ĠvÆ°Æ¡n": 3378,
      "ĠngÃło": 3379,
      "Ġkáº½": 3380,
      "iá»ģng": 3381,
      "Ġná»ģ": 3382,
      "Ġmá»ķ": 3383,
      "ize": 3384,
      "Ġdis": 3385,
      "Ġju": 3386,
      "Ġsá»ĳc": 3387,
      "Ġgas": 3388,
      "ĠphÆ¡i": 3389,
      "Ġmodel": 3390,
      "à¸": 3391,
      "ĠcÃ¡m": 3392,
      "Ġgiáº¥u": 3393,
      "uter": 3394,
      "ens": 3395,
      "Ġmicrosoft": 3396,
      "Ġgames": 3397,
      "ĠchÃ¬m": 3398,
      "Ġhp": 3399,
      "Ġps": 3400,
      "gon": 3401,
      "che": 3402,
      "Ġtrá»į": 3403,
      "ĠxÃ´ng": 3404,
      "col": 3405,
      "........": 3406,
      "Ġphilippines": 3407,
      "Ľn": 3408,
      "tm": 3409,
      "lu": 3410,
      "Ġav": 3411,
      "bao": 3412,
      "ĠÄĳÃ¹a": 3413,
      "Ġronal": 3414,
      "Ġblu": 3415,
      "ĠchiÃªm": 3416,
      "Ġtrá»ĭnh": 3417,
      "Ġvnd": 3418,
      "ĠbÃ´i": 3419,
      "Ġráº¡ng": 3420,
      "Ġdáº¡o": 3421,
      "bi": 3422,
      "tá»«": 3423,
      "Ġ$": 3424,
      "tain": 3425,
      "ĠÄĳá»ĵi": 3426,
      "for": 3427,
      "Ġtiá»ħn": 3428,
      "ĠâĨ": 3429,
      "ĠÄĳÃ¡y": 3430,
      "Ġnháº§m": 3431,
      "ĠbÄĥn": 3432,
      "Ġipad": 3433,
      "Ġkhang": 3434,
      "ĠkhoÄĥn": 3435,
      "Ġtá»ĭ": 3436,
      "Ġcá»ĵn": 3437,
      "gs": 3438,
      "ivers": 3439,
      "ĠquÃ¡i": 3440,
      "aoke": 3441,
      "Ġke": 3442,
      "áº±n": 3443,
      "hÃł": 3444,
      "ĠdÆ°a": 3445,
      "ĠtrÄ©": 3446,
      "ĠÄĳÃ¢m": 3447,
      "ĠnhÄ©": 3448,
      "hop": 3449,
      "anc": 3450,
      "ĠÄĳá»ĳng": 3451,
      "df": 3452,
      "Ġxá»īu": 3453,
      "Ġtech": 3454,
      "igh": 3455,
      "Ġkhoáº£nh": 3456,
      "ave": 3457,
      "Ġsyria": 3458,
      "Ġcháº©n": 3459,
      "Ġbus": 3460,
      "ĠgiÃ¡ng": 3461,
      "ĠmÃ²": 3462,
      "Ġcollagen": 3463,
      "ext": 3464,
      "Ġlá»©a": 3465,
      "Ġbid": 3466,
      "Ġpal": 3467,
      "cd": 3468,
      "Ġngá»±a": 3469,
      "Ġhom": 3470,
      "uchia": 3471,
      "ane": 3472,
      "Ġphiá»ģn": 3473,
      "Ġni": 3474,
      "Ġtm": 3475,
      "Ġrom": 3476,
      "urn": 3477,
      "Ġkaraoke": 3478,
      "nn": 3479,
      "Ġprotein": 3480,
      "Ġhotel": 3481,
      "Ġer": 3482,
      "ieu": 3483,
      "Ġrá»¥ng": 3484,
      "Ġcat": 3485,
      "lÄĳ": 3486,
      "ĠÆ°á»Ľt": 3487,
      "Ġstud": 3488,
      "Ġgai": 3489,
      "ĠbÃłng": 3490,
      "Ġmáº¯m": 3491,
      "Ġnat": 3492,
      "Ġcard": 3493,
      "ĠthoÃ¡i": 3494,
      "ĠÄĳáº»": 3495,
      "Å©i": 3496,
      "mg": 3497,
      "Ġlon": 3498,
      "bl": 3499,
      "Ġlá»įt": 3500,
      "trung": 3501,
      "ĠquÃ¡t": 3502,
      "Ġukra": 3503,
      "ĠchÃ©p": 3504,
      "Ġht": 3505,
      "hi": 3506,
      "oi": 3507,
      "Ġsch": 3508,
      "ger": 3509,
      "ance": 3510,
      "ron": 3511,
      "ĠÄĳáº¯k": 3512,
      "ital": 3513,
      "Ġtn": 3514,
      "ĠtÃ³m": 3515,
      "Ġread": 3516,
      "ory": 3517,
      "Ġsuá»ĳi": 3518,
      "ĠÄĳáº¡n": 3519,
      "ĠlÆ°á»¡ng": 3520,
      "ram": 3521,
      "__": 3522,
      "ĠbÄĳs": 3523,
      "ĠvÆ°á»Ľng": 3524,
      "Ã½t": 3525,
      "Ġpet": 3526,
      "undai": 3527,
      "Ġváº¯c": 3528,
      "ná»": 3529,
      "Ġvinhomes": 3530,
      "Ġmot": 3531,
      "Ġlá»¥": 3532,
      "ĠgiÃ¡n": 3533,
      "ĠchÃ©n": 3534,
      "Ġmp": 3535,
      "sub": 3536,
      "áº·m": 3537,
      "lÃłm": 3538,
      "ĠhÃ¡n": 3539,
      "âĢĶ": 3540,
      "Ġvtv": 3541,
      "Ġmag": 3542,
      "Ġred": 3543,
      "Ġbá»Ĺng": 3544,
      "ĠxÃ´": 3545,
      "Ġtháº±ng": 3546,
      "trá»": 3547,
      "Ġvacc": 3548,
      "Ġsá»ī": 3549,
      "Ġdong": 3550,
      "Ġbrazil": 3551,
      "Ġcampuchia": 3552,
      "Ġford": 3553,
      "Ġláº¡m": 3554,
      "Ġclick": 3555,
      "ĠmÆ°á»£t": 3556,
      "iano": 3557,
      "xx": 3558,
      "Ġdáº¯t": 3559,
      "Ġcá»Ńu": 3560,
      "Ġhyundai": 3561,
      "Ġase": 3562,
      "Ġlá»ģ": 3563,
      "**": 3564,
      "Ġngá»©a": 3565,
      "Ġpháº³ng": 3566,
      "Ġrá»ī": 3567,
      "ĠngÃ£i": 3568,
      "Ġcuá»Ļn": 3569,
      "Ġlaser": 3570,
      "ĠnhÄĥn": 3571,
      "Ġhao": 3572,
      "Ġteam": 3573,
      "theo": 3574,
      "Ġmáº¡": 3575,
      "Ġhong": 3576,
      "Ġáº¥p": 3577,
      "uá»·": 3578,
      "Ġdiá»ĩp": 3579,
      "Ġváº£": 3580,
      "Ġsony": 3581,
      "Ġdel": 3582,
      "Ġvá»ĭnh": 3583,
      "ĠxÃ¡m": 3584,
      "Ġyork": 3585,
      "Ġop": 3586,
      "ĠbÃŃch": 3587,
      "Ġasean": 3588,
      "Ġlh": 3589,
      "Ġnhá»©c": 3590,
      "ï¸": 3591,
      "Ġbro": 3592,
      "eck": 3593,
      "cr": 3594,
      "Ġláº¥p": 3595,
      "giÃ¡": 3596,
      "Ġsap": 3597,
      "Ġtik": 3598,
      "ĠthÃºy": 3599,
      "Ġchay": 3600,
      "Ġtags": 3601,
      "ĠcÃºc": 3602,
      "Ġjohn": 3603,
      "Ġsi": 3604,
      "ner": 3605,
      "ji": 3606,
      "ĠvÃ³c": 3607,
      "ĠÄĳun": 3608,
      "Ġgrand": 3609,
      "Ġnghá»ĭch": 3610,
      "Ġvaccine": 3611,
      "ĠÃł": 3612,
      "ĠrÃł": 3613,
      "ï¸ı": 3614,
      "bon": 3615,
      "Ġmb": 3616,
      "Ġthá»ķi": 3617,
      "Ġchampions": 3618,
      "iáº¿c": 3619,
      "Ġthuá»·": 3620,
      "Ġgel": 3621,
      "Ġall": 3622,
      "Ġaustr": 3623,
      "Ġcro": 3624,
      "Ġlog": 3625,
      "op": 3626,
      "ĠnhÃ¬": 3627,
      ".,": 3628,
      "vietnam": 3629,
      "Ġmv": 3630,
      "Ġronaldo": 3631,
      "ĠÆ°ng": 3632,
      "Ġthun": 3633,
      "page": 3634,
      "Ġnu": 3635,
      "sd": 3636,
      "ĠxÃ¡": 3637,
      "Ġtao": 3638,
      "ust": 3639,
      "ok": 3640,
      "qÄĳ": 3641,
      "Ġquáº·ng": 3642,
      "za": 3643,
      "ĠláºŃu": 3644,
      "Ġsn": 3645,
      "Ġláº¯c": 3646,
      "ini": 3647,
      "ĠgÅ©i": 3648,
      "uth": 3649,
      "Ġsol": 3650,
      "Ġthoa": 3651,
      "Ġsky": 3652,
      "ĠvÃº": 3653,
      "Ġyáº¿t": 3654,
      "Ìĥ": 3655,
      "ĠvÃ¡n": 3656,
      "Ġiran": 3657,
      "Ġclub": 3658,
      "agon": 3659,
      "Ġrá»Ļn": 3660,
      "ĠsÆ°ng": 3661,
      "ĠkhoÃ¡": 3662,
      "tra": 3663,
      "Ġtest": 3664,
      "ild": 3665,
      "Ġkhiáº¿u": 3666,
      "Ġláº§u": 3667,
      "Ġblock": 3668,
      "ington": 3669,
      "ale": 3670,
      "ĠliÃªm": 3671,
      "Ġmáº·n": 3672,
      "new": 3673,
      "Ġcode": 3674,
      "ĠÄĳÃ³i": 3675,
      "ĠnÃ¡t": 3676,
      "Ġbin": 3677,
      "Ġtháº§m": 3678,
      "ĠvÃ²i": 3679,
      "Ġxá»ĭt": 3680,
      "tte": 3681,
      "Ġpremier": 3682,
      "ĠdÃ²": 3683,
      "ĠdáºŃp": 3684,
      "Ġeo": 3685,
      "bá»Ļ": 3686,
      "vis": 3687,
      "Ġland": 3688,
      "ason": 3689,
      "Ġdáº»o": 3690,
      "Ġcanxi": 3691,
      "Ġná»ĳt": 3692,
      "Ġbai": 3693,
      "iga": 3694,
      "Ġlee": 3695,
      "ham": 3696,
      "enc": 3697,
      "Ġtaxi": 3698,
      "Ġhan": 3699,
      "Ġxiao": 3700,
      "ya": 3701,
      "ĠlÃ¹i": 3702,
      "Ġalb": 3703,
      "ĠcÄĳ": 3704,
      "ĠrÃ¡p": 3705,
      "Ġinst": 3706,
      "Ġváº¡ch": 3707,
      "Ġparis": 3708,
      "Ġmel": 3709,
      "Ġzing": 3710,
      "Ġviá»ģn": 3711,
      "mÃ¡y": 3712,
      "Ġsuper": 3713,
      "ise": 3714,
      "Ġlg": 3715,
      "Ã¹n": 3716,
      "Ġart": 3717,
      "ĠlÆ°á»Ŀng": 3718,
      "ĠlÃŃnh": 3719,
      "ĠÄĳiá»ģm": 3720,
      "Ġtru": 3721,
      "Ġstar": 3722,
      "ĠthÃ¡m": 3723,
      "Ġfe": 3724,
      "fo": 3725,
      "dio": 3726,
      "que": 3727,
      "inho": 3728,
      "ĠgiÃ²n": 3729,
      "ĠsÃ©t": 3730,
      "ĠtÃª": 3731,
      "ĠkÃ©p": 3732,
      "Ġmore": 3733,
      "ife": 3734,
      "gia": 3735,
      "Ġking": 3736,
      "Ġpa": 3737,
      "Ġgard": 3738,
      "ĠchÃªnh": 3739,
      "Ġaustralia": 3740,
      "Ġform": 3741,
      "ĠxÃło": 3742,
      "Ġky": 3743,
      "ĠhÆ°u": 3744,
      "ĠdÃ¢ng": 3745,
      "Ġsport": 3746,
      "qg": 3747,
      "Ġcáº¯p": 3748,
      "ĠsÆ°á»Ľng": 3749,
      "ĠÄĳá»Ľi": 3750,
      "Ġvina": 3751,
      "Ġngá»£i": 3752,
      "Ġki": 3753,
      "tb": 3754,
      "Ġkit": 3755,
      "ĠÃ³c": 3756,
      "xin": 3757,
      "Ġquyá»ĥn": 3758,
      "Ġquáº¿": 3759,
      "chi": 3760,
      "ĠkhÃ©p": 3761,
      "Ġslo": 3762,
      "ĠthÆ°a": 3763,
      "ĠsÃ²ng": 3764,
      "Ġnote": 3765,
      "cb": 3766,
      "ĠthÃ¬a": 3767,
      "pro": 3768,
      "Ġváº¥t": 3769,
      "vá»Ľi": 3770,
      "Ġká»ī": 3771,
      "Ġbig": 3772,
      "ĠhoÃłnh": 3773,
      "eam": 3774,
      "biz": 3775,
      "báº¡n": 3776,
      "Ġseries": 3777,
      "Ġtráº¯c": 3778,
      "uyen": 3779,
      "Ġdá»ĳc": 3780,
      "Ġever": 3781,
      "ence": 3782,
      "Ġcomments": 3783,
      "Ġye": 3784,
      "Ġláº·p": 3785,
      "gan": 3786,
      "Ġliá»ħu": 3787,
      "Ġváº¥p": 3788,
      "lines": 3789,
      "ĠvÆ°á»£ng": 3790,
      "ki": 3791,
      "ĠvÃłnh": 3792,
      "ĠÄĳÃŃnh": 3793,
      "ena": 3794,
      "Ġgreen": 3795,
      "Ġukraine": 3796,
      "Ġhack": 3797,
      "Ġthiá»ģn": 3798,
      "Ġdá»ĩt": 3799,
      "Ġdáº£i": 3800,
      "ĠkiÃªng": 3801,
      "Ġns": 3802,
      "khi": 3803,
      "Ġacid": 3804,
      "ĠÃ´tÃ´": 3805,
      "celona": 3806,
      "aco": 3807,
      "ari": 3808,
      "Ġná»©t": 3809,
      "king": 3810,
      "Ġgá»«ng": 3811,
      "room": 3812,
      "Ġpoly": 3813,
      "Ġmessi": 3814,
      "bc": 3815,
      "ãģ": 3816,
      "Ġgiá»įt": 3817,
      "fi": 3818,
      "ream": 3819,
      "tion": 3820,
      "Ġiii": 3821,
      "Ġhuá»ĩ": 3822,
      "Ġhá»Ł": 3823,
      "á´": 3824,
      "Ġuá»ĳn": 3825,
      "ĠnhÃŃ": 3826,
      "Ġfree": 3827,
      "Ġnháº¯m": 3828,
      "tá»ķ": 3829,
      "Ġmanh": 3830,
      "Ġjack": 3831,
      "play": 3832,
      "pg": 3833,
      "Ġvá»ĭt": 3834,
      "Ġlá»Ļn": 3835,
      "ont": 3836,
      "Ġlim": 3837,
      "Ġnháº¥p": 3838,
      "ĠgÄĥng": 3839,
      "vÃł": 3840,
      "ĠnÃ³n": 3841,
      "Ġdáº¡i": 3842,
      "mb": 3843,
      "ĠvÄĳ": 3844,
      "ĠchÃ¡o": 3845,
      "pn": 3846,
      "Ġbuá»ĵng": 3847,
      "Ġsá»ıi": 3848,
      "ĠhÃ£i": 3849,
      "ĠliÃªu": 3850,
      "Ġbarcelona": 3851,
      "ney": 3852,
      "Ġthcs": 3853,
      "Ġairlines": 3854,
      "Ġcá»§ng": 3855,
      "ĠthÃ¹y": 3856,
      "Ġtro": 3857,
      "ĠmÃ¢m": 3858,
      "ĠgÃ¡nh": 3859,
      "Ġque": 3860,
      "si": 3861,
      "',": 3862,
      "li": 3863,
      "Ġngá»±": 3864,
      "ĠlÃ©o": 3865,
      "lex": 3866,
      "chester": 3867,
      "win": 3868,
      "sau": 3869,
      "Ġvip": 3870,
      "Ġhá»¥t": 3871,
      "Ġauto": 3872,
      "Ġcháº·ng": 3873,
      "sinh": 3874,
      "ĠxÃ¬": 3875,
      "áº¿ch": 3876,
      "ĠcÆ°ng": 3877,
      "du": 3878,
      "Ġpower": 3879,
      "Ġeng": 3880,
      "Ġsg": 3881,
      "Ġthuáº«n": 3882,
      "xvn": 3883,
      "ja": 3884,
      "ĠcÆ°á»¡ng": 3885,
      "ĠmÆ°á»£n": 3886,
      "Ġnáº¿n": 3887,
      "Ġjun": 3888,
      "ĠgÃ¬n": 3889,
      "ĠdÃ£y": 3890,
      "ĠchuÃ´ng": 3891,
      "Ġtáº£n": 3892,
      "ĠmÆ°Æ¡i": 3893,
      "Ġkhiáº¿t": 3894,
      "Ġbos": 3895,
      "Ġbv": 3896,
      "Ġcap": 3897,
      "ĠlÅ©y": 3898,
      "Ġgarden": 3899,
      "Ġrun": 3900,
      "Ġmerc": 3901,
      "ká»": 3902,
      "Ġranh": 3903,
      "ĠbÃ¡i": 3904,
      "van": 3905,
      "the": 3906,
      "Ġphoto": 3907,
      "Ġgym": 3908,
      "ooth": 3909,
      "ĠâĢĶ": 3910,
      "arm": 3911,
      "ĠláºŃt": 3912,
      "ĠgÃ£y": 3913,
      "ĠbÃºn": 3914,
      "Ġbá»Ļi": 3915,
      "hu": 3916,
      "ĠÄĳá»Ľn": 3917,
      "Ġdá»ĵi": 3918,
      "ĩn": 3919,
      "ĠlÃ¹ng": 3920,
      "âĢ¦âĢ¦âĢ¦âĢ¦": 3921,
      "Ġráº¯c": 3922,
      "yt": 3923,
      "'.": 3924,
      "ĠmÃ¢u": 3925,
      "Ġláº©u": 3926,
      "Ġnhang": 3927,
      "Ġuá»·": 3928,
      "Ã²m": 3929,
      "Ġphanh": 3930,
      "Ġbhxh": 3931,
      "Ġjav": 3932,
      "ler": 3933,
      "Ġrá»ĭa": 3934,
      "ci": 3935,
      "Ġtá»Ľ": 3936,
      "Ġsea": 3937,
      "ĠbÆ°u": 3938,
      "ford": 3939,
      "ĠnghiÃªng": 3940,
      "Ġgra": 3941,
      "ĠÄĳiÃªn": 3942,
      "Ġlung": 3943,
      "âĢĵ": 3944,
      "der": 3945,
      "day": 3946,
      "ĠÄĳáº¯n": 3947,
      "âĢĻ": 3948,
      "Ġcáº¯n": 3949,
      "aland": 3950,
      "ĠhÃ¢n": 3951,
      "itter": 3952,
      "vin": 3953,
      "ĠtÃ²": 3954,
      "ĠkhoÃ¡i": 3955,
      "ado": 3956,
      "Ġquáº§y": 3957,
      "Ġnan": 3958,
      "ven": 3959,
      "Ġnhá»ī": 3960,
      "Ġmart": 3961,
      "Ġsaigon": 3962,
      "Ġcá»įc": 3963,
      "Ġeth": 3964,
      "ĠnÃ©m": 3965,
      "ĠÄĳáº¡m": 3966,
      "Ġkáº¹o": 3967,
      "Ġtá»±u": 3968,
      "nÄĳ": 3969,
      "Ġtab": 3970,
      "Ġber": 3971,
      "Ġbáº¿": 3972,
      "lin": 3973,
      "Ġwith": 3974,
      "Ġwash": 3975,
      "Ġrá»ĳt": 3976,
      "istan": 3977,
      "Ġzalo": 3978,
      "Ġtráº¡ch": 3979,
      "cov": 3980,
      "Ġkhuy": 3981,
      "Ġgá»Ļi": 3982,
      "ita": 3983,
      "ĠgÃµ": 3984,
      "Ġláº¥n": 3985,
      "ake": 3986,
      "cÃ¡ch": 3987,
      "ĠsÆ°á»Ŀn": 3988,
      "Ġxiaomi": 3989,
      "Ġcty": 3990,
      "Ġob": 3991,
      "Ġok": 3992,
      "Ġmanchester": 3993,
      "arch": 3994,
      "ele": 3995,
      "Ġbarca": 3996,
      "Ġangel": 3997,
      "Ġmilan": 3998,
      "ĠnhÅ©ng": 3999,
      "ĠÄĳá»¥ng": 4000,
      "ĠmÃºa": 4001,
      "ĠchÆ°ng": 4002,
      "ors": 4003,
      "ĠchÃ¬a": 4004,
      "combank": 4005,
      "Ġlike": 4006,
      "Ġout": 4007,
      "Ġdonal": 4008,
      "cu": 4009,
      "Ġngá»Ļt": 4010,
      "Ġnghiá»ĩn": 4011,
      "ĠÄĳáº¯ng": 4012,
      "Ġgirl": 4013,
      "qt": 4014,
      "xe": 4015,
      "Ġxen": 4016,
      "Ġbáº¡t": 4017,
      "low": 4018,
      "news": 4019,
      "Ġcorona": 4020,
      "Ġalbum": 4021,
      "Ġmus": 4022,
      "ĠgÃłng": 4023,
      "edes": 4024,
      "Ġback": 4025,
      "Ġpre": 4026,
      "Ġxoa": 4027,
      "Ġláº¡ng": 4028,
      "ember": 4029,
      "ban": 4030,
      "Ġcá»Ĺ": 4031,
      "ĠnÃ´n": 4032,
      "Ġtriáº¿t": 4033,
      "Ġher": 4034,
      "ĠhÃ¡i": 4035,
      "omo": 4036,
      "ĠháºŃn": 4037,
      "ĠâĨĴ": 4038,
      "thanh": 4039,
      "ĠhÆ°á»Ľc": 4040,
      "ĠvÃ´i": 4041,
      "Ġrobot": 4042,
      "kt": 4043,
      "Ġdonald": 4044,
      "Ġvoi": 4045,
      "Ġchan": 4046,
      "Ġ=>": 4047,
      "Ġsize": 4048,
      "ngh": 4049,
      "Ġkhoang": 4050,
      "Ġver": 4051,
      "á»§a": 4052,
      "Ġrá»ħ": 4053,
      "Ġnáº£y": 4054,
      "Ġtit": 4055,
      "Ġngoan": 4056,
      "bÃ¡n": 4057,
      "Ġos": 4058,
      "áº¿m": 4059,
      "Ġmenu": 4060,
      "Ġvá»ī": 4061,
      "ĠquÃ£ng": 4062,
      "ĠlÆ°á»Ľt": 4063,
      "ĠgiÃłn": 4064,
      "Ġcá»į": 4065,
      "ĠcÃłnh": 4066,
      "Ġmuá»Ĺi": 4067,
      "jo": 4068,
      "Ġgá»ĳm": 4069,
      "led": 4070,
      "Ġgá»ī": 4071,
      "ĠgÃ¡c": 4072,
      "Ġthis": 4073,
      "ting": 4074,
      "ĠxÆ°á»Ľc": 4075,
      "Ġyoga": 4076,
      "âĢĶâĢĶ": 4077,
      "Ġhs": 4078,
      "Ġlá»į": 4079,
      "ational": 4080,
      "ola": 4081,
      "Ġul": 4082,
      "ĠÄĳu": 4083,
      "Ġluá»ĵng": 4084,
      "ĠngÆ°ng": 4085,
      "ĠkhÆ¡i": 4086,
      "ĠÄĳc": 4087,
      "ĩm": 4088,
      "ĠÄĳÃ¡n": 4089,
      "dc": 4090,
      "Ġtá»ĳng": 4091,
      "ĠnÆ°Æ¡ng": 4092,
      "ura": 4093,
      "Ġgs": 4094,
      "Ġmit": 4095,
      "Ġcb": 4096,
      "Ġren": 4097,
      "ä¸": 4098,
      "Äĳá»ĥ": 4099,
      "Ġind": 4100,
      "ĠgÃ£": 4101,
      "Ġmuá»": 4102,
      "ĠÄĳiÃªu": 4103,
      "lish": 4104,
      "Ġet": 4105,
      "Ġsec": 4106,
      "Ġhel": 4107,
      "ĠtrÃ¢u": 4108,
      "tn": 4109,
      "Ġcuá»ĵng": 4110,
      "Ġyam": 4111,
      "Ġ@": 4112,
      "Ġsel": 4113,
      "ĠquyÃªn": 4114,
      "entina": 4115,
      "Ġtrá»«ng": 4116,
      "tvt": 4117,
      "ĠxÃ´i": 4118,
      "Ġnhá»Ŀn": 4119,
      "ali": 4120,
      "mw": 4121,
      "Ġiv": 4122,
      "Ġ>>>": 4123,
      "ĠÄĳá»įng": 4124,
      "Ġfo": 4125,
      "Ġpos": 4126,
      "Ġpage": 4127,
      "Ġhor": 4128,
      "Ġhá»ĳ": 4129,
      "ĠdÃ©p": 4130,
      "Ġwest": 4131,
      "Ġexcel": 4132,
      "Ġstudio": 4133,
      "Ġsub": 4134,
      "uki": 4135,
      "hot": 4136,
      "Ġmr": 4137,
      "Ġnov": 4138,
      "Ġtáº¡ng": 4139,
      "ĠtÃł": 4140,
      "gd": 4141,
      "Ġkon": 4142,
      "cÃ´": 4143,
      "Ġsin": 4144,
      "Ġjam": 4145,
      "Ġvá»£t": 4146,
      "nham": 4147,
      "=\"": 4148,
      "tech": 4149,
      "Ġgar": 4150,
      "ĠÄĳáº¿m": 4151,
      "ĠtrÃ¹m": 4152,
      "att": 4153,
      "ĠtÆ¡": 4154,
      "Ġbáº¥y": 4155,
      "bur": 4156,
      "Ġmos": 4157,
      "Ġnhá»Ļn": 4158,
      "ouse": 4159,
      "Ġclo": 4160,
      "Ġtá»ĩp": 4161,
      "Ġdáº¹p": 4162,
      "Ġmt": 4163,
      "Ġday": 4164,
      "ĠÄĳÃ²n": 4165,
      "ĠrÃ¢u": 4166,
      "vic": 4167,
      "ĠrÃ¡o": 4168,
      "aki": 4169,
      "ĠâĢº": 4170,
      "ĠvÃ¢y": 4171,
      "Ġrem": 4172,
      "Ġmaster": 4173,
      "Ġfc": 4174,
      "Ġnáº¡i": 4175,
      "Ġceo": 4176,
      "Ġdá»Ļi": 4177,
      "ĠâĤ«": 4178,
      "ny": 4179,
      "Ġtháº¡c": 4180,
      "Ġrong": 4181,
      "uters": 4182,
      "Ġxao": 4183,
      "ĠkiÃªm": 4184,
      "Ġdá»ĵn": 4185,
      "Ġbá»įt": 4186,
      "ĠkhÃŃa": 4187,
      "mer": 4188,
      "ĠÂ«": 4189,
      "aha": 4190,
      "Ġcháº£o": 4191,
      "ĠtrÃ¡n": 4192,
      "hd": 4193,
      "Ġráº¡p": 4194,
      "Ġruá»Ļng": 4195,
      "aul": 4196,
      "Ġlin": 4197,
      "huyá»ĩn": 4198,
      "ĠÄĳáº·n": 4199,
      "kia": 4200,
      "ĠbÃ£": 4201,
      "Ġdáº·m": 4202,
      "Ġlá»ĳp": 4203,
      "Ġgay": 4204,
      "Ġcáº¡n": 4205,
      "Ãºy": 4206,
      "ifone": 4207,
      "fl": 4208,
      "Ńng": 4209,
      "Ġmercedes": 4210,
      "Ġwashington": 4211,
      "Ġthon": 4212,
      "Ġhua": 4213,
      "etooth": 4214,
      "ĠÄĳáº¯m": 4215,
      "bÃ¬nh": 4216,
      "ĠuyÃªn": 4217,
      "gá»": 4218,
      "zy": 4219,
      "Ġthoáº£ng": 4220,
      "bÃłi": 4221,
      "Ġshare": 4222,
      "Ġkong": 4223,
      "ĠrÃ£": 4224,
      "Ġlondon": 4225,
      "Ġlá»Ł": 4226,
      "Ġpu": 4227,
      "Ġom": 4228,
      "Ġlá»¥a": 4229,
      "Ġtwitter": 4230,
      ")-": 4231,
      "Ġkey": 4232,
      "eu": 4233,
      "Ġgáº¯t": 4234,
      "ster": 4235,
      "Ġmuá»Ĺng": 4236,
      "bin": 4237,
      "vil": 4238,
      "Ġcheck": 4239,
      "Ġná»ĩm": 4240,
      "Ġxoáº¯n": 4241,
      "Ġkáº¹p": 4242,
      "Ġstart": 4243,
      "zo": 4244,
      "ĠchÃª": 4245,
      "gmail": 4246,
      "Ġxs": 4247,
      "vÃ¬": 4248,
      "ĠbÆ°á»Łi": 4249,
      "Ġnhá»Ł": 4250,
      "Ġcmnd": 4251,
      "ĠÄĳá»©t": 4252,
      "ĠÄĳá»¥c": 4253,
      "league": 4254,
      "Â»": 4255,
      "Ġmobifone": 4256,
      "ĠÄĳÃª": 4257,
      "ĠtÆ°á»Ľi": 4258,
      "ĠchÃł": 4259,
      "ĠbÃ³p": 4260,
      "duc": 4261,
      "Ġsv": 4262,
      "Ġcáº¥y": 4263,
      "Ġct": 4264,
      "ĠhoÃ£n": 4265,
      "Ġare": 4266,
      "Ġbluetooth": 4267,
      "ato": 4268,
      "Ġkáº½m": 4269,
      "Ġcháº£i": 4270,
      "ĠphÃ¬": 4271,
      "Ġopt": 4272,
      "ĠÄĳáº¡c": 4273,
      "dÃ¢n": 4274,
      "lÆ°á»£ng": 4275,
      "ep": 4276,
      "quy": 4277,
      "ÄĳÃ¢y": 4278,
      "Ġqui": 4279,
      "ĠsÃ¡p": 4280,
      "dro": 4281,
      "Ġcau": 4282,
      "Ġtokyo": 4283,
      "Ġtotte": 4284,
      "ĠhiÃªn": 4285,
      "chá»ī": 4286,
      "hay": 4287,
      "Ġcontain": 4288,
      "date": 4289,
      "Ġtottenham": 4290,
      "aly": 4291,
      "ventus": 4292,
      "Ġkáº¹t": 4293,
      "Ġwar": 4294,
      "ĠchÃ¹m": 4295,
      "kin": 4296,
      "ĠthÃ¨m": 4297,
      "Ġamaz": 4298,
      "Ġarg": 4299,
      "Ġfanpage": 4300,
      "Ġvp": 4301,
      "eco": 4302,
      "ĠrÃ²": 4303,
      "Ġsáº§m": 4304,
      "ĠtÃ½": 4305,
      "Ġkr": 4306,
      "Ġkiá»ģm": 4307,
      "ĠlÃ¡ng": 4308,
      "Ġtá»ĭnh": 4309,
      "Ġag": 4310,
      "Ġgt": 4311,
      "Ġatm": 4312,
      "má»¹": 4313,
      "Ã©c": 4314,
      "aka": 4315,
      "wei": 4316,
      "Ġdv": 4317,
      "Ġxáº¯n": 4318,
      "Ġngáº«u": 4319,
      "Ġnano": 4320,
      "ðĿĲ": 4321,
      "ĠmuÃ´n": 4322,
      "Ġwal": 4323,
      "Ġolympic": 4324,
      "Ġkhá»ĳng": 4325,
      "Ġvá»Ł": 4326,
      "Ġhoáº¡i": 4327,
      "ĠphÃ¹ng": 4328,
      "Ġmor": 4329,
      "Ġuv": 4330,
      "Äĳáº¡i": 4331,
      "Ġbox": 4332,
      "ition": 4333,
      "ĠkÃ´ng": 4334,
      "Ġcá»«": 4335,
      "ĠghÃ©t": 4336,
      "Ġwill": 4337,
      "Ġnhuá»Ļm": 4338,
      "hy": 4339,
      "Ġvy": 4340,
      "yle": 4341,
      "Ġiso": 4342,
      "Ġreuters": 4343,
      "Ġjuventus": 4344,
      "Ġpart": 4345,
      "ĠtoÃł": 4346,
      "Ġvil": 4347,
      "Ġep": 4348,
      "Ġcry": 4349,
      "ĠlÆ¡": 4350,
      "thÃłnh": 4351,
      "ene": 4352,
      "ator": 4353,
      "/.": 4354,
      "Ġáº£": 4355,
      "ĠhÅ©": 4356,
      "ĠkhÃª": 4357,
      "Ġbook": 4358,
      "Ġluá»Ļc": 4359,
      "Ġshowroom": 4360,
      "Ġforex": 4361,
      "Ġopp": 4362,
      "giá»Ŀ": 4363,
      "agram": 4364,
      "Ġhit": 4365,
      "Ġalex": 4366,
      "Ġku": 4367,
      "Ġbeau": 4368,
      "Ġcontainer": 4369,
      "Ġbs": 4370,
      "Ġpgs": 4371,
      "Ġgb": 4372,
      "ĠbuÃ´ng": 4373,
      "ÄĳÃ£": 4374,
      "br": 4375,
      "Ġbel": 4376,
      "Ġchap": 4377,
      "Ġdá»Ł": 4378,
      "Ġserver": 4379,
      "Ġmun": 4380,
      "ĠbÃ³c": 4381,
      "Ġnhiáº¿p": 4382,
      "ical": 4383,
      "áº»m": 4384,
      "esh": 4385,
      "lÃł": 4386,
      "ÄĳÆ°á»£c": 4387,
      "Ġarch": 4388,
      "Ġze": 4389,
      "Ġfol": 4390,
      "ĠkhiÃªm": 4391,
      "ĠsÃºc": 4392,
      "Ġur": 4393,
      "rael": 4394,
      "my": 4395,
      "ui": 4396,
      "Ġthá»īnh": 4397,
      ",..": 4398,
      "ĠcÃ³c": 4399,
      "ader": 4400,
      "urinho": 4401,
      "ĠhÃ³c": 4402,
      "Ġháº¯c": 4403,
      "Ġbody": 4404,
      "Ġhiáº¿p": 4405,
      "express": 4406,
      "hai": 4407,
      "Ġvat": 4408,
      "ĠchÆ°": 4409,
      "Ġpub": 4410,
      "Ġcolor": 4411,
      "nhÆ°ng": 4412,
      "Ġmg": 4413,
      "Ġnokia": 4414,
      "Ġbáº¡": 4415,
      "Ġxsm": 4416,
      "ĠÃło": 4417,
      "thÃ´ng": 4418,
      "dl": 4419,
      "Ġpiano": 4420,
      "Ġgáº¥u": 4421,
      "Ġvill": 4422,
      "Ġkhay": 4423,
      "Ġsá»¥t": 4424,
      "Ġviews": 4425,
      "Ġphot": 4426,
      "Ġbtc": 4427,
      "Ġkháº£i": 4428,
      "Ġnguyen": 4429,
      "elts": 4430,
      "Ġauth": 4431,
      "Ġlanh": 4432,
      "Ġláº¯k": 4433,
      "ifa": 4434,
      "Ġms": 4435,
      "Ġcle": 4436,
      "Ġinstagram": 4437,
      "how": 4438,
      "Ġri": 4439,
      "ĠmáºŃu": 4440,
      "Ġâĸ": 4441,
      "Ġmed": 4442,
      "Ġhn": 4443,
      "zu": 4444,
      "ĠmáºŃp": 4445,
      "Ġchat": 4446,
      "Ãºm": 4447,
      "box": 4448,
      "org": 4449,
      "Ġintel": 4450,
      "bal": 4451,
      "Ġton": 4452,
      "Ġdata": 4453,
      "ĠÄĳÃ¹i": 4454,
      "Ġielts": 4455,
      "phim": 4456,
      "Ġchoi": 4457,
      "Ġláº¡p": 4458,
      "Ġisrael": 4459,
      "Ġbot": 4460,
      ",\"": 4461,
      "sá»ĳ": 4462,
      "ĠbÃ¬a": 4463,
      "plus": 4464,
      "ngo": 4465,
      "ĠbÃ¹n": 4466,
      "Ġmedia": 4467,
      "Ġsilic": 4468,
      "Ġgtvt": 4469,
      "Ġrá»ĩt": 4470,
      "Ġmix": 4471,
      "Ġá»ĳm": 4472,
      "Â²": 4473,
      "app": 4474,
      "Ġeco": 4475,
      "link": 4476,
      "ĠsÃłnh": 4477,
      "itr": 4478,
      "Ġmourinho": 4479,
      "Ġtrá»ħ": 4480,
      "Ġgran": 4481,
      "ĠÆ°á»Ľp": 4482,
      "Ġfu": 4483,
      "ĠbuÃ½t": 4484,
      "Ġniá»ģng": 4485,
      "ement": 4486,
      "ĠphÃ´": 4487,
      "Ġtuá»": 4488,
      "Â·": 4489,
      "Ġhag": 4490,
      "ĠthiÃªng": 4491,
      "eland": 4492,
      "xÃ£": 4493,
      "Ġbank": 4494,
      "Ġdá»ĳi": 4495,
      "Ġhen": 4496,
      "thá»Ŀi": 4497,
      "Ġngáº·t": 4498,
      "Ġwhite": 4499,
      "ĠÄĳoáº£n": 4500,
      "ield": 4501,
      "Ġtal": 4502,
      "mua": 4503,
      "Ġsouth": 4504,
      "Ġ_": 4505,
      "Ġxá»ĳp": 4506,
      "Ġroy": 4507,
      "men": 4508,
      "viá»ĩt": 4509,
      "Ġbayern": 4510,
      "Ġhol": 4511,
      "Ġyour": 4512,
      "Ġrá»ĥ": 4513,
      "Ġtum": 4514,
      "ĠcÃºm": 4515,
      "quáºŃn": 4516,
      "air": 4517,
      "emo": 4518,
      "ages": 4519,
      "ĠrÃ©t": 4520,
      "ĠcháºŃt": 4521,
      "Ġ~": 4522,
      "Ġvol": 4523,
      "Ġgom": 4524,
      "Ġlux": 4525,
      "work": 4526,
      "ĠkÃ©t": 4527,
      "chain": 4528,
      "Ġhuawei": 4529,
      "ms": 4530,
      "Ġbalo": 4531,
      "bia": 4532,
      "Ġphá»¥ng": 4533,
      "Ġlive": 4534,
      "Ġfin": 4535,
      "ĠbÃºa": 4536,
      "Ġsáº£nh": 4537,
      "ĠbÆ°á»Ľ": 4538,
      "================": 4539,
      "ĠmÃ¡c": 4540,
      "Ġmotor": 4541,
      "ĠÄĳoan": 4542,
      "%)": 4543,
      "Ġship": 4544,
      "Ġhouse": 4545,
      "Ġamazon": 4546,
      "Ġargentina": 4547,
      "ĠdÃło": 4548,
      "Ġant": 4549,
      "ĠchÃ©m": 4550,
      "Ġráº½": 4551,
      "Ġniá»ĩu": 4552,
      "Äĳiá»ģu": 4553,
      "Ġlá»¯": 4554,
      "Ġtime": 4555,
      "Ġge": 4556,
      "Ġtá»ĵi": 4557,
      "Ġcenter": 4558,
      "á»Ł": 4559,
      "iforn": 4560,
      "Ġlaz": 4561,
      "ĠnÃ¡ch": 4562,
      "Ġcsgt": 4563,
      "ward": 4564,
      "Ġnháº·t": 4565,
      "Ġrá»ķ": 4566,
      "Ġsur": 4567,
      "Ġlat": 4568,
      "Ġmaz": 4569,
      "!!!": 4570,
      "Ġvilla": 4571,
      "Ġnghiá»ĩt": 4572,
      "bu": 4573,
      "trang": 4574,
      "ifornia": 4575,
      "Ġstore": 4576,
      "wood": 4577,
      "unt": 4578,
      "Ġlay": 4579,
      "Ġacc": 4580,
      "Ġháº»m": 4581,
      "ae": 4582,
      "Ġdavid": 4583,
      "Ġdt": 4584,
      "pháº§n": 4585,
      "Ġdang": 4586,
      "Ġvinaphone": 4587,
      "Ġlá»Ļt": 4588,
      "Ġhost": 4589,
      "ĠlÄĳ": 4590,
      "Ġpsg": 4591,
      "ixel": 4592,
      "Ġdon": 4593,
      "Ġbb": 4594,
      "Ġnhuyá»ħn": 4595,
      "ctor": 4596,
      "Ġdc": 4597,
      "ĠmiÃªu": 4598,
      "hoa": 4599,
      "Ġmiss": 4600,
      "Ġros": 4601,
      "Ġfer": 4602,
      "Ġfb": 4603,
      "Ġshowbiz": 4604,
      "ĠÄĳÃ£ng": 4605,
      "Äĳá»ĵng": 4606,
      "Ġoanh": 4607,
      "ĠbÄĥm": 4608,
      "Ġnhá»įn": 4609,
      "))": 4610,
      "Ġmake": 4611,
      "Ġput": 4612,
      "ĠgiÃ²": 4613,
      "Ġkhao": 4614,
      "Ġngá»¡": 4615,
      "Ġváº¯t": 4616,
      "Ġtá»¥ng": 4617,
      "nhÆ°": 4618,
      "Ġcv": 4619,
      "Ġphá»Ł": 4620,
      "Ġkhuáº¥t": 4621,
      "Ġyamaha": 4622,
      "Ġlives": 4623,
      "cam": 4624,
      "rol": 4625,
      "ĠngÃ¢y": 4626,
      "Ġbon": 4627,
      "ttq": 4628,
      "Ġsáº§u": 4629,
      "aza": 4630,
      "main": 4631,
      "Ġdig": 4632,
      "ye": 4633,
      "Ġgiá»ı": 4634,
      "ĠgiÃªsu": 4635,
      "Ġdá»¡": 4636,
      "Ġvá»īa": 4637,
      "ĠsÆ°á»Łi": 4638,
      "khoáº£ng": 4639,
      "nt": 4640,
      "Ġcalifornia": 4641,
      "Ġnail": 4642,
      "Ġbuff": 4643,
      "Ġtimes": 4644,
      "Ġwik": 4645,
      "áº¿ng": 4646,
      "fr": 4647,
      "Ġcalo": 4648,
      "Ġdiá»ħm": 4649,
      "Ġsapa": 4650,
      "ĠsÃ¹i": 4651,
      "Ġtrans": 4652,
      "ateg": 4653,
      "Ġlá»Ļi": 4654,
      "ĠhÃ©": 4655,
      "eng": 4656,
      "Ġdell": 4657,
      "ning": 4658,
      "Ġslot": 4659,
      "amil": 4660,
      "Ġasia": 4661,
      "Ġháº£": 4662,
      "hoáº·c": 4663,
      "Ġoppo": 4664,
      "Ġpdf": 4665,
      "Ġcoin": 4666,
      "Ġskin": 4667,
      "ãĥ": 4668,
      "Ġgiáº¿ng": 4669,
      "Ġháº¡ch": 4670,
      "ĠxÃ³t": 4671,
      "Ġfun": 4672,
      "star": 4673,
      "Ġngoáº¡n": 4674,
      "Ġdáº·n": 4675,
      "Ġchá»ĳn": 4676,
      "ates": 4677,
      "Ġcá»Łi": 4678,
      "ĠtrÃłm": 4679,
      "Ġhigh": 4680,
      "Ġnot": 4681,
      "Ġtravel": 4682,
      "ĠhÃŃt": 4683,
      "able": 4684,
      "Ġvl": 4685,
      "ami": 4686,
      "ĠphiÃªu": 4687,
      "ĠÄĳÃ´n": 4688,
      "Ġváº·n": 4689,
      "Ġmex": 4690,
      "Ġá»§i": 4691,
      "ĠxoÃłi": 4692,
      "Ġaff": 4693,
      "%/": 4694,
      "anmar": 4695,
      "Ġcentr": 4696,
      "try": 4697,
      "ĠÄĳÃłnh": 4698,
      "Ġmacbook": 4699,
      "lor": 4700,
      "Ġlip": 4701,
      "Ġrá»Ļ": 4702,
      "Ġitalia": 4703,
      "Ġhill": 4704,
      "Ġdor": 4705,
      "Ġcontent": 4706,
      "Ġkiáº¿p": 4707,
      "atch": 4708,
      "Ġintern": 4709,
      "Ġcaf": 4710,
      "--------": 4711,
      "ubnd": 4712,
      "Ġnor": 4713,
      "lic": 4714,
      "ÃĹ": 4715,
      "ĠnÃ´": 4716,
      "ĠchÃ©o": 4717,
      "fc": 4718,
      "Ġstress": 4719,
      "Ġfir": 4720,
      "nguá»ĵn": 4721,
      "Ġrivers": 4722,
      "ĠÄĳuá»ĳi": 4723,
      "Ġráº¡ch": 4724,
      "Ġinf": 4725,
      "ky": 4726,
      "Æ°Æ¡m": 4727,
      "Ġter": 4728,
      "ĠloÃ©t": 4729,
      "Ġupdate": 4730,
      "Ġkhan": 4731,
      "Ġdá»Ŀi": 4732,
      "Ġsanh": 4733,
      "./.": 4734,
      "Ġtom": 4735,
      "Ġae": 4736,
      "Ġsars": 4737,
      "Ġget": 4738,
      "Ġfil": 4739,
      "ĠnÃªm": 4740,
      "Ġwatch": 4741,
      "Ġbal": 4742,
      "Ġtuá»³": 4743,
      "Ġql": 4744,
      "ĠmÃło": 4745,
      "Ġxáº£o": 4746,
      "Ġauthor": 4747,
      "Ġgeo": 4748,
      "mark": 4749,
      "oot": 4750,
      "ĠvÃłn": 4751,
      "chá»ĭ": 4752,
      "Ġcáº©u": 4753,
      "Ġliga": 4754,
      "berg": 4755,
      "Ġjul": 4756,
      "Ġcc": 4757,
      "atar": 4758,
      "ishi": 4759,
      "Ġest": 4760,
      "eet": 4761,
      "bai": 4762,
      "ĠcÃło": 4763,
      "Ġngáº¯t": 4764,
      "asonic": 4765,
      "Ġpass": 4766,
      "mon": 4767,
      "Ġoffice": 4768,
      "Ġcombo": 4769,
      "Äĳiá»ĩn": 4770,
      "Ġriverside": 4771,
      "Ġhoáº¡": 4772,
      "Ġcac": 4773,
      "Ġsá»¥p": 4774,
      "Äĳá»ĳi": 4775,
      "qua": 4776,
      "Ġret": 4777,
      "Ġgáº¡t": 4778,
      "Ġkcn": 4779,
      "Ġmexico": 4780,
      "Ġfed": 4781,
      "off": 4782,
      "chÆ°Æ¡ng": 4783,
      "ĠnÃł": 4784,
      "Ġvir": 4785,
      "Ġsand": 4786,
      "any": 4787,
      "Ġsáº¿p": 4788,
      "pha": 4789,
      "ux": 4790,
      "ser": 4791,
      "ĠláºŃn": 4792,
      "sá»±": 4793,
      "ĠsáºŃp": 4794,
      "ĠÃª": 4795,
      "Ġmyanmar": 4796,
      "ĠhÃ´ng": 4797,
      "Ġclass": 4798,
      "Ġdesign": 4799,
      "Ġgáº§m": 4800,
      "Ġká»µ": 4801,
      "Ġhoi": 4802,
      "Ġfifa": 4803,
      "Ġthá»¥c": 4804,
      "Ġflash": 4805,
      "Ġmail": 4806,
      "uá»ĵi": 4807,
      "nghá»": 4808,
      "ĠkhiÃªu": 4809,
      "Ġkha": 4810,
      "Ġvnexpress": 4811,
      "ury": 4812,
      "Ġvá»±ng": 4813,
      "ngá»": 4814,
      "giáº£i": 4815,
      "Ġmá»§": 4816,
      "gra": 4817,
      "Ġglo": 4818,
      "Ġaz": 4819,
      "Ġhc": 4820,
      "ĠÑ": 4821,
      "Ġngáº¡ch": 4822,
      "Ġcáº±m": 4823,
      "Ġbmw": 4824,
      "Ġngáº§n": 4825,
      "Ġ;": 4826,
      "ple": 4827,
      "ĠgÃ¢n": 4828,
      "Ġuáº¥t": 4829,
      "áº¥ng": 4830,
      "Ġbá»Ļc": 4831,
      "xu": 4832,
      "game": 4833,
      "Ġpho": 4834,
      "iep": 4835,
      "jet": 4836,
      "Ġpi": 4837,
      "Ġchá»£t": 4838,
      "ther": 4839,
      "Ġblockchain": 4840,
      "Ġkhiáº¿p": 4841,
      "Ġ..": 4842,
      "Ġláº·n": 4843,
      "Ġib": 4844,
      "Ġlove": 4845,
      "Ġphe": 4846,
      "fast": 4847,
      "ĠlÃ¬": 4848,
      "Ġpanasonic": 4849,
      "Ġhal": 4850,
      "ze": 4851,
      "Ġchol": 4852,
      "wa": 4853,
      "Ġmazda": 4854,
      "get": 4855,
      "ĠloÃ£ng": 4856,
      "ĠlÆ°á»Ŀi": 4857,
      "Ġwordpress": 4858,
      "cer": 4859,
      "Ġmá»ĵi": 4860,
      "Ġbuild": 4861,
      "Ġutd": 4862,
      "pc": 4863,
      "Ġserum": 4864,
      "ĠÄĳÃ¨": 4865,
      "Ġbeauty": 4866,
      "tim": 4867,
      "word": 4868,
      "ï¼": 4869,
      "ĠtÃ¡t": 4870,
      "ĠrÃ¡ch": 4871,
      "index": 4872,
      "táº¡i": 4873,
      "long": 4874,
      "ĠmÆ°á»Ŀng": 4875,
      "ĠxÆ°ng": 4876,
      "ĠnÃłnh": 4877,
      "eme": 4878,
      "san": 4879,
      "Ġthá»ı": 4880,
      "usd": 4881,
      "Ġhiv": 4882,
      "Ġtui": 4883,
      "Ġtáº£o": 4884,
      "Ġdá»Ĺ": 4885,
      "Ġchen": 4886,
      "Ġken": 4887,
      "iness": 4888,
      "há»įc": 4889,
      "\":": 4890,
      "aya": 4891,
      "Ġnguá»Ļi": 4892,
      "ĠmÃ£nh": 4893,
      "Ġvtc": 4894,
      "Ġtrade": 4895,
      "Ġrub": 4896,
      "ĠmÄ©": 4897,
      "Ġlui": 4898,
      "Ġpoker": 4899,
      "Ġneo": 4900,
      "Ġ--": 4901,
      "Ġcopy": 4902,
      "Ġaudio": 4903,
      "Ġlight": 4904,
      "iger": 4905,
      "Ġpen": 4906,
      "Ġtitan": 4907,
      "phá»": 4908,
      "Ġsá»Ńu": 4909,
      "Ġji": 4910,
      "''": 4911,
      "Ġthá»§ng": 4912,
      "Ġhand": 4913,
      "ĠÐ": 4914,
      "ĠthÃŃnh": 4915,
      "ĠnÃ©": 4916,
      "Ġtrend": 4917,
      "bit": 4918,
      "ĠphÃ´ng": 4919,
      "Ġtip": 4920,
      "dong": 4921,
      "Å©a": 4922,
      "Ġgolden": 4923,
      "Ġobama": 4924,
      "way": 4925,
      "ĠxÃ´n": 4926,
      "Ġcore": 4927,
      "ĠthÃª": 4928,
      "ĠrÃ¡t": 4929,
      "Ġbol": 4930,
      "Ġláº«y": 4931,
      "Ġblue": 4932,
      "Ġtel": 4933,
      "Ġtráº§y": 4934,
      "Ġkang": 4935,
      "ĠrÃ²ng": 4936,
      "ĠgáºŃt": 4937,
      "Ġdh": 4938,
      "ift": 4939,
      "ĠnhÃ¢m": 4940,
      "Ġsat": 4941,
      "Ġzo": 4942,
      "Ġbá»«ng": 4943,
      "Ġsá»¥n": 4944,
      "Ġah": 4945,
      "ĠlÃ¡nh": 4946,
      "itt": 4947,
      "Ġá´": 4948,
      "Ġenter": 4949,
      "ous": 4950,
      "Ġghen": 4951,
      "Ġmid": 4952,
      "Ġcd": 4953,
      "ĠchÃ¨n": 4954,
      "ĠgáºŃy": 4955,
      "cÆ¡": 4956,
      "Ġlá»Ļng": 4957,
      "Ġrock": 4958,
      "Ġphotos": 4959,
      "ĠhÄĳqt": 4960,
      "Ġleg": 4961,
      "Ġmáº«n": 4962,
      "ĠkÃŃp": 4963,
      "ĠthÃªu": 4964,
      "ĠtuÃ½": 4965,
      "tá»ķng": 4966,
      "Ġira": 4967,
      "Ġcá»ĳi": 4968,
      "Ġtc": 4969,
      "kinh": 4970,
      "web": 4971,
      "Ġcy": 4972,
      "Ġcntt": 4973,
      "arat": 4974,
      "ĠbÃ¡u": 4975,
      "ette": 4976,
      "ĠgÃ³t": 4977,
      "Ġbre": 4978,
      "chÃŃnh": 4979,
      "Ġvov": 4980,
      "verter": 4981,
      "ĠxÃŃu": 4982,
      "áº½n": 4983,
      "Ġruá»ĵi": 4984,
      "ery": 4985,
      "ella": 4986,
      "Ġgá»¥c": 4987,
      "Ġputin": 4988,
      "ins": 4989,
      "Ġhagl": 4990,
      "hiá»ĩn": 4991,
      "Ġseoul": 4992,
      "Ġsearch": 4993,
      "aba": 4994,
      "Ãµm": 4995,
      "ĠkiÃªu": 4996,
      "Ġving": 4997,
      "ĠÃºt": 4998,
      "Ġchá»įc": 4999,
      "gl": 5000,
      "Ġxoang": 5001,
      "Ġtand": 5002,
      "Ġasus": 5003,
      "ĠnÃłn": 5004,
      "ĠvÃŃt": 5005,
      "ĠcÃ¹": 5006,
      "ĠdÃª": 5007,
      "Ġkhuáº¥y": 5008,
      "zuki": 5009,
      "tá»īnh": 5010,
      "Ġbas": 5011,
      "ÄĳÆ°á»Ŀng": 5012,
      "Ġnhá»ķ": 5013,
      "ĠnhÃłn": 5014,
      "esterol": 5015,
      "ott": 5016,
      "Ġtháº¡o": 5017,
      "chá»§": 5018,
      "oney": 5019,
      "Ġbill": 5020,
      "Ġphá»ĳt": 5021,
      "ela": 5022,
      "Ġgáº§y": 5023,
      "Ġflc": 5024,
      "Ġgang": 5025,
      "Ġact": 5026,
      "Ġhanh": 5027,
      "kw": 5028,
      "thá»©": 5029,
      "Ġkhanh": 5030,
      "Ġráº¡n": 5031,
      "ĠÄĳao": 5032,
      "ima": 5033,
      "Ãºn": 5034,
      "Ġiraq": 5035,
      "ora": 5036,
      "Ġins": 5037,
      "ĠbÃºp": 5038,
      "Ġray": 5039,
      "ings": 5040,
      "Ġev": 5041,
      "Ġinternational": 5042,
      "Ġnick": 5043,
      "Ġquá»µ": 5044,
      "Ġ->": 5045,
      "ĠxuÃ´i": 5046,
      "Ġline": 5047,
      "Ġak": 5048,
      "Ġngáº¥t": 5049,
      "pearl": 5050,
      "Ġpat": 5051,
      "cao": 5052,
      "Ġteen": 5053,
      "uong": 5054,
      "ated": 5055,
      "ves": 5056,
      "Ġsale": 5057,
      "Ġchang": 5058,
      "Ġrich": 5059,
      "Ġcer": 5060,
      "Ġpvc": 5061,
      "Ġvis": 5062,
      "ĠtÆ°á»Ľc": 5063,
      "emon": 5064,
      "Ġbhyt": 5065,
      "Ġtower": 5066,
      "Ġvuá»ĳt": 5067,
      "ific": 5068,
      "Ġnhat": 5069,
      "Ġsáº¥u": 5070,
      "ĠtÃºng": 5071,
      "Ġngháº¹t": 5072,
      "ĠtÄĥm": 5073,
      "han": 5074,
      "Ġfrom": 5075,
      "Ġanime": 5076,
      "ĠãĢ": 5077,
      "tok": 5078,
      "Ġpp": 5079,
      "Ġapk": 5080,
      "Ġ{": 5081,
      "ĠkhÆ°Æ¡ng": 5082,
      "Ġdecal": 5083,
      "Ġgieo": 5084,
      "ĠráºŃp": 5085,
      "xá»": 5086,
      "Ġviáº¿ng": 5087,
      "logy": 5088,
      "Ġnhai": 5089,
      "Ġquá»³": 5090,
      "ys": 5091,
      "mart": 5092,
      "Ġphao": 5093,
      "Ġbiden": 5094,
      "Ġml": 5095,
      "Ġnap": 5096,
      "ĠnhÆ°á»Ŀng": 5097,
      "ĠlÅ©ng": 5098,
      "Ġbáº©m": 5099,
      "Ġlá»¥t": 5100,
      "Ġjames": 5101,
      "há»ĵ": 5102,
      "Ġtur": 5103,
      "ĠcÆ°a": 5104,
      "nder": 5105,
      "Ġbaby": 5106,
      ".âĢĿ": 5107,
      "ĠchoÃ¡ng": 5108,
      "Ġcholesterol": 5109,
      "ql": 5110,
      "Ġâľħ": 5111,
      "Ġvingroup": 5112,
      "itch": 5113,
      "Ġthat": 5114,
      "Ġoan": 5115,
      "Ġlib": 5116,
      "Ġgio": 5117,
      "ĠrÆ¡": 5118,
      "Ġjose": 5119,
      "ese": 5120,
      "ĠÄĳáºŃy": 5121,
      "subishi": 5122,
      "Ġcond": 5123,
      "Ġbxh": 5124,
      "Ġdep": 5125,
      "Ġnext": 5126,
      "ĠÃ°á»": 5127,
      "Ġchá»Ńi": 5128,
      "Ġdat": 5129,
      "uis": 5130,
      "Ġlife": 5131,
      "ged": 5132,
      "Ġua": 5133,
      "Ġsá»Ŀ": 5134,
      "burg": 5135,
      "quáº£ng": 5136,
      "Ġcoff": 5137,
      "Ġ''": 5138,
      "tw": 5139,
      "Ġmetro": 5140,
      "ient": 5141,
      "red": 5142,
      "ble": 5143,
      "car": 5144,
      "ĠÄĳÃ¡i": 5145,
      "Ġwon": 5146,
      "Ġnik": 5147,
      "dá»ĭch": 5148,
      "Ġunivers": 5149,
      "ĠbÃ©n": 5150,
      "ttxvn": 5151,
      "Ġjong": 5152,
      "Ġec": 5153,
      "Ġbat": 5154,
      "Ġmáº©n": 5155,
      "Ġplaza": 5156,
      "Ġopen": 5157,
      "ru": 5158,
      "gio": 5159,
      "rr": 5160,
      "Ġtrá»ĩt": 5161,
      "Ġquáº¥n": 5162,
      "Ġol": 5163,
      "ĠmÃŃa": 5164,
      "letico": 5165,
      "itar": 5166,
      "khu": 5167,
      "Ġkt": 5168,
      "ida": 5169,
      ".-": 5170,
      "ĠnháºŃu": 5171,
      "Ġtá»³": 5172,
      "Ġmitsubishi": 5173,
      "ĠvÄĳqg": 5174,
      "ĠâĻ": 5175,
      "gp": 5176,
      "Ġstyle": 5177,
      "tá»±": 5178,
      "thá»§": 5179,
      "dt": 5180,
      "Ġvá»Ľt": 5181,
      "báº£n": 5182,
      "Ġspe": 5183,
      "Ġvá»Ĺ": 5184,
      "ĠxÃ¡t": 5185,
      "Ġvietcombank": 5186,
      "Ġngháº½n": 5187,
      "ĠmÃ¹ng": 5188,
      "Ġden": 5189,
      "thiáº¿t": 5190,
      "Ġvá»©t": 5191,
      "cal": 5192,
      "Ġphone": 5193,
      "ship": 5194,
      "Ġport": 5195,
      "Äĳi": 5196,
      "siÃªu": 5197,
      "ute": 5198,
      "tton": 5199,
      "tÆ°Æ¡ng": 5200,
      "Ġdáº«u": 5201,
      "aily": 5202,
      "Ġná»©c": 5203,
      "Ġdomain": 5204,
      "Ġrec": 5205,
      "Ġmttq": 5206,
      "otel": 5207,
      "Ġnuá»ĳt": 5208,
      "Ġzealand": 5209,
      "ago": 5210,
      "Ġmul": 5211,
      "Ġion": 5212,
      "hÃ¬nh": 5213,
      "Ġhinh": 5214,
      "Ġsá»«ng": 5215,
      "ĠxÃłi": 5216,
      "cÃ²n": 5217,
      "Ġhydro": 5218,
      "ĠvÃ£": 5219,
      "cÃ¡i": 5220,
      "Ġyoung": 5221,
      "Ġnhá»ĭn": 5222,
      "Ġvictor": 5223,
      "pop": 5224,
      "Ġcad": 5225,
      "ccc": 5226,
      "order": 5227,
      "lá»Ĺi": 5228,
      "Ġgdp": 5229,
      "dn": 5230,
      "phouse": 5231,
      "Ġatletico": 5232,
      "Ġcpu": 5233,
      "isa": 5234,
      "Ġjan": 5235,
      "Ġgram": 5236,
      "ject": 5237,
      "Ġkhá»ĳc": 5238,
      "Ġsuv": 5239,
      "Ġkid": 5240,
      "Ġbáº«y": 5241,
      "Ġprot": 5242,
      "Ġlá»Ńng": 5243,
      "Ġhap": 5244,
      "Ġâĺ": 5245,
      "ĠÄĳáº¥ng": 5246,
      "áºµn": 5247,
      "alth": 5248,
      "................": 5249,
      "Ġoffline": 5250,
      "thi": 5251,
      "Ġlm": 5252,
      "ĠgáºŃp": 5253,
      "Ġthung": 5254,
      "ren": 5255,
      "bert": 5256,
      "Ġtien": 5257,
      "Ġcnc": 5258,
      "Ġsáº¡t": 5259,
      "ling": 5260,
      "Ġvinpearl": 5261,
      "Ġ%": 5262,
      "aro": 5263,
      "ĠcÃºi": 5264,
      "fer": 5265,
      "Ġenglish": 5266,
      "cháº¥t": 5267,
      "nes": 5268,
      "Ġchrome": 5269,
      "bile": 5270,
      "Ġcentral": 5271,
      "Ġserie": 5272,
      "Ġngá»į": 5273,
      "Ġhá»£i": 5274,
      "Ġchá»įi": 5275,
      "kv": 5276,
      "Ġroyal": 5277,
      "Ġnn": 5278,
      "sao": 5279,
      "ĠÄĳÃ¨o": 5280,
      "Ġjean": 5281,
      "ĠgiÃ£": 5282,
      "ĠdÃ¬": 5283,
      "Ġamer": 5284,
      "ĠlÆ°á»£n": 5285,
      "nv": 5286,
      "Ġfire": 5287,
      "aster": 5288,
      "Ġnt": 5289,
      "ben": 5290,
      "Ġlcd": 5291,
      "edu": 5292,
      "Ġvh": 5293,
      "Ġbá»ĵng": 5294,
      "Ġxsmb": 5295,
      "Ġsáº£": 5296,
      "uss": 5297,
      "Ġbosch": 5298,
      "viá»ĩc": 5299,
      "ĠrÆ°á»Ľc": 5300,
      "Ġdigital": 5301,
      "ĠcÄĳv": 5302,
      "Ġfort": 5303,
      "Ġpaul": 5304,
      "......": 5305,
      "Ġmanag": 5306,
      "Ġgre": 5307,
      "Ġwol": 5308,
      "bay": 5309,
      "Ġcarbon": 5310,
      "fs": 5311,
      "sta": 5312,
      "weet": 5313,
      "board": 5314,
      "Ġchina": 5315,
      "Ġdau": 5316,
      "qh": 5317,
      "Ġcream": 5318,
      "Ġchá»Ľp": 5319,
      "seo": 5320,
      "Ġshophouse": 5321,
      "Ġbec": 5322,
      "Ġgp": 5323,
      "±u": 5324,
      "ãĤ": 5325,
      "ĠnhÃ¡i": 5326,
      "estay": 5327,
      "Ġmap": 5328,
      "Ġbrand": 5329,
      "ival": 5330,
      "kok": 5331,
      "Ġface": 5332,
      "trÆ°á»Ľc": 5333,
      "Ġvene": 5334,
      "Ġcá»«u": 5335,
      "Ġsuzuki": 5336,
      "ãĢĤ": 5337,
      "ĠphÃ¡c": 5338,
      "báº£o": 5339,
      "asa": 5340,
      "sl": 5341,
      "Ġome": 5342,
      "Ġpay": 5343,
      "Ġstream": 5344,
      "mal": 5345,
      "peria": 5346,
      "jc": 5347,
      "Ġnhá»ĵi": 5348,
      "ĠxÃ³c": 5349,
      "gas": 5350,
      "ĠquÃŃ": 5351,
      "iter": 5352,
      "read": 5353,
      "ĠliÃªng": 5354,
      "Ġmaria": 5355,
      "Ġfa": 5356,
      "thá»±c": 5357,
      "ĠtrÃ¢m": 5358,
      "ush": 5359,
      "stem": 5360,
      "Ġdragon": 5361,
      "Â°": 5362,
      "Ġshar": 5363,
      "Ġbuffet": 5364,
      "ipt": 5365,
      "Ġbest": 5366,
      "oli": 5367,
      "Ġtáº¥u": 5368,
      "ĠsÃło": 5369,
      "ĠÄĳá»Ļn": 5370,
      "les": 5371,
      "Ġnhá»Ľt": 5372,
      "Ġfre": 5373,
      "Ġlá»«ng": 5374,
      "ania": 5375,
      "khÃ´": 5376,
      "Ġresid": 5377,
      "ĠcÃ²i": 5378,
      "hz": 5379,
      "Ġcel": 5380,
      "Ġbt": 5381,
      "ĠtoÃ¡t": 5382,
      "táº¥t": 5383,
      "anoi": 5384,
      "Ġcáº¡o": 5385,
      "%;": 5386,
      "ĠnhÃ¡y": 5387,
      "Ġtuáº¥t": 5388,
      "Æ°á»Ŀm": 5389,
      "Ġnhá»¥c": 5390,
      "gu": 5391,
      "Ġshopee": 5392,
      "Ġná»į": 5393,
      "anda": 5394,
      "ĠtrÃ£i": 5395,
      "ĠnÃ¡o": 5396,
      "ĠphÆ°á»£t": 5397,
      "Ġguitar": 5398,
      "ĠkhÃŃt": 5399,
      "Ġlist": 5400,
      "Ġcáº·n": 5401,
      "Ġtháº¯p": 5402,
      "ĠchÃ´n": 5403,
      "Ġvá»įt": 5404,
      "Ġvinfast": 5405,
      "Ġdá»©a": 5406,
      "Ġshin": 5407,
      "cean": 5408,
      "btc": 5409,
      "Ġnv": 5410,
      "cap": 5411,
      "Ġwas": 5412,
      "Ġzen": 5413,
      "phÃ²ng": 5414,
      "berry": 5415,
      "Ġcall": 5416,
      "?\".": 5417,
      "bel": 5418,
      "city": 5419,
      "Ġsnap": 5420,
      "Ġkhuya": 5421,
      "out": 5422,
      "alog": 5423,
      "Ġtáº·c": 5424,
      "Ġpas": 5425,
      "Ġtoan": 5426,
      "ican": 5427,
      "ĠmÃ¡ch": 5428,
      "ĠngáºŃm": 5429,
      "Ġnoel": 5430,
      "____": 5431,
      "Ġbts": 5432,
      "Ġhomestay": 5433,
      "home": 5434,
      "ĠÄĳÅ©a": 5435,
      "cy": 5436,
      "set": 5437,
      "tÃ¬nh": 5438,
      "aa": 5439,
      "Ġomega": 5440,
      "Â®": 5441,
      "Ġproduc": 5442,
      "ware": 5443,
      "Ġdáº¡n": 5444,
      "Ġmain": 5445,
      "vision": 5446,
      "ider": 5447,
      "ná»¯": 5448,
      "Ġast": 5449,
      "Ġarchives": 5450,
      "Ġyu": 5451,
      "hÃ£y": 5452,
      "form": 5453,
      "Ġmien": 5454,
      "Ġmicha": 5455,
      "Ġpccc": 5456,
      "Ġsexy": 5457,
      "Ġchuá»ĵng": 5458,
      "sáº£n": 5459,
      "Ġtq": 5460,
      "iso": 5461,
      "Ġple": 5462,
      "Ġphiáº¿n": 5463,
      "Ġvietjet": 5464,
      "Ġgeor": 5465,
      "Ġbacc": 5466,
      "tÃªn": 5467,
      "Ġprof": 5468,
      "Ġmá»īm": 5469,
      "ĠdáºŃu": 5470,
      "Ġvest": 5471,
      "Ġtá»¥t": 5472,
      "Ġphai": 5473,
      "ĠâĢĺ": 5474,
      "Ġjin": 5475,
      "ghan": 5476,
      "ain": 5477,
      "Ġkb": 5478,
      "Ġkháº¯t": 5479,
      "back": 5480,
      "trÃªn": 5481,
      "âĢ¦\"": 5482,
      "ÄĳÃ¡nh": 5483,
      "Ġgá»Łi": 5484,
      "ĠphÃłm": 5485,
      "Ġhtx": 5486,
      "wh": 5487,
      "ĠlÆ°": 5488,
      "Ġitaly": 5489,
      "ior": 5490,
      "Ġnoi": 5491,
      "copy": 5492,
      "ĠhÃ£m": 5493,
      "Äĳá»ĭa": 5494,
      "Ġmichael": 5495,
      "Ġold": 5496,
      "phÃºt": 5497,
      "tÃ¬m": 5498,
      "ĠvÃ²m": 5499,
      "Ġinverter": 5500,
      "chu": 5501,
      "tÄĥng": 5502,
      "pm": 5503,
      "Ġtá»µ": 5504,
      "Ġhon": 5505,
      "ĠngÆ°u": 5506,
      "Ġctc": 5507,
      "Ġcent": 5508,
      "Ġcháº§n": 5509,
      "ĠnhÅ©": 5510,
      "Ġná»Ľi": 5511,
      "Ġwr": 5512,
      "ĠthiÃªm": 5513,
      "Ġbangkok": 5514,
      "ĠdÆ°ng": 5515,
      "Ġsalon": 5516,
      "gram": 5517,
      "ei": 5518,
      "khá»§ng": 5519,
      "Ġphotoshop": 5520,
      "yÃªu": 5521,
      "Ġdien": 5522,
      "Ġfut": 5523,
      "ply": 5524,
      "Ġagr": 5525,
      "ttg": 5526,
      "Ġbá»į": 5527,
      "Ġcre": 5528,
      "dragon": 5529,
      "Ġqual": 5530,
      "Ġimpl": 5531,
      "Ġmunich": 5532,
      "Äĳáº·c": 5533,
      "Ġbaccarat": 5534,
      "Ġlos": 5535,
      "ĠrÃ¹a": 5536,
      "Ġhorm": 5537,
      "Ġwater": 5538,
      "sch": 5539,
      "Ġpixel": 5540,
      "ĠnhÃłm": 5541,
      "tháº¿": 5542,
      "Ġtext": 5543,
      "Ġbik": 5544,
      "ading": 5545,
      "tream": 5546,
      "ĠgÃ¡y": 5547,
      "Ġblo": 5548,
      "Ġleave": 5549,
      "ness": 5550,
      "Ġdam": 5551,
      "cÄĳ": 5552,
      "Ġgiáº¥m": 5553,
      "ender": 5554,
      "Ġglobal": 5555,
      "Ġhtc": 5556,
      "Ġarab": 5557,
      "por": 5558,
      "Ġráº£i": 5559,
      "Ġder": 5560,
      "Ġcart": 5561,
      "Ġbn": 5562,
      "video": 5563,
      "ĠkhuÃª": 5564,
      "Äĥk": 5565,
      "Ġvietsub": 5566,
      "edo": 5567,
      "Ġcand": 5568,
      "Ġoto": 5569,
      "Ġvar": 5570,
      "ĠchÃ¹i": 5571,
      "Ġquáº¥t": 5572,
      "ĠcafÃ©": 5573,
      "Ġdet": 5574,
      "Ġbidv": 5575,
      "iam": 5576,
      "Ġnung": 5577,
      "Ġhat": 5578,
      "trÆ°á»Ŀng": 5579,
      "Ġpháº§m": 5580,
      "Ġbusiness": 5581,
      ".[": 5582,
      "Ġhuyá»ĩt": 5583,
      "Ġrol": 5584,
      "Ġhero": 5585,
      "ĠlÃ¡ch": 5586,
      "ÃŃa": 5587,
      "Ġxua": 5588,
      "ĠÄĳá»ĳm": 5589,
      "raft": 5590,
      "Ġnhiá»ħu": 5591,
      "ika": 5592,
      "Ġcit": 5593,
      "ĠÄĳá»Ŀ": 5594,
      "Ġtd": 5595,
      "Ġwho": 5596,
      "Ġtechno": 5597,
      "osa": 5598,
      "Ġguard": 5599,
      "iba": 5600,
      "ĠmiÃªn": 5601,
      "ule": 5602,
      "ique": 5603,
      "Ġreg": 5604,
      "pper": 5605,
      "row": 5606,
      "Ġocean": 5607,
      "Ġabs": 5608,
      "Ġcá»Ļ": 5609,
      "Ġbá»±c": 5610,
      "ĠsÃ´": 5611,
      "Ġxáº»": 5612,
      "Ġflor": 5613,
      "Ġvnpt": 5614,
      "Ġquyá»ĩn": 5615,
      "Ġmá»ĳt": 5616,
      "apan": 5617,
      "ĠsÃºp": 5618,
      "old": 5619,
      "plo": 5620,
      "ĠcÃµi": 5621,
      "Ġná»ī": 5622,
      "ander": 5623,
      "vá»ģ": 5624,
      "ĠbÆ°á»Ľm": 5625,
      "ĠrÃ¡n": 5626,
      "Ġtháº¯m": 5627,
      "Ġcoffee": 5628,
      "Ġcotton": 5629,
      "Ġngá»¥c": 5630,
      "káº¿t": 5631,
      "Ġgaming": 5632,
      "æľ": 5633,
      "ĠcÃ²": 5634,
      "Ġnav": 5635,
      "ĠlÃ©n": 5636,
      "Ġtb": 5637,
      "Ġlá»ĵn": 5638,
      "phong": 5639,
      "graph": 5640,
      "Ġtuyá»ģn": 5641,
      "point": 5642,
      "Ġnhá»įc": 5643,
      "Ġthoáº£": 5644,
      "Ġvietnamnet": 5645,
      "Ġtháº¯n": 5646,
      "dd": 5647,
      "ĠmÃ©p": 5648,
      "Ġrá»Ľt": 5649,
      "âĢ¦)": 5650,
      "light": 5651,
      "Ġry": 5652,
      "Ġforum": 5653,
      "Ġhormone": 5654,
      "Ġfood": 5655,
      "awa": 5656,
      "ectr": 5657,
      "Ġidol": 5658,
      "tis": 5659,
      "ĠvÄĳv": 5660,
      "Ġchrist": 5661,
      "brid": 5662,
      "ĠmÃŃt": 5663,
      "ĠnhÃºng": 5664,
      "ĠÃ¹n": 5665,
      "ju": 5666,
      "icester": 5667,
      "Ġbur": 5668,
      "Ġná»Ļ": 5669,
      "ĠmÃ£o": 5670,
      "vice": 5671,
      "aku": 5672,
      "vÄĥn": 5673,
      "Ġkhá»ī": 5674,
      "ori": 5675,
      "Ġshe": 5676,
      "ĭnh": 5677,
      "Ġhun": 5678,
      "Ġtone": 5679,
      "gin": 5680,
      "Ġriver": 5681,
      "Ġmill": 5682,
      "Ġmah": 5683,
      "Ġthá»ģm": 5684,
      "Ġoh": 5685,
      "khÃ¡ch": 5686,
      "ito": 5687,
      "Ġhoc": 5688,
      "gy": 5689,
      "ĠcÃły": 5690,
      "zz": 5691,
      "Ġnem": 5692,
      "ãĢĳ": 5693,
      "ani": 5694,
      "Ġsum": 5695,
      "Ġtoe": 5696,
      "gar": 5697,
      "email": 5698,
      "ste": 5699,
      "ĠngÃł": 5700,
      "quan": 5701,
      "Ġquáº¥y": 5702,
      "Ġdortm": 5703,
      "Ġholly": 5704,
      "Ġlogist": 5705,
      "bÃł": 5706,
      "Ġtraff": 5707,
      "tuáº§n": 5708,
      ".)": 5709,
      "ĠchÃ³i": 5710,
      "shine": 5711,
      "Ġimplant": 5712,
      "Ġmusic": 5713,
      "Ġbá»ĩ": 5714,
      "cow": 5715,
      "Ġdortmund": 5716,
      "táºŃp": 5717,
      "Ġáº¯c": 5718,
      "nik": 5719,
      "Ġjon": 5720,
      "Ġharry": 5721,
      "Ġtype": 5722,
      "Ġmá»©t": 5723,
      "tiáº¿ng": 5724,
      "Ġsilicon": 5725,
      "Ġafp": 5726,
      "bour": 5727,
      "Ġfrank": 5728,
      "care": 5729,
      "hÃłng": 5730,
      "ĠhÃ©t": 5731,
      "info": 5732,
      "tour": 5733,
      "cuá»Ļc": 5734,
      "sá»Ńa": 5735,
      "Ġsms": 5736,
      "ovo": 5737,
      "Ġkháº½": 5738,
      "ls": 5739,
      "ĠchÃłm": 5740,
      "Ġleicester": 5741,
      "bor": 5742,
      "máº¹": 5743,
      "Ġráº£nh": 5744,
      "ĠtrÄĥn": 5745,
      "Ġwall": 5746,
      "Ġdy": 5747,
      "Ġttxvn": 5748,
      "Ġcanon": 5749,
      "Ġwi": 5750,
      "Ġnáº£n": 5751,
      "Ġsar": 5752,
      "nhÃ¢n": 5753,
      "od": 5754,
      "Ġmtv": 5755,
      "\";": 5756,
      "thiÃªn": 5757,
      "Ġhas": 5758,
      "Ġname": 5759,
      "Ġgáº·t": 5760,
      "hen": 5761,
      "ĠnÃºm": 5762,
      "Ġmica": 5763,
      "ĠxÃ©": 5764,
      "ats": 5765,
      "Ġnin": 5766,
      "ibank": 5767,
      "Ġsá»įc": 5768,
      "Ġauthority": 5769,
      "tháº§n": 5770,
      "Ġbeta": 5771,
      "Ġcondotel": 5772,
      "Ġtagged": 5773,
      "Ġhá»ĩt": 5774,
      "chel": 5775,
      "ĠkÃ¬m": 5776,
      "nÆ°á»Ľc": 5777,
      "phÆ°á»Ŀng": 5778,
      "Äĳiá»ĥm": 5779,
      "Ġcháº£nh": 5780,
      "Ġtx": 5781,
      "lam": 5782,
      "Ġphá»ĵng": 5783,
      "ĠÄĳá»ĭt": 5784,
      "Ġthom": 5785,
      "Ġdream": 5786,
      "ou": 5787,
      "Ġbáº»": 5788,
      "ĠghÃª": 5789,
      "Ġprotect": 5790,
      "ons": 5791,
      "Ġsáº£ng": 5792,
      "Ġthuá»Ļt": 5793,
      "Ġnáº¿m": 5794,
      "isco": 5795,
      "Ġorgan": 5796,
      "ĠxÃª": 5797,
      "ĠÄĳáº¥m": 5798,
      "Ġney": 5799,
      "shi": 5800,
      "Ġváº£y": 5801,
      "Ġpac": 5802,
      "quá»ĳc": 5803,
      "ĠrÃ£nh": 5804,
      "Ġsoft": 5805,
      "Ġdiam": 5806,
      "Ġds": 5807,
      "bar": 5808,
      "Ġssd": 5809,
      "urt": 5810,
      "Ġaug": 5811,
      "Ġpalace": 5812,
      "eral": 5813,
      "Ġsá»ĵi": 5814,
      "wor": 5815,
      "issan": 5816,
      "ĠÄĳÆ°Æ¡": 5817,
      "Ġjung": 5818,
      "Ġmoscow": 5819,
      "Ġâĸº": 5820,
      "Ġsgk": 5821,
      "cept": 5822,
      "Ġlivestream": 5823,
      "ÌĤ": 5824,
      "Äĳá»Ļ": 5825,
      "Ġbac": 5826,
      "ĠÆ°": 5827,
      "pi": 5828,
      "Ġsed": 5829,
      "Ġclin": 5830,
      "Äĳáº§u": 5831,
      "Ġráº«y": 5832,
      "lan": 5833,
      "Ġchar": 5834,
      "can": 5835,
      "ĠthiÃªu": 5836,
      "tuy": 5837,
      "Ġbáº©y": 5838,
      "ĠngÃ³i": 5839,
      "tiá»ģn": 5840,
      "Ġtruc": 5841,
      "Ġquai": 5842,
      "Ġcare": 5843,
      "ĠkitÃ´": 5844,
      "Ġneymar": 5845,
      "ĠthÃ¬n": 5846,
      "Ġlock": 5847,
      "hÆ°á»Ľng": 5848,
      "Ġjet": 5849,
      "stal": 5850,
      "Ġvá»¥n": 5851,
      "Ġgrab": 5852,
      "tai": 5853,
      "cáº§n": 5854,
      "Ġpak": 5855,
      "ĠhÄĥng": 5856,
      "Ġctcp": 5857,
      "ĠvÃ¢ng": 5858,
      "Ġue": 5859,
      "vro": 5860,
      "vc": 5861,
      "Ġpic": 5862,
      "Ġsáº¡m": 5863,
      "Ġif": 5864,
      "ĠÃºy": 5865,
      "af": 5866,
      "erry": 5867,
      "giao": 5868,
      "Ġpremium": 5869,
      "chÆ°a": 5870,
      "Ġcabin": 5871,
      "Ġbor": 5872,
      "Ġtá»§y": 5873,
      "exus": 5874,
      "dep": 5875,
      "hp": 5876,
      "real": 5877,
      "ĠquáºŃt": 5878,
      "Ġtiktok": 5879,
      "nq": 5880,
      "Ġbuilding": 5881,
      "Ġmá»³": 5882,
      "Ġngá»¥y": 5883,
      "Ã²e": 5884,
      "xd": 5885,
      "Ġtáº¥p": 5886,
      "ĠngÃłng": 5887,
      "ways": 5888,
      "Ġadd": 5889,
      "Ġgá»įt": 5890,
      "Ġdaily": 5891,
      "liÃªn": 5892,
      "Ġtáº©m": 5893,
      "má»Ĺi": 5894,
      "ĠtrÃ³c": 5895,
      "dá»±": 5896,
      "Ġuniversity": 5897,
      "Ġschool": 5898,
      "pháº£i": 5899,
      "Ġxáº¯c": 5900,
      "acom": 5901,
      "Ġroma": 5902,
      "Ġass": 5903,
      "Ġhá»ķng": 5904,
      "ĠhuÃ¢n": 5905,
      "Ġhosting": 5906,
      "Ġgranite": 5907,
      "Ġsiáº¿t": 5908,
      "Ġcomm": 5909,
      "ĠmÃºt": 5910,
      "Ġlá»ĳc": 5911,
      "tom": 5912,
      "Ġbung": 5913,
      "phÃ¡t": 5914,
      "bá»ĩnh": 5915,
      "Ġdoi": 5916,
      "Ġtool": 5917,
      "Ġten": 5918,
      "Ġpn": 5919,
      "ĠsuÃ´n": 5920,
      "Ġnao": 5921,
      "gn": 5922,
      "++": 5923,
      "ret": 5924,
      "hs": 5925,
      "Äĳo": 5926,
      "ĠâľĶ": 5927,
      "Ġthuá»Ł": 5928,
      "Ġsystem": 5929,
      "Ġchá»«": 5930,
      "mÃ¬nh": 5931,
      "sá»ĳng": 5932,
      "Ġover": 5933,
      "sal": 5934,
      "Ġstreet": 5935,
      "Ġball": 5936,
      "aru": 5937,
      "Ġmuá»Ļi": 5938,
      "Ġtá»īa": 5939,
      "Ġalib": 5940,
      "thÃ¡i": 5941,
      "Ġboo": 5942,
      "ım": 5943,
      "ila": 5944,
      "Ġmoon": 5945,
      "ray": 5946,
      "Ġvali": 5947,
      "code": 5948,
      "Ġexpress": 5949,
      "hang": 5950,
      "uo": 5951,
      "Ġstand": 5952,
      "face": 5953,
      "Ġnuá»ĳi": 5954,
      "Ġcook": 5955,
      "amine": 5956,
      "Ġbiáº¿ng": 5957,
      "É´": 5958,
      "cÄĥn": 5959,
      "Ġnetwork": 5960,
      "ucher": 5961,
      "izen": 5962,
      "Ġkhinh": 5963,
      "Ġvff": 5964,
      "ĠoÃ¡n": 5965,
      "Ġsx": 5966,
      "gba": 5967,
      "ĠxoÃ¡y": 5968,
      "thá»ĭ": 5969,
      "Ġcolle": 5970,
      "Ġbio": 5971,
      "Ġoc": 5972,
      "Ġkn": 5973,
      "Ġpt": 5974,
      "Ġkub": 5975,
      "tá»©c": 5976,
      "ĠvÄĥng": 5977,
      "Ġltd": 5978,
      "ĠchÆ°á»Ľng": 5979,
      "Ġnguoi": 5980,
      "Ġmáº¯ng": 5981,
      "oa": 5982,
      "Ġasian": 5983,
      "Ġtran": 5984,
      "Ġultra": 5985,
      "Ġhappy": 5986,
      "Ġthá»ĳi": 5987,
      "sy": 5988,
      "Ġbuá»ĳt": 5989,
      "trÃ¡i": 5990,
      "lux": 5991,
      "Ġtiki": 5992,
      "Ġkhoáº¯n": 5993,
      "Ġmoi": 5994,
      "ations": 5995,
      "chuyá»ĩn": 5996,
      "há»Ļi": 5997,
      "ema": 5998,
      "Ġxiáº¿t": 5999,
      "Ġtl": 6000,
      "Ġå": 6001,
      "Ġsir": 6002,
      "Ġhoáº¡n": 6003,
      "Ġtap": 6004,
      "field": 6005,
      "ĠhÃ¡o": 6006,
      "Ġtrau": 6007,
      "ov": 6008,
      "Ġtháº£n": 6009,
      "ahoo": 6010,
      "Ġce": 6011,
      "Ġhollywood": 6012,
      "Ġfont": 6013,
      "Ġunder": 6014,
      "Ġmá»įt": 6015,
      "Ġlien": 6016,
      "Ġnissan": 6017,
      "Ġchui": 6018,
      "Ġtg": 6019,
      "Ġjenn": 6020,
      "Ġjava": 6021,
      "Ġitem": 6022,
      "Ġsto": 6023,
      "dan": 6024,
      "aga": 6025,
      "Ġkali": 6026,
      "Ġlouis": 6027,
      "ipedia": 6028,
      "kd": 6029,
      "Ġbanh": 6030,
      "ĠrÃ´": 6031,
      "emy": 6032,
      "Ġháº¡m": 6033,
      "ison": 6034,
      "Ġcuba": 6035,
      "Ġmem": 6036,
      "ĠnÃ´i": 6037,
      "kong": 6038,
      "Ġoai": 6039,
      "Ġalibaba": 6040,
      "Ġsak": 6041,
      "Ð½": 6042,
      "Ġplug": 6043,
      "ric": 6044,
      "ĠphÃ´i": 6045,
      "ni": 6046,
      "iff": 6047,
      "Ġsupp": 6048,
      "Ġchiá»ĥu": 6049,
      "ashion": 6050,
      "Ġáº¥u": 6051,
      "Ġrap": 6052,
      "Ġcasio": 6053,
      "Ð°": 6054,
      "Ġmá»ĭ": 6055,
      "Ġdvd": 6056,
      "ĠÄĳÃłng": 6057,
      "ĠnhÃ¡t": 6058,
      "ding": 6059,
      "Ġapr": 6060,
      "Ġlogistics": 6061,
      "Ġzin": 6062,
      "amb": 6063,
      "ĠtrÃ¹": 6064,
      "Ġtua": 6065,
      "ĠnÃ£": 6066,
      "láº§n": 6067,
      "Ħ¢": 6068,
      "tÃ¢n": 6069,
      "Ġthá»Ńa": 6070,
      "Ġsjc": 6071,
      "Ġjapan": 6072,
      "made": 6073,
      "Ð¾": 6074,
      "pad": 6075,
      "Ġnhá»ıng": 6076,
      "ev": 6077,
      "Ġlazada": 6078,
      "Äĳá»ģ": 6079,
      "...\"": 6080,
      "Ġdie": 6081,
      "Ġcast": 6082,
      "Ġnáº¥y": 6083,
      "Ġvictoria": 6084,
      "Ġcompos": 6085,
      "Ġsunshine": 6086,
      "Ġmall": 6087,
      "Ġtoa": 6088,
      "Ġger": 6089,
      "Ġtweet": 6090,
      "Ġkl": 6091,
      "asy": 6092,
      "ek": 6093,
      "Ġrá»Ĺi": 6094,
      "Ġthá»Ľi": 6095,
      "Ġdj": 6096,
      "Ġhealth": 6097,
      "Ġcur": 6098,
      "ĠtrÃªu": 6099,
      "Ġcáº¥n": 6100,
      "Ġngáº£": 6101,
      "Ġeverton": 6102,
      "ĠvÃ¡": 6103,
      "Ġnlá»Ĺi": 6104,
      "tor": 6105,
      "ennis": 6106,
      "Ġmiáº¿u": 6107,
      "Ġket": 6108,
      "chiáº¿n": 6109,
      "Ã¢t": 6110,
      "Ġbá»īm": 6111,
      "Ġscand": 6112,
      "ategor": 6113,
      "rá»": 6114,
      "pto": 6115,
      "Ġáº¿ch": 6116,
      "Ġmeg": 6117,
      "Ġlenovo": 6118,
      "Ġluxury": 6119,
      "Ġkan": 6120,
      "Ġ^": 6121,
      "Ġbá»©t": 6122,
      "Ġrá»Ĺng": 6123,
      "erson": 6124,
      "Ġpop": 6125,
      "ĠsÃ¡o": 6126,
      "Ġlil": 6127,
      "den": 6128,
      "Ġdiamond": 6129,
      "iko": 6130,
      "ange": 6131,
      "ptnt": 6132,
      "Ġgun": 6133,
      "ĠvÃ¡c": 6134,
      "Ġagribank": 6135,
      "Ġvalent": 6136,
      "Ġuae": 6137,
      "bÃ¡o": 6138,
      "Ġngá»Ńa": 6139,
      "Ġxá»ĭn": 6140,
      "ĠÆ¡": 6141,
      "Ġdia": 6142,
      "ĠcÃ´i": 6143,
      "cá»§a": 6144,
      "alan": 6145,
      "cÃ¹ng": 6146,
      "rogen": 6147,
      "%),": 6148,
      "ĠâĿ": 6149,
      "ĠgiÃªng": 6150,
      "Ð¸": 6151,
      "Ñĥ": 6152,
      "unce": 6153,
      "Ġphotocopy": 6154,
      "Ġdriver": 6155,
      "Ġcrack": 6156,
      "Ġedit": 6157,
      "Ġstartup": 6158,
      "Ġwed": 6159,
      "Ġphilips": 6160,
      "...]": 6161,
      "Ġcá»Ľ": 6162,
      "inch": 6163,
      "Ġexc": 6164,
      "Ġcuá»ĳng": 6165,
      "cáºŃu": 6166,
      "mc": 6167,
      "ĠvÃµng": 6168,
      "eta": 6169,
      "Ġtiáº¿u": 6170,
      "ngoÃłi": 6171,
      "Ġaudi": 6172,
      "ĠrÃ³t": 6173,
      "now": 6174,
      "Ġdubai": 6175,
      "Ġtar": 6176,
      "ĠtÃ£": 6177,
      "oma": 6178,
      "cast": 6179,
      "Ġvá»¯a": 6180,
      "khá»": 6181,
      "Ġchris": 6182,
      "ete": 6183,
      "Ġthong": 6184,
      "ĠvÆ¡": 6185,
      "aker": 6186,
      "ĠchÃ¨o": 6187,
      "Ġpor": 6188,
      "bie": 6189,
      "Ġatt": 6190,
      "Ġtk": 6191,
      "Ġ]": 6192,
      "Ġâŀ": 6193,
      "ĠbÃŃnh": 6194,
      "online": 6195,
      "cá»ķ": 6196,
      "ĠtÆ°ng": 6197,
      "ĠÄĳb": 6198,
      "Ġsoc": 6199,
      "Ġxá»ĩ": 6200,
      "Ġfit": 6201,
      "Ġcoun": 6202,
      "Ġmak": 6203,
      "ŃĲ": 6204,
      "Ġcloud": 6205,
      "osh": 6206,
      "Ġhim": 6207,
      "zer": 6208,
      "Ġsáº¯n": 6209,
      "ĠxiÃªn": 6210,
      "Ġinv": 6211,
      "ÄĳÃł": 6212,
      "Ġron": 6213,
      "Ġmáº§u": 6214,
      "Ġsaudi": 6215,
      "Ġzoom": 6216,
      "nguyÃªn": 6217,
      "igue": 6218,
      "pal": 6219,
      "Ġjoe": 6220,
      "tx": 6221,
      "Ġbeach": 6222,
      "may": 6223,
      "Ġtechnology": 6224,
      "bÃªn": 6225,
      "Ġchá»Ľ": 6226,
      "edit": 6227,
      "ĠhÃ²m": 6228,
      "Ġbáº§y": 6229,
      "shop": 6230,
      ">>": 6231,
      "Ġvoucher": 6232,
      "Ġiq": 6233,
      "Ġwikipedia": 6234,
      "Ġkq": 6235,
      "Ġplo": 6236,
      "Ġlum": 6237,
      "Ġjord": 6238,
      "Ġtouch": 6239,
      "ati": 6240,
      "Ġevent": 6241,
      "Ġtrá»ķ": 6242,
      "Ġdoc": 6243,
      "mobile": 6244,
      "Ġeuropa": 6245,
      "Ġsqu": 6246,
      "Ġabo": 6247,
      "key": 6248,
      "Ġorder": 6249,
      "Ġalpha": 6250,
      "âĢĶâĢĶâĢĶâĢĶ": 6251,
      "ĠnÃ¨": 6252,
      "ony": 6253,
      "ĠbÃ³i": 6254,
      "Ġphen": 6255,
      "ÃŃp": 6256,
      "Ġhyun": 6257,
      "Ġkhá»ĳn": 6258,
      "Ġwilliam": 6259,
      "Ġmao": 6260,
      "Ġxperia": 6261,
      "Ġccc": 6262,
      "Ġlag": 6263,
      "ĠxoÄĥn": 6264,
      "tá»·": 6265,
      "utnik": 6266,
      "esl": 6267,
      "Ġgluc": 6268,
      "Ġpok": 6269,
      "minh": 6270,
      "esco": 6271,
      "tÃłi": 6272,
      "inbank": 6273,
      "Ġngáº¡o": 6274,
      "Ġrai": 6275,
      "max": 6276,
      "Ġks": 6277,
      "Ġxiii": 6278,
      "Ġvks": 6279,
      "quang": 6280,
      "Ġngá»ĳc": 6281,
      "Ġbil": 6282,
      "âĢ¦,": 6283,
      "Ġtá»¥i": 6284,
      "ĠsÃ©c": 6285,
      "Ġvung": 6286,
      "ĠÄĳk": 6287,
      "pton": 6288,
      "[/": 6289,
      "Ġusa": 6290,
      "Ġafghan": 6291,
      "Ġox": 6292,
      "Ġcf": 6293,
      "list": 6294,
      "Ġsr": 6295,
      "Ġá»©": 6296,
      "Ġthá»ĳt": 6297,
      "kim": 6298,
      "ĠsÃ²": 6299,
      "Ġstat": 6300,
      "Ġcapital": 6301,
      "Ġuyá»ĥn": 6302,
      "Ġrel": 6303,
      "hÃłnh": 6304,
      "Ġado": 6305,
      "Ġtex": 6306,
      "Ġhá»©c": 6307,
      "Ġthiáº¿p": 6308,
      "âĸ": 6309,
      "tÄĳ": 6310,
      "ĠnÆ°á»Ľ": 6311,
      "Ġbir": 6312,
      "onic": 6313,
      "dor": 6314,
      "+)": 6315,
      "Ġkhoanh": 6316,
      "].": 6317,
      "Ġnáº§y": 6318,
      "nÃ³ng": 6319,
      "Ġplan": 6320,
      "Ġvá»Ľ": 6321,
      "ĠãĢĲ": 6322,
      "Ġlot": 6323,
      "Ġtrader": 6324,
      "ido": 6325,
      "lÃ´": 6326,
      "Ġngá»Ŀi": 6327,
      "Ġmur": 6328,
      "Ġnm": 6329,
      "cript": 6330,
      "eon": 6331,
      "thÆ°Æ¡ng": 6332,
      "Ġtoken": 6333,
      "Ġvers": 6334,
      "pol": 6335,
      "xb": 6336,
      "ĠÄĳáº£": 6337,
      "ĠkÃ¨": 6338,
      "Ġcrystal": 6339,
      "Ġelectr": 6340,
      "Ġafghanistan": 6341,
      "äº": 6342,
      "Ġmega": 6343,
      "ĠbÃªnh": 6344,
      "Ġpogba": 6345,
      "Ġnil": 6346,
      "Ġchá»ĳc": 6347,
      "ector": 6348,
      "Ġ).": 6349,
      "Ġbund": 6350,
      "Ġcomposite": 6351,
      "Ġdem": 6352,
      "Äĳáº¿n": 6353,
      "loud": 6354,
      "zone": 6355,
      "Ġgood": 6356,
      "fan": 6357,
      "tinh": 6358,
      "Ġbrun": 6359,
      "ĠcháºŃp": 6360,
      "vrolet": 6361,
      "gro": 6362,
      "Ġgly": 6363,
      "Ġpap": 6364,
      "Ġgmail": 6365,
      "vet": 6366,
      "phá»¥": 6367,
      "well": 6368,
      "Ġdáº§m": 6369,
      "ĠmÃ¨": 6370,
      "Ġbrid": 6371,
      "Ġtak": 6372,
      "tho": 6373,
      "Ġtáº»": 6374,
      "Ġberlin": 6375,
      "Ġfashion": 6376,
      "Ġfranc": 6377,
      "Ġaqua": 6378,
      "chen": 6379,
      "Ġfirst": 6380,
      "gam": 6381,
      ",âĢ¦.": 6382,
      "ĠviÃª": 6383,
      "Ġyáº¿m": 6384,
      "ĠxÆ°á»Ľng": 6385,
      "ä¸ļ": 6386,
      "Ġbch": 6387,
      "vÃło": 6388,
      "ĠnghÃłnh": 6389,
      "Ġkai": 6390,
      "ĠquÃ¡ch": 6391,
      "Ġnáº¡o": 6392,
      "Ġngáº¥m": 6393,
      "tiá»ĥu": 6394,
      "des": 6395,
      "nhiá»ģu": 6396,
      "Ġxp": 6397,
      "Ġluc": 6398,
      "idan": 6399,
      "cad": 6400,
      "wan": 6401,
      "Ġranger": 6402,
      "Ġcharl": 6403,
      "ĠtÃ¡ng": 6404,
      "Ġkhuynh": 6405,
      "ereum": 6406,
      "Ġesport": 6407,
      "tÆ°": 6408,
      "ĠsÃ³i": 6409,
      "Ġsite": 6410,
      "Ġcccd": 6411,
      "Ġtáº¯n": 6412,
      "Ġkore": 6413,
      "báº¥t": 6414,
      "Ġsnapdragon": 6415,
      "ĠgiÆ¡": 6416,
      "ĠngÃ¡n": 6417,
      "Ġaward": 6418,
      "Ġtpo": 6419,
      "tÃŃnh": 6420,
      "tg": 6421,
      "ction": 6422,
      "nháºŃt": 6423,
      "âĢ¦âĢ¦âĢ¦âĢ¦âĢ¦âĢ¦âĢ¦âĢ¦": 6424,
      "táº¥n": 6425,
      "dney": 6426,
      "!\".": 6427,
      "umin": 6428,
      "Ġtosh": 6429,
      "ĠnhÆ°á»¡ng": 6430,
      "bong": 6431,
      "fun": 6432,
      "Ġtrip": 6433,
      "Ġshort": 6434,
      "Ġsáº£o": 6435,
      "iku": 6436,
      "ĠâĹ": 6437,
      "vie": 6438,
      "Ġgiáº·c": 6439,
      "Ġthen": 6440,
      "Ġangeles": 6441,
      "thuá»Ļc": 6442,
      "Ġchevrolet": 6443,
      "Ġqatar": 6444,
      "ÄĳÃ³": 6445,
      "Ġbk": 6446,
      "Ġkhong": 6447,
      "Ġthuong": 6448,
      "ĠvÃ£n": 6449,
      "Ġná»ĥ": 6450,
      "vip": 6451,
      "ius": 6452,
      "Ġhold": 6453,
      "cÅ©ng": 6454,
      "Ġsaf": 6455,
      "Ġtá»¥y": 6456,
      "bv": 6457,
      "nk": 6458,
      "ĠnÃ³c": 6459,
      "ĠtÃŃa": 6460,
      "eek": 6461,
      "Ġtown": 6462,
      "Ġsedan": 6463,
      "Ġint": 6464,
      "Ġpakistan": 6465,
      "Ġsd": 6466,
      "mÃ£": 6467,
      "???": 6468,
      "ĠnhÃ³c": 6469,
      "Ġcháº±m": 6470,
      "cola": 6471,
      "ono": 6472,
      "Ġmach": 6473,
      "Ġself": 6474,
      "Ġvietinbank": 6475,
      "Ġpháº«n": 6476,
      "esel": 6477,
      "cin": 6478,
      "ĠÄĳÆ¡": 6479,
      "Ġháº¡o": 6480,
      "Ġend": 6481,
      "Ġethereum": 6482,
      "Ġcell": 6483,
      "ÄĳÄĥng": 6484,
      "Ġhá»ĳt": 6485,
      "Ġfri": 6486,
      "vÃŃ": 6487,
      "gáº§n": 6488,
      "Ġbikini": 6489,
      "Ġnitr": 6490,
      "ieng": 6491,
      "Ġflo": 6492,
      "res": 6493,
      "Ġ::": 6494,
      "Ġvincom": 6495,
      "ros": 6496,
      "Ġvv": 6497,
      "Ã¹y": 6498,
      "ku": 6499,
      "Ġ***": 6500,
      "atin": 6501,
      "Ġchao": 6502,
      "máº·t": 6503,
      "Ġngáº¡t": 6504,
      "Ġtto": 6505,
      "Ġcarton": 6506,
      "tam": 6507,
      "Ġtanh": 6508,
      "Ġjordan": 6509,
      "Ġcháº¡p": 6510,
      "Ġgal": 6511,
      "Ġmartin": 6512,
      "à¹": 6513,
      "Ġá»ĳ": 6514,
      "Ġngáº«m": 6515,
      "ized": 6516,
      "ĠlÃµm": 6517,
      "mit": 6518,
      "Ġblogger": 6519,
      "Ġngá»ı": 6520,
      "Ġxii": 6521,
      "Ġpiz": 6522,
      "%).": 6523,
      "urce": 6524,
      "Ġath": 6525,
      "Ġfest": 6526,
      "zuela": 6527,
      "Ġyang": 6528,
      "Ġgiáº§y": 6529,
      "giáº£m": 6530,
      ":\"": 6531,
      "umi": 6532,
      "review": 6533,
      "Ġgem": 6534,
      "Ġboy": 6535,
      "Ġlad": 6536,
      "Ġkaw": 6537,
      "ĠrÆ¡m": 6538,
      "Ġtennis": 6539,
      "sai": 6540,
      "Ġlá»Ŀ": 6541,
      "Ġdef": 6542,
      "Ġliu": 6543,
      "nÃ³i": 6544,
      "Ġck": 6545,
      "ĠqÃºy": 6546,
      "ĠnÆ¡": 6547,
      "Æ°Æ¡u": 6548,
      "ulin": 6549,
      "çļ": 6550,
      "ĠÃ´i": 6551,
      "Ġlet": 6552,
      "Ġlá»±u": 6553,
      "Ġvalentine": 6554,
      "aso": 6555,
      "Ġdeb": 6556,
      "bus": 6557,
      "Ġsá»§a": 6558,
      "Ġlav": 6559,
      "Ġhanoi": 6560,
      "Ġwc": 6561,
      "Ġshb": 6562,
      "Ġtes": 6563,
      "dat": 6564,
      "Ġlá»ģu": 6565,
      "Ġdiesel": 6566,
      "rush": 6567,
      "Ġago": 6568,
      "Ġax": 6569,
      "ĠrÃªu": 6570,
      "ĠngÃ¡y": 6571,
      "Ġkhiáº¿m": 6572,
      "Ġkhuáº¿ch": 6573,
      "Ġráº±m": 6574,
      "ĠnghÃªnh": 6575,
      "Ġpháº£": 6576,
      "ĠtuÃ½p": 6577,
      "tháºŃt": 6578,
      "nect": 6579,
      "Ã³p": 6580,
      "Ġtrailer": 6581,
      "ĠbÃ¨o": 6582,
      "Ġeb": 6583,
      "villa": 6584,
      "ify": 6585,
      "Ġháº¥u": 6586,
      "Ġhere": 6587,
      "mic": 6588,
      "Ġthá»ĳn": 6589,
      "wc": 6590,
      "yÃªn": 6591,
      "Ġbut": 6592,
      "uat": 6593,
      "els": 6594,
      "ĠcsÄĳt": 6595,
      "Ġhye": 6596,
      "esliga": 6597,
      "¥i": 6598,
      "Ġbright": 6599,
      "jpg": 6600,
      "Ġvenezuela": 6601,
      "Ġpy": 6602,
      "Ġsydney": 6603,
      "ather": 6604,
      "Ġlá»ĵi": 6605,
      "ures": 6606,
      "ĠchÃ³t": 6607,
      "imo": 6608,
      "Ġcover": 6609,
      "Ġjeans": 6610,
      "ráº¥t": 6611,
      "Ġkubet": 6612,
      "onia": 6613,
      "Ġbá»ķn": 6614,
      "intuc": 6615,
      "Ġscandal": 6616,
      "váºŃy": 6617,
      "Ġsolo": 6618,
      "Ġquoc": 6619,
      "danh": 6620,
      "Ġdaniel": 6621,
      "Ġwo": 6622,
      "Ġsaint": 6623,
      "Ġfox": 6624,
      "Ġoil": 6625,
      "Ġlogic": 6626,
      "Ġmá»ĵm": 6627,
      "Ġacad": 6628,
      "ĠsuÃ½t": 6629,
      "achi": 6630,
      "hr": 6631,
      "ĠbÃŃt": 6632,
      "háº£i": 6633,
      "ĠlÃ³c": 6634,
      "Ġtráº§u": 6635,
      "Ġ\\": 6636,
      "ĠÄĳÄĥk": 6637,
      "allet": 6638,
      "ĠchÃŃch": 6639,
      "tiáº¿p": 6640,
      "Ġpubg": 6641,
      "nghe": 6642,
      "Ġgv": 6643,
      "Ġráº§m": 6644,
      "Ġmá»įng": 6645,
      "Ġtot": 6646,
      "Ġgiun": 6647,
      "Ġtoáº£": 6648,
      "Ġthomas": 6649,
      "Ġpearl": 6650,
      "ween": 6651,
      "nháºŃn": 6652,
      "Ġurl": 6653,
      "Ġapec": 6654,
      "world": 6655,
      "encia": 6656,
      "Ġinn": 6657,
      "Ġlá»£p": 6658,
      "Ġsáº§n": 6659,
      "Ġadobe": 6660,
      "Ġnic": 6661,
      "tri": 6662,
      "há»ĩ": 6663,
      "uel": 6664,
      "Ġnháº¹n": 6665,
      "Ġnike": 6666,
      "ĠdiÃªn": 6667,
      "Ġkw": 6668,
      "Ġsanta": 6669,
      "ĠÃºp": 6670,
      "Ġgift": 6671,
      "xa": 6672,
      "Ġaj": 6673,
      "Ġcrist": 6674,
      "Ġlmht": 6675,
      "Æ°t": 6676,
      "Ġairways": 6677,
      "ascript": 6678,
      "bp": 6679,
      "Ġbá»ĭt": 6680,
      "ĠhoÃ¡n": 6681,
      "ĠrÃ¬": 6682,
      "Ġbks": 6683,
      "Ġrobert": 6684,
      "\"?": 6685,
      "ĠmÃ¡ng": 6686,
      "nghá»ĩ": 6687,
      "ĠquÃ½t": 6688,
      "los": 6689,
      "ĠnhÃ¡m": 6690,
      "lt": 6691,
      "«m": 6692,
      "quÃ½": 6693,
      "bÄĳ": 6694,
      "zen": 6695,
      "ĠÄĳáº½": 6696,
      "Ġwil": 6697,
      "Ġamin": 6698,
      "Ġáº§m": 6699,
      "Ġhá»Ŀ": 6700,
      "oxy": 6701,
      "cáº§u": 6702,
      "chinh": 6703,
      "Ġia": 6704,
      "tham": 6705,
      "Ġfly": 6706,
      "Ġbundesliga": 6707,
      "Ġcoup": 6708,
      "Ġcontrol": 6709,
      "aby": 6710,
      "Ġfortun": 6711,
      "Ġlexus": 6712,
      "Ġebook": 6713,
      "lÆ°u": 6714,
      "Ġdk": 6715,
      "Ġedition": 6716,
      "Ġtoshiba": 6717,
      "Ġresidence": 6718,
      "ĠnÆ°á»Ľu": 6719,
      "Ġmom": 6720,
      "ution": 6721,
      "castle": 6722,
      "ĠÆ°Æ¡m": 6723,
      "Ġster": 6724,
      "Ġxui": 6725,
      "Ġsound": 6726,
      "Ġka": 6727,
      "Ġevn": 6728,
      "Ġtrafford": 6729,
      "má»įi": 6730,
      "Ġhik": 6731,
      "Ġxing": 6732,
      "phi": 6733,
      "db": 6734,
      "Ġblackberry": 6735,
      "Ġá»ĵ": 6736,
      "Ðµ": 6737,
      "Ġhum": 6738,
      "Ġlegend": 6739,
      "attle": 6740,
      "Ġuefa": 6741,
      "Ġdecor": 6742,
      "Ġess": 6743,
      "Ġzip": 6744,
      "ĠâĢ¦.": 6745,
      "Ġscan": 6746,
      "Ġtth": 6747,
      "Ġgáº¯m": 6748,
      "oster": 6749,
      "ashi": 6750,
      "Ġosc": 6751,
      "Ńu": 6752,
      "ÃŃu": 6753,
      "Ġwork": 6754,
      "ense": 6755,
      "ĠngÃ²i": 6756,
      "ĠgÄĳ": 6757,
      "Ġreading": 6758,
      "als": 6759,
      "dinh": 6760,
      "ience": 6761,
      "Ġconcept": 6762,
      "Ġcrypto": 6763,
      "hoÃłng": 6764,
      "Ġmiá»ĩt": 6765,
      "Ġplugin": 6766,
      "Ġbbc": 6767,
      "Ġicon": 6768,
      "Ġduc": 6769,
      "Ġhá»ĳc": 6770,
      "atia": 6771,
      "Ġlich": 6772,
      "Ġoption": 6773,
      "benz": 6774,
      "Ġtechcombank": 6775,
      "Ġspec": 6776,
      "Ġcá»¥t": 6777,
      "mann": 6778,
      "báº¯t": 6779,
      "ĠÄĳÃ²": 6780,
      "Ġlion": 6781,
      "Ġartic": 6782,
      "ĠnháºŃm": 6783,
      "Ġabout": 6784,
      "Ġlá»¥y": 6785,
      "Ġnhá»§": 6786,
      "Ġbinomo": 6787,
      "Ġtexas": 6788,
      "Ġburn": 6789,
      "ĠxÃ¹": 6790,
      "Ġfind": 6791,
      "åĲ": 6792,
      "Ġbass": 6793,
      "ĠmÃºi": 6794,
      "ĠthÃł": 6795,
      "dam": 6796,
      "Ġcolom": 6797,
      "thÆ°á»Ŀng": 6798,
      "ná»Ļi": 6799,
      "Ġradio": 6800,
      "Ġdir": 6801,
      "uay": 6802,
      "cáº£m": 6803,
      "Ġtae": 6804,
      "Ġsá»¡": 6805,
      "Ġea": 6806,
      "sey": 6807,
      "fit": 6808,
      "ecom": 6809,
      "Ġdol": 6810,
      "Ġhdmi": 6811,
      "ĠmÆ°á»Ľt": 6812,
      "lÃŃt": 6813,
      "inter": 6814,
      "Ġaston": 6815,
      "ĠdÃ¨": 6816,
      "Ġnhnn": 6817,
      "çļĦ": 6818,
      "Ġcá»Ļi": 6819,
      "cÃ¢y": 6820,
      "xÃ¢y": 6821,
      "chuyÃªn": 6822,
      "ĠxoÃ¡": 6823,
      "Ġpot": 6824,
      "Ġhave": 6825,
      "chia": 6826,
      "idas": 6827,
      "phÃ¡p": 6828,
      "Ġsáº£y": 6829,
      "Ġnewcastle": 6830,
      "Ġmode": 6831,
      "lÃºc": 6832,
      "Ġbá»Ľi": 6833,
      "xanh": 6834,
      "ĠngÆ¡": 6835,
      "Ġls": 6836,
      "lav": 6837,
      "Ġkáº¡n": 6838,
      "ĠÄĳá»ĳn": 6839,
      "Ġtráº·c": 6840,
      "Ġnháº¥c": 6841,
      "ectro": 6842,
      "Ġbiáº¿u": 6843,
      "Ġthiá»ģu": 6844,
      "Ġjer": 6845,
      "Ġthá»ģ": 6846,
      "ĠbÃºi": 6847,
      "ult": 6848,
      "ç»": 6849,
      "ðĿĹ": 6850,
      "Ġireland": 6851,
      "âľ": 6852,
      "Ġbloom": 6853,
      "Ġhcv": 6854,
      "nguyá»ħn": 6855,
      "doanh": 6856,
      "count": 6857,
      "Ġmomo": 6858,
      "Ġjavascript": 6859,
      "val": 6860,
      "nm": 6861,
      "ugh": 6862,
      "Ġcá»ĵng": 6863,
      "Ġnapoli": 6864,
      "Ġhr": 6865,
      "mÃłu": 6866,
      "Êľ": 6867,
      "amilk": 6868,
      "of": 6869,
      "alk": 6870,
      "Ġdáº¿": 6871,
      "kva": 6872,
      "Ġdáº¥n": 6873,
      "website": 6874,
      "Ġcontin": 6875,
      "Ġredmi": 6876,
      "Äĳáº¥t": 6877,
      "tre": 6878,
      "Ġduong": 6879,
      "Ġnato": 6880,
      "Ġpur": 6881,
      "Ġ//": 6882,
      "free": 6883,
      "Ġths": 6884,
      "Ġváº§n": 6885,
      "Ġedge": 6886,
      "Äĳá»Ļi": 6887,
      "ĠbÃ´": 6888,
      "Ġtor": 6889,
      "Ġvpbank": 6890,
      "Ġsá»į": 6891,
      "Ġtáº¡c": 6892,
      "nay": 6893,
      "enger": 6894,
      "Ġxx": 6895,
      "ĠvÃ¡ng": 6896,
      "Ġinno": 6897,
      "Ġthá»ıi": 6898,
      "Ġcx": 6899,
      "Ġyahoo": 6900,
      "Ġdáº»": 6901,
      "atic": 6902,
      "Ġstt": 6903,
      "Ġnháºµn": 6904,
      "Ġsoo": 6905,
      "Ġpháº¥t": 6906,
      "px": 6907,
      "ape": 6908,
      "ĠlÄĳlÄĳ": 6909,
      "ngay": 6910,
      "Ġposter": 6911,
      "Ġhá»Ļt": 6912,
      "Ġreviews": 6913,
      "giÃ¡o": 6914,
      "Ġbern": 6915,
      "Ġfestival": 6916,
      "Ġprotected": 6917,
      "á»§i": 6918,
      "Ġroi": 6919,
      "Ġgps": 6920,
      "ounce": 6921,
      "Ġeps": 6922,
      "cia": 6923,
      "vÃ´": 6924,
      "Ġmiá»ĩn": 6925,
      "phen": 6926,
      "cent": 6927,
      "Ġbag": 6928,
      "Ġthuy": 6929,
      "Ġfab": 6930,
      "live": 6931,
      "sá»Ń": 6932,
      "Ġngáº§u": 6933,
      "Ġhaw": 6934,
      "Ġvien": 6935,
      "Ġservice": 6936,
      "sky": 6937,
      "Ġnum": 6938,
      "Ġxáº¥p": 6939,
      "vious": 6940,
      "vit": 6941,
      "Ġtmcp": 6942,
      "tintuc": 6943,
      "thÃ¹ng": 6944,
      "Ġvillas": 6945,
      "ĠphÃ¨n": 6946,
      "thong": 6947,
      "Ġvá»¹": 6948,
      "Ġnhá»ĩn": 6949,
      "Ġkoi": 6950,
      "ĠÄĳá»±c": 6951,
      "Ġcos": 6952,
      "rÃ´": 6953,
      "phan": 6954,
      "ĠphÃłn": 6955,
      "lÃ½": 6956,
      "Ġmis": 6957,
      "Æ°á»Ľn": 6958,
      "Ġláº¹": 6959,
      "Ġsecur": 6960,
      "ĠtÆ¡i": 6961,
      "Ġháº¡c": 6962,
      "ĠðŁĳ": 6963,
      "iola": 6964,
      "Ġninja": 6965,
      "Ãµng": 6966,
      "nger": 6967,
      "bÆ°á»Ľc": 6968,
      "Ġinfo": 6969,
      "igo": 6970,
      "urs": 6971,
      "ĠÄĳáº«m": 6972,
      "Ġvá»Ŀ": 6973,
      "Ġfdi": 6974,
      "ris": 6975,
      "Ġvr": 6976,
      "Ġsom": 6977,
      "cÃ¡": 6978,
      "Ġkts": 6979,
      "ÄĳÆ¡n": 6980,
      "Ġvivo": 6981,
      "ĠvÃły": 6982,
      "Ġproject": 6983,
      "Ġpham": 6984,
      "pping": 6985,
      "Ġdemo": 6986,
      "gg": 6987,
      "Ġek": 6988,
      "jaer": 6989,
      "Ġpizza": 6990,
      "Ġcháº±ng": 6991,
      "ional": 6992,
      "Ġtá»ģ": 6993,
      "má»Ł": 6994,
      "vnÄĳ": 6995,
      "ĠvÃ¹i": 6996,
      "amily": 6997,
      "Ġscot": 6998,
      "Ġliáº¿c": 6999,
      "ĠngÃ¡ch": 7000,
      "Ġsports": 7001,
      "ĠmáºŃn": 7002,
      "ping": 7003,
      "Ġrest": 7004,
      "Ġhow": 7005,
      "bt": 7006,
      "zi": 7007,
      "vas": 7008,
      "Ġnight": 7009,
      "Ġphp": 7010,
      "Ġvlad": 7011,
      "Ġmiáº¿n": 7012,
      "Ġinc": 7013,
      "vp": 7014,
      "fac": 7015,
      "Ġsputnik": 7016,
      "Ġgá»ıi": 7017,
      "phÃ¢n": 7018,
      "Ġcapt": 7019,
      "Ġpep": 7020,
      "lÃªn": 7021,
      "Ġdrive": 7022,
      "Ġalt": 7023,
      "ĠâĨĲ": 7024,
      "Ġtoeic": 7025,
      "Ġelectro": 7026,
      "Ġpacific": 7027,
      "cong": 7028,
      "Ġbamb": 7029,
      "uri": 7030,
      "Ġsolsk": 7031,
      "Ġbbq": 7032,
      "virus": 7033,
      "vÃłng": 7034,
      "Ġchile": 7035,
      "Ġcomplex": 7036,
      "Ġrad": 7037,
      "Ġqr": 7038,
      "Ġmir": 7039,
      "nhanh": 7040,
      "Ġ....": 7041,
      "Ġmessenger": 7042,
      "ĠtÃ¬": 7043,
      "Ġroad": 7044,
      "Äĳá»«ng": 7045,
      "Ġscreen": 7046,
      "Ġdevel": 7047,
      "Ġadidas": 7048,
      "Ġhuá»·": 7049,
      "craft": 7050,
      "Ġthiet": 7051,
      "ume": 7052,
      "Ġdisney": 7053,
      "ká»³": 7054,
      "aux": 7055,
      "Ġclean": 7056,
      "Ġguardiola": 7057,
      "Ġsá»§ng": 7058,
      "Ġpeter": 7059,
      "Ġss": 7060,
      "Ġengine": 7061,
      "Ġsab": 7062,
      "Ġlevel": 7063,
      "hua": 7064,
      "á»ģ": 7065,
      "media": 7066,
      "pho": 7067,
      "Ġanton": 7068,
      "Ġttt": 7069,
      "ĠvÃªnh": 7070,
      "ethao": 7071,
      "stan": 7072,
      "ĠmÃ©o": 7073,
      "Ġpom": 7074,
      "ights": 7075,
      "ĠphÃ¡ch": 7076,
      "lott": 7077,
      "iday": 7078,
      "Ġsevilla": 7079,
      "Ġrs": 7080,
      "Ġkpop": 7081,
      "gá»įi": 7082,
      "loáº¡i": 7083,
      "Ġmol": 7084,
      "nel": 7085,
      "há»į": 7086,
      "Ġslim": 7087,
      "Ġnsnd": 7088,
      "Äĳa": 7089,
      "hÆ¡n": 7090,
      "há»Ĺ": 7091,
      "Ġhead": 7092,
      "ernand": 7093,
      "//": 7094,
      "ĠnsÆ°t": 7095,
      "acy": 7096,
      "Ġsoda": 7097,
      "Ġcroatia": 7098,
      "Ġwell": 7099,
      "Ġwoo": 7100,
      "cÃ¢u": 7101,
      "Ġchau": 7102,
      "Ġcool": 7103,
      "Ġcristiano": 7104,
      "Ġpanel": 7105,
      "Ġsign": 7106,
      "inc": 7107,
      "iro": 7108,
      "Ġexciter": 7109,
      "Ġay": 7110,
      "Ġnáº·n": 7111,
      "Ġferr": 7112,
      "arth": 7113,
      "post": 7114,
      "Ġ/>": 7115,
      "ĠtrÃ¡m": 7116,
      "tainment": 7117,
      "una": 7118,
      "wich": 7119,
      "ns": 7120,
      "dung": 7121,
      "thay": 7122,
      "Ġnatri": 7123,
      "Ġhtml": 7124,
      "vt": 7125,
      "iki": 7126,
      "ĠnhÃło": 7127,
      "Ġway": 7128,
      "Ġwel": 7129,
      "Ġswitch": 7130,
      "ĠnáºŃp": 7131,
      ")âĢ¦": 7132,
      "Ġháº¯t": 7133,
      "âĦ¢": 7134,
      "Ġdaikin": 7135,
      "Ġmanager": 7136,
      "Ġthoi": 7137,
      "Äĳá»įc": 7138,
      "sáº½": 7139,
      "Ġchá»ķi": 7140,
      "Ġngao": 7141,
      "Ġtáº±m": 7142,
      "Ġklo": 7143,
      "Ġboss": 7144,
      "Ġsolskjaer": 7145,
      "Ġjohnson": 7146,
      "Ġfarm": 7147,
      "Ġdiá»ģu": 7148,
      "ental": 7149,
      "Ġvinamilk": 7150,
      "Ġá»ķi": 7151,
      "phÆ°Æ¡ng": 7152,
      "Ġrá»ĳn": 7153,
      "Ġgiá»ģng": 7154,
      "bb": 7155,
      "ĠhÆ°Æ¡u": 7156,
      "ordred": 7157,
      "Ġpallet": 7158,
      "vat": 7159,
      "Ġáº¥t": 7160,
      "Ġsul": 7161,
      "thÃŃch": 7162,
      "cher": 7163,
      "office": 7164,
      "linh": 7165,
      "Ġpg": 7166,
      "ĠngÃ³": 7167,
      "Ġngá»«": 7168,
      "Ġmodule": 7169,
      "sÃ¡ng": 7170,
      "kk": 7171,
      "Ġnilon": 7172,
      "Ġkat": 7173,
      "mah": 7174,
      "nc": 7175,
      "Ġoi": 7176,
      "phu": 7177,
      "Äĳá»ĵ": 7178,
      "ffe": 7179,
      "eller": 7180,
      "name": 7181,
      "Ġqueen": 7182,
      "ĠhÃ¹m": 7183,
      "vá»ĭ": 7184,
      "Ġmáº©u": 7185,
      "tract": 7186,
      "Ġxá»īn": 7187,
      "][": 7188,
      "Ġsacom": 7189,
      "å¹": 7190,
      "wi": 7191,
      "Ġosaka": 7192,
      "Ġvios": 7193,
      "Ġprevious": 7194,
      "xs": 7195,
      "nha": 7196,
      "Ġaud": 7197,
      "Ġláº«m": 7198,
      "Ġselfie": 7199,
      "Ġtuong": 7200,
      "Ġentertainment": 7201,
      "ĠÄĳiáº¿u": 7202,
      "thá»ĥ": 7203,
      "Ġhacker": 7204,
      "Ġny": 7205,
      "elli": 7206,
      "ĠkhÃ©t": 7207,
      "Ġcolombia": 7208,
      "ĠâĻ¦": 7209,
      "?.": 7210,
      "Ġict": 7211,
      "Ġdal": 7212,
      "ĠchÃ¡t": 7213,
      "ĠrÆ°á»¡i": 7214,
      "ĠquÃ¢y": 7215,
      "kl": 7216,
      "bh": 7217,
      "Ġvalencia": 7218,
      "Ġcort": 7219,
      "Ġgene": 7220,
      "ĠchÃ²m": 7221,
      "ten": 7222,
      "ghz": 7223,
      "âĢ³": 7224,
      "ĠkÃ©n": 7225,
      "ĠmÃªnh": 7226,
      "ĠtrÃ²ng": 7227,
      "mai": 7228,
      "Ġfast": 7229,
      "\")": 7230,
      "uzu": 7231,
      "ĠxÃ²e": 7232,
      "pgvn": 7233,
      "cáº£": 7234,
      "ĠáºŃp": 7235,
      "ĠcÃłn": 7236,
      "ĠthÃ¢u": 7237,
      "Ġkyo": 7238,
      "quá»": 7239,
      "ĠhÆ¡": 7240,
      "imex": 7241,
      "âĢ¦..": 7242,
      "Ġbá»«a": 7243,
      "Ġadv": 7244,
      "ĠvÆ¡i": 7245,
      "cá»Ńa": 7246,
      "Ġtele": 7247,
      "táº£i": 7248,
      "Ġjae": 7249,
      "Ġvck": 7250,
      "Ġgtgt": 7251,
      "Ġpaste": 7252,
      "Ġtiá»ĩt": 7253,
      "bn": 7254,
      "Ġcháº¯t": 7255,
      "uck": 7256,
      "Ġfound": 7257,
      "Ġtáº©u": 7258,
      "Ġcru": 7259,
      "çĽ": 7260,
      "ĠsÃ¹ng": 7261,
      "Ġbtv": 7262,
      "ĠtÃ©": 7263,
      "Ġsetup": 7264,
      "Ġbáº£": 7265,
      "bÃŃ": 7266,
      "Ġtrá»ĩ": 7267,
      "tÃ¹y": 7268,
      "park": 7269,
      "comm": 7270,
      "izer": 7271,
      "Ġisland": 7272,
      "Ġtruyen": 7273,
      "Ġhair": 7274,
      "Ġnad": 7275,
      "Ġnit": 7276,
      "Ġrose": 7277,
      "par": 7278,
      "'t": 7279,
      "ĠtoÃ¡i": 7280,
      "Ġmarc": 7281,
      "Ġhh": 7282,
      "æĹ": 7283,
      "Ġtrading": 7284,
      "Ġsocial": 7285,
      "Ġperf": 7286,
      "Ġbamboo": 7287,
      "má»Ľi": 7288,
      "Ġpleiku": 7289,
      "nÃ³": 7290,
      "Ġlem": 7291,
      "Ġsá»¥c": 7292,
      "Ġbiz": 7293,
      "Ġsáº·c": 7294,
      "ĠphÃło": 7295,
      "Ġamerica": 7296,
      "ĠÄĳÃºp": 7297,
      "Ġtablet": 7298,
      "hÃ´m": 7299,
      "Ġgiá»Ĺ": 7300,
      "Ġpoint": 7301,
      "Ġinvest": 7302,
      "Ġlhq": 7303,
      "áº³m": 7304,
      "Ġthá»Ľt": 7305,
      "Ġgeorge": 7306,
      "Ġafc": 7307,
      "Ġsurface": 7308,
      "Ġtáº¡t": 7309,
      "dia": 7310,
      "Ġcáº¡p": 7311,
      "ampton": 7312,
      "ters": 7313,
      "Ġthank": 7314,
      "ĠtÃ²i": 7315,
      "Ġtrá»ĵ": 7316,
      "ĠÄĳay": 7317,
      "Ġdate": 7318,
      "Ġspf": 7319,
      "Ġá´ł": 7320,
      "Ġran": 7321,
      "\"âĢ¦": 7322,
      "hong": 7323,
      "imir": 7324,
      "Ġcatalog": 7325,
      "pos": 7326,
      "Ġfi": 7327,
      "Ġoscar": 7328,
      "Ġeva": 7329,
      "ater": 7330,
      "ÌĽ": 7331,
      "Ġalo": 7332,
      "dom": 7333,
      "Ġmakeup": 7334,
      "dÃ¹": 7335,
      "Ġoffic": 7336,
      "Ġann": 7337,
      "vtc": 7338,
      "bscl": 7339,
      "ural": 7340,
      "Ġxvi": 7341,
      "cle": 7342,
      "Ġtopic": 7343,
      "Ġtuyen": 7344,
      "tit": 7345,
      "ĠkhÃ³e": 7346,
      "Ġsumm": 7347,
      "Äĳá»©c": 7348,
      "ĠnhÃ©t": 7349,
      "Ġhallo": 7350,
      "Ġwan": 7351,
      "Ġbc": 7352,
      "ville": 7353,
      "Ġbst": 7354,
      "xá»ķ": 7355,
      "Ġandre": 7356,
      "Ġchá»¯ng": 7357,
      "ibo": 7358,
      "chung": 7359,
      "Ġngháº¹n": 7360,
      "food": 7361,
      "ĠnghÄ©nh": 7362,
      "eno": 7363,
      "Ġkhá»ıa": 7364,
      "Ġactive": 7365,
      "ece": 7366,
      "Ġnow": 7367,
      "ĠkhoÃ¡t": 7368,
      "Ġxy": 7369,
      "ĠbÆ°á»Ľu": 7370,
      "bÃ³ng": 7371,
      "Ġil": 7372,
      "Ġvksnd": 7373,
      "Ġvel": 7374,
      "Ġhil": 7375,
      "Ġisuzu": 7376,
      "Ġhari": 7377,
      "Ġeduc": 7378,
      "Ġesports": 7379,
      "ĠtÃło": 7380,
      "Ġváº«y": 7381,
      "Ġhá»ħ": 7382,
      "Ġamply": 7383,
      "Ġdl": 7384,
      "Ġlast": 7385,
      "bach": 7386,
      "Ġ(+": 7387,
      "Ġves": 7388,
      "Ġzom": 7389,
      "toÃłn": 7390,
      "Ġft": 7391,
      "ira": 7392,
      "Ġlar": 7393,
      "ĠÄĳá»Ŀm": 7394,
      "class": 7395,
      "Ġmanga": 7396,
      "Ġvá»ın": 7397,
      "cop": 7398,
      "Ġacademy": 7399,
      "ĠtkhÃ´": 7400,
      "Ġcnn": 7401,
      "Ġchocol": 7402,
      "ict": 7403,
      "Ġpowerpoint": 7404,
      "Ġnháº§y": 7405,
      "Ġdim": 7406,
      "Ġphay": 7407,
      "yu": 7408,
      "rop": 7409,
      "Ġvillage": 7410,
      "Ġbent": 7411,
      "ĠÃ°á»©c": 7412,
      "Ġbaotintuc": 7413,
      "Ġrio": 7414,
      "Ġyoo": 7415,
      "Ġláº¡y": 7416,
      "báº¯c": 7417,
      "Ġghpgvn": 7418,
      "Ġads": 7419,
      "ĠthuyÃªn": 7420,
      "ĠxÃ¡o": 7421,
      "iber": 7422,
      "...)": 7423,
      "Ġ}": 7424,
      "Ġuser": 7425,
      "group": 7426,
      "Ġtail": 7427,
      "Ġtrá»ı": 7428,
      "Ġwales": 7429,
      "giá»Ľi": 7430,
      "Ġgro": 7431,
      "Ġquáº§ng": 7432,
      "ets": 7433,
      "ĠnhÃ¡": 7434,
      "Ġtren": 7435,
      "Ġgiuse": 7436,
      "Ġmoto": 7437,
      "Ġentry": 7438,
      "Ġcang": 7439,
      "Ġsouthampton": 7440,
      "Ġspr": 7441,
      "Ġtheme": 7442,
      "Ġhungary": 7443,
      "Ġsee": 7444,
      "Ġcrush": 7445,
      "Ġntm": 7446,
      "eds": 7447,
      "Ġteo": 7448,
      "Ġngoáº·t": 7449,
      "cáºŃp": 7450,
      "Ġdich": 7451,
      "uma": 7452,
      "Ġaccess": 7453,
      "ĠkÄĳt": 7454,
      "Ġvincity": 7455,
      "Ġharv": 7456,
      "tÃ¢y": 7457,
      "Ġtesla": 7458,
      "chat": 7459,
      "Ġbul": 7460,
      "ÄĳÃºng": 7461,
      "Ġthy": 7462,
      "Ġelectrolux": 7463,
      "nguyen": 7464,
      "ef": 7465,
      "ichi": 7466,
      "Ġmont": 7467,
      "ĠâĹı": 7468,
      "Ġplayer": 7469,
      "Ġngáº£i": 7470,
      "Ġhá»ķi": 7471,
      "Ġmn": 7472,
      "ĠcÃ¢": 7473,
      "Ġsales": 7474,
      "Ġdin": 7475,
      "ih": 7476,
      "rah": 7477,
      "Ġdesk": 7478,
      "Ġaqu": 7479,
      "kham": 7480,
      "Ġkids": 7481,
      "ĠvÃ©t": 7482,
      "ĠmÆ°á»Ľp": 7483,
      "club": 7484,
      "Ġluyáº¿n": 7485,
      "Ġstatus": 7486,
      "Ñģ": 7487,
      "Ġáº¡t": 7488,
      "Ġlac": 7489,
      "Ġseason": 7490,
      "Ġsocola": 7491,
      "hoc": 7492,
      "down": 7493,
      "Ġniger": 7494,
      "Ġxk": 7495,
      "ħu": 7496,
      "Ġhalloween": 7497,
      "Ġclassic": 7498,
      "Ġindex": 7499,
      "Ġboe": 7500,
      "Ġngáº©n": 7501,
      "Ġcá»ĳp": 7502,
      "chan": 7503,
      "Ġawards": 7504,
      "Ġtrá»įt": 7505,
      "Ġnham": 7506,
      "ilet": 7507,
      "Ġbuá»": 7508,
      "vÃ²ng": 7509,
      "Ġ[...]": 7510,
      "Ġpack": 7511,
      "Ġsalad": 7512,
      "Ġunesco": 7513,
      "ķng": 7514,
      "Ġlinux": 7515,
      "Ġoxi": 7516,
      "Ġscr": 7517,
      "bes": 7518,
      "Ġnhá»įt": 7519,
      "Ġbreak": 7520,
      "Ġband": 7521,
      "ĠtrÃºt": 7522,
      "Ġtea": 7523,
      "Ġsor": 7524,
      "Ġsá»ĩt": 7525,
      "tÃ¢m": 7526,
      "Ġtoday": 7527,
      "Ġxingfa": 7528,
      "bourne": 7529,
      "Ġchocolate": 7530,
      "Ġzid": 7531,
      "ĠdoÃ£n": 7532,
      "Ġspeed": 7533,
      "Ġqh": 7534,
      "mu": 7535,
      "Ġnag": 7536,
      "Ġfax": 7537,
      "bat": 7538,
      "cen": 7539,
      "Ġtaylor": 7540,
      "Ġsupport": 7541,
      "Ġvoice": 7542,
      "card": 7543,
      "Ġchic": 7544,
      "pay": 7545,
      "khÃ³a": 7546,
      "yes": 7547,
      "Ġcredit": 7548,
      "ĠtáºŃu": 7549,
      "arn": 7550,
      "mas": 7551,
      "ĠnhÃ´": 7552,
      "Ġmask": 7553,
      "ming": 7554,
      "ĠráºŃm": 7555,
      "girl": 7556,
      "bd": 7557,
      "Ġvladimir": 7558,
      "ÄĳÃªm": 7559,
      "Ġbanking": 7560,
      "Ġatgt": 7561,
      "Ġimage": 7562,
      "nÃªn": 7563,
      "Ġsharp": 7564,
      "Ġestrogen": 7565,
      "ï¼Ī": 7566,
      "ÑĤ": 7567,
      "time": 7568,
      "Ġruby": 7569,
      "????": 7570,
      "orning": 7571,
      "Ġemp": 7572,
      "emen": 7573,
      "Ġsku": 7574,
      "amo": 7575,
      "Ġhandmade": 7576,
      "ĠðŁĴ": 7577,
      "Ġfilm": 7578,
      "astic": 7579,
      "ustin": 7580,
      "ible": 7581,
      "á»ĭ": 7582,
      "Ġfeb": 7583,
      "Ġepoxy": 7584,
      "Ġloc": 7585,
      "Ġmui": 7586,
      "pers": 7587,
      "Ġhoáº£": 7588,
      "Ġklopp": 7589,
      "Ġavatar": 7590,
      "ĠcÄĥm": 7591,
      "Ġcase": 7592,
      "ĠtrÆ¡": 7593,
      "kiáº¿n": 7594,
      "Ġmeta": 7595,
      "ĠthÃ¡n": 7596,
      "Ġluk": 7597,
      "Ġmonaco": 7598,
      "bre": 7599,
      "Ġconnect": 7600,
      "ening": 7601,
      "Ġoáº£i": 7602,
      "Ġsá»Ļ": 7603,
      "Ġrep": 7604,
      "vÃ¹ng": 7605,
      "dv": 7606,
      "Äĳh": 7607,
      "máº·c": 7608,
      "Ġntk": 7609,
      "ĠtÃŃt": 7610,
      "ĠÄĳáº£n": 7611,
      "sá»©c": 7612,
      "ative": 7613,
      "âĺ": 7614,
      "ĠngáºŃy": 7615,
      "chá»©ng": 7616,
      "Ġthink": 7617,
      "Ġvegas": 7618,
      "Ġsetting": 7619,
      "Ġthoai": 7620,
      "Ġsource": 7621,
      "áº©ng": 7622,
      "Ġsacombank": 7623,
      "Ġduá»ĩ": 7624,
      "Ġwood": 7625,
      "Ġtoáº¡": 7626,
      "Ġcach": 7627,
      "anin": 7628,
      "iana": 7629,
      "Ġacb": 7630,
      "Ġhk": 7631,
      "Ġbá»Ńu": 7632,
      "nor": 7633,
      "ert": 7634,
      "Ġlhpn": 7635,
      "ĠbÃłu": 7636,
      "ĠlÆ°Æ¡n": 7637,
      "tay": 7638,
      "Ġgon": 7639,
      "bÃłn": 7640,
      "Ġpau": 7641,
      "Ġmik": 7642,
      "asia": 7643,
      "Ġgall": 7644,
      "Ġtháº³m": 7645,
      "liu": 7646,
      "diá»ħn": 7647,
      "Ġorig": 7648,
      "Ġarabia": 7649,
      "Ġnáº¯n": 7650,
      "Ġngáº¡n": 7651,
      "ká»¹": 7652,
      "ios": 7653,
      "Ġjim": 7654,
      "ilia": 7655,
      "ĠngÃ³ng": 7656,
      "Ġpokemon": 7657,
      "less": 7658,
      "----------------": 7659,
      "Ġfoo": 7660,
      "Ġsinc": 7661,
      "Ġhard": 7662,
      "wr": 7663,
      "Ġnhac": 7664,
      "Ġxv": 7665,
      "phat": 7666,
      "Ġstandard": 7667,
      "ĠbÃ¹a": 7668,
      "Ġstory": 7669,
      "nlÄĳ": 7670,
      "Ġsinch": 7671,
      "Ġtruong": 7672,
      ",,": 7673,
      "Ġunc": 7674,
      "iller": 7675,
      "Ġacry": 7676,
      "Ġvon": 7677,
      "thÃ¬": 7678,
      "Ġtiá»ĩp": 7679,
      "Ġsáº«m": 7680,
      "\"...": 7681,
      "jan": 7682,
      "Ġcompany": 7683,
      "stein": 7684,
      "ĠnÃ²ng": 7685,
      "fu": 7686,
      "ved": 7687,
      "Ġsushi": 7688,
      "ism": 7689,
      "Ġstor": 7690,
      "ĠgÆ°Æ¡m": 7691,
      "zyme": 7692,
      "fox": 7693,
      "Ġ),": 7694,
      "¥y": 7695,
      "\"-": 7696,
      "Ġanth": 7697,
      "Ġmxh": 7698,
      "Ġful": 7699,
      "arez": 7700,
      "Ġclinton": 7701,
      "Ġfollow": 7702,
      "ground": 7703,
      "Ġcod": 7704,
      "Ġmike": 7705,
      "very": 7706,
      "Ġmagic": 7707,
      "ating": 7708,
      "chiáº¿c": 7709,
      "Ġbull": 7710,
      "Ġkháº¥n": 7711,
      "Ġanti": 7712,
      "Ġexpl": 7713,
      "Ġfuj": 7714,
      "vietnamplus": 7715,
      "ĠrÃ¢m": 7716,
      "Ġsecret": 7717,
      "ĠlÃºng": 7718,
      "vu": 7719,
      "Ġbloomberg": 7720,
      "ula": 7721,
      "Ġipo": 7722,
      "ĠnhÃ¢": 7723,
      "elly": 7724,
      "Ġhoay": 7725,
      "boy": 7726,
      "ual": 7727,
      "Ġfans": 7728,
      "Ġhá»·": 7729,
      "Ġlake": 7730,
      "Ġ-->": 7731,
      "Ġmorning": 7732,
      "Ġuber": 7733,
      "Ġaccount": 7734,
      "Ġláº§y": 7735,
      "ittle": 7736,
      "Ġcá»§i": 7737,
      "Ġmine": 7738,
      "ille": 7739,
      "Ġcross": 7740,
      "Ġnas": 7741,
      "Ġmá»ħ": 7742,
      "Ġboot": 7743,
      "Ġroom": 7744,
      "Ġduá»Ĺi": 7745,
      "ĠÄĳá»į": 7746,
      "Ð¿": 7747,
      "xic": 7748,
      "ett": 7749,
      "Ġlá»ĳt": 7750,
      "Ġmember": 7751,
      "Ġtron": 7752,
      "Ġbob": 7753,
      "ĠÄĳbscl": 7754,
      "tar": 7755,
      "Ġdoan": 7756,
      "ĠkÃ¬nh": 7757,
      "Ġnovaland": 7758,
      "Ġgá»Ļp": 7759,
      "ĠðŁĺ": 7760,
      "eman": 7761,
      "fix": 7762,
      "bang": 7763,
      "bá»ĭ": 7764,
      "cons": 7765,
      "phÃº": 7766,
      "aser": 7767,
      "Ġgraph": 7768,
      "tos": 7769,
      "báº±ng": 7770,
      "Ġtrain": 7771,
      "ĠdiÃªm": 7772,
      "arning": 7773,
      "bá»ı": 7774,
      "Ġvietlott": 7775,
      "Ġnáº¥c": 7776,
      "Ġasp": 7777,
      "Ġzidane": 7778,
      "ĠdÃ´ng": 7779,
      "Ġwom": 7780,
      "hotline": 7781,
      "tiÃªu": 7782,
      "Ġhose": 7783,
      "Ġpublish": 7784,
      "Ġmarch": 7785,
      "Ġfutsal": 7786,
      "Ġmáº¡t": 7787,
      "Ġxl": 7788,
      "aur": 7789,
      "ites": 7790,
      "Ġtrá»Ĺi": 7791,
      "ĠdÃ£i": 7792,
      "gá»ĵm": 7793,
      "Ġjust": 7794,
      "ents": 7795,
      "cv": 7796,
      "Ġmelbourne": 7797,
      "Ġeff": 7798,
      "Ġmoney": 7799,
      "Ġeur": 7800,
      "Ġbuá»ĵm": 7801,
      "ĠchÃłi": 7802,
      "Ġxh": 7803,
      "Ġvga": 7804,
      "Ġbinance": 7805,
      "Ġmeth": 7806,
      "tan": 7807,
      "Ġgab": 7808,
      "Ġeducation": 7809,
      "Ġpad": 7810,
      "Ġnova": 7811,
      "Ġarena": 7812,
      "Ġngáº©ng": 7813,
      "ĠlÃ¹n": 7814,
      "ategory": 7815,
      "hou": 7816,
      "Ġsteve": 7817,
      "ĠmÃ¬n": 7818,
      "ilo": 7819,
      "ĠhÃ¨n": 7820,
      "Ġtá»ĳp": 7821,
      "Ã¼": 7822,
      "Ġamidan": 7823,
      "ÑĢ": 7824,
      "lÆ°á»£t": 7825,
      "ĠlÃºn": 7826,
      "Ġcá»ĳm": 7827,
      "Ġnovember": 7828,
      "ĠnÃŃu": 7829,
      "Ġstan": 7830,
      "Ġicloud": 7831,
      "micro": 7832,
      "eg": 7833,
      "Ġloay": 7834,
      "Ġdiego": 7835,
      "Ġaugust": 7836,
      "Ġrichard": 7837,
      "Ġpres": 7838,
      "truyen": 7839,
      "Ġ---": 7840,
      "yn": 7841,
      "Ġxiv": 7842,
      "tÃ¡c": 7843,
      "Ġvun": 7844,
      "ĠcÆ°á»¡i": 7845,
      "Ġxuyáº¿n": 7846,
      "Ġfix": 7847,
      "onet": 7848,
      "ĠvÃ²": 7849,
      "Ġnáº¹p": 7850,
      "Ġhuong": 7851,
      "ĠniÃª": 7852,
      "Ġgout": 7853,
      "xuáº¥t": 7854,
      "fone": 7855,
      "Ġbenz": 7856,
      "Ġadam": 7857,
      "Ġvá»¥ng": 7858,
      "Ġngá»£p": 7859,
      "å¹´": 7860,
      "mang": 7861,
      "?\",": 7862,
      "ĠÃ¡t": 7863,
      "Ġhub": 7864,
      "ĠbÃ¨n": 7865,
      "Ġsakura": 7866,
      "Ġremote": 7867,
      "ardo": 7868,
      "Ġxáº©y": 7869,
      "ĠâĢĿ": 7870,
      "Ġjbl": 7871,
      "ister": 7872,
      "Ġvic": 7873,
      "Ġhee": 7874,
      "Ġangela": 7875,
      "Ġtá»ħ": 7876,
      "Ġcosta": 7877,
      "ĠhÃłu": 7878,
      "Ġnigeria": 7879,
      "eople": 7880,
      "Ġjones": 7881,
      "Ġtuá»Ļt": 7882,
      "trá»«": 7883,
      "Ġfernand": 7884,
      "nhan": 7885,
      "ĠdÃ£n": 7886,
      "ipp": 7887,
      "Ġhaz": 7888,
      "Ġstreamer": 7889,
      "met": 7890,
      "ĠsÃ¡n": 7891,
      "ustr": 7892,
      "!!!!": 7893,
      "Ġkay": 7894,
      "Ġlotte": 7895,
      "Ġpassword": 7896,
      "hÃłn": 7897,
      "chÆ¡i": 7898,
      "Ġmarvel": 7899,
      "Ġinsulin": 7900,
      "Ġnhá»¯": 7901,
      "ĠtrÃ³i": 7902,
      "vl": 7903,
      ".....": 7904,
      "doc": 7905,
      "Ġtiger": 7906,
      "Ġdiá»ħu": 7907,
      "vÅ©": 7908,
      "Ġbá»±": 7909,
      "ucci": 7910,
      "Ġhoáº±ng": 7911,
      "Äĳá»Ļc": 7912,
      "Ġprofile": 7913,
      "Ġjune": 7914,
      "Ġsecurity": 7915,
      "Ġprime": 7916,
      "tober": 7917,
      "Ġgá»Ŀ": 7918,
      "Ġtráº»o": 7919,
      "cá»©": 7920,
      "ĠdÄĥm": 7921,
      "ĠtÃ¡nh": 7922,
      "illa": 7923,
      "dÃ¹ng": 7924,
      "bac": 7925,
      "adat": 7926,
      "chá»ĳng": 7927,
      "Ġ\".": 7928,
      "phy": 7929,
      "ĠcÃ¡u": 7930,
      "med": 7931,
      "vv": 7932,
      "Ġbá»Ļn": 7933,
      "Ġnak": 7934,
      "Ġmade": 7935,
      "khoa": 7936,
      "Ġabc": 7937,
      "ĠdÄ©a": 7938,
      "ĠchoÃłng": 7939,
      "nÆ¡i": 7940,
      "htn": 7941,
      "Ġleon": 7942,
      "Ġwang": 7943,
      "Ġod": 7944,
      "ĠnlÄĳ": 7945,
      "Ġtrue": 7946,
      "eless": 7947,
      "Ġmá»ģ": 7948,
      "Ġnghien": 7949,
      "Ġtoilet": 7950,
      "ential": 7951,
      "Ġmá»ĵng": 7952,
      "lÃª": 7953,
      "sá»Ł": 7954,
      "ibook": 7955,
      "Ġhous": 7956,
      "Ġnorth": 7957,
      "æĹ¥": 7958,
      "Ġnáº¡t": 7959,
      "mÃł": 7960,
      "bot": 7961,
      "quest": 7962,
      "Ġmusk": 7963,
      "Ġhoáº¯c": 7964,
      "Ġcollege": 7965,
      "dium": 7966,
      "Ġautocad": 7967,
      "uble": 7968,
      "vá»£": 7969,
      "káº»": 7970,
      "ĠtrÆ°á»Ľng": 7971,
      "Ġligue": 7972,
      "Ġpers": 7973,
      "Ġscotland": 7974,
      "Ġvision": 7975,
      "orsche": 7976,
      "Ġgiu": 7977,
      "Ġcons": 7978,
      "chuyá»ĥn": 7979,
      "Ġspot": 7980,
      "Ġká»ģnh": 7981,
      "Ġamd": 7982,
      "ĠphÃł": 7983,
      "Ġflorida": 7984,
      "ĠÄĳÆ°á»£": 7985,
      "Ġgiá»¥c": 7986,
      "tá»ĳi": 7987,
      "Ġcust": 7988,
      "Ġbacklink": 7989,
      "ude": 7990,
      "lad": 7991,
      "Ġfar": 7992,
      "ngÆ°Æ¡i": 7993,
      "door": 7994,
      "ká»ĥ": 7995,
      "Ġxsmn": 7996,
      "Ġwap": 7997,
      "ĠhÆ°á»Ŀng": 7998,
      "Ġhá»Ľi": 7999,
      "ĠÄĳbqh": 8000,
      "ĠdÆ¡i": 8001,
      "Ġconver": 8002,
      "Ġswift": 8003,
      "Ġcamry": 8004,
      "Ġwhat": 8005,
      "pot": 8006,
      "Ġapril": 8007,
      "ĠÄĳiá»ĥu": 8008,
      "Ġgm": 8009,
      "cont": 8010,
      "appe": 8011,
      "Ġcorp": 8012,
      "Ġsiro": 8013,
      "vua": 8014,
      "Ġvá»«ng": 8015,
      "mÃ¹a": 8016,
      "Ġchong": 8017,
      "Ġnumber": 8018,
      "Ġá»ī": 8019,
      "Ġvá»ĩt": 8020,
      "Ġbáº§m": 8021,
      "Ġrover": 8022,
      "rom": 8023,
      "Ġmá»Ĺ": 8024,
      "ĠÎ": 8025,
      "Ġprice": 8026,
      "Ġdark": 8027,
      "asaki": 8028,
      "ĠtiÃª": 8029,
      "Ġcoco": 8030,
      "ngÃ´i": 8031,
      "Ġjetstar": 8032,
      "Ġxoan": 8033,
      "abet": 8034,
      "sing": 8035,
      "Ġnáº¡c": 8036,
      "Ġlumia": 8037,
      "igan": 8038,
      "Ġoled": 8039,
      "Ġlyon": 8040,
      "ĠÄĳÃ¢": 8041,
      "Ġxxx": 8042,
      "Ġperu": 8043,
      "Ġdha": 8044,
      "ald": 8045,
      "ular": 8046,
      "Ġciv": 8047,
      "Ġváº¡t": 8048,
      "gor": 8049,
      "Ġversion": 8050,
      "Ġporsche": 8051,
      "bÃ¡nh": 8052,
      "Ġnxb": 8053,
      "watch": 8054,
      "cky": 8055,
      "Ġtips": 8056,
      "Ġderby": 8057,
      "Ġkorea": 8058,
      "Ġbanner": 8059,
      "Ġdá»Ļt": 8060,
      "ĠlÃ³": 8061,
      "Ġnong": 8062,
      "ĠchÆ°á»Ľc": 8063,
      "raw": 8064,
      "Ġtoner": 8065,
      "Ġmarina": 8066,
      "Ġxr": 8067,
      "oper": 8068,
      "tek": 8069,
      "Ġlow": 8070,
      "Ġqualcomm": 8071,
      "Ġkir": 8072,
      "Ġmá»ĭch": 8073,
      "Ġmh": 8074,
      "Ġ^^": 8075,
      "diá»ĩn": 8076,
      "tuá»ķi": 8077,
      "Ġmobi": 8078,
      "Ġmáº£i": 8079,
      "Ġjuly": 8080,
      "Ġsem": 8081,
      "Ġchá»ķ": 8082,
      "Ġslna": 8083,
      "Ġdesktop": 8084,
      "Ġnetizen": 8085,
      "Ġcsvn": 8086,
      "Ġwid": 8087,
      "blog": 8088,
      "Ġváº¡c": 8089,
      "iva": 8090,
      "Ġfake": 8091,
      "chá»įn": 8092,
      "pace": 8093,
      "chÃ¢n": 8094,
      "lá»Ŀi": 8095,
      "Ġnude": 8096,
      "Ġdisplay": 8097,
      "Ġvinac": 8098,
      "Ġpeople": 8099,
      "iston": 8100,
      "ĠhÃ£nh": 8101,
      "lb": 8102,
      "lanh": 8103,
      "Ġnd": 8104,
      "Ġtháº£y": 8105,
      "uda": 8106,
      "vui": 8107,
      "Ġáº¿": 8108,
      "show": 8109,
      "Ġchampion": 8110,
      "Ġproduct": 8111,
      "phire": 8112,
      "Ġboeing": 8113,
      "hoÃłn": 8114,
      "è¿": 8115,
      "Ġcham": 8116,
      "eda": 8117,
      "zig": 8118,
      "ĠrÄĥn": 8119,
      "ault": 8120,
      "ifer": 8121,
      "Ġsua": 8122,
      "ĠgÃºt": 8123,
      "Ġther": 8124,
      "its": 8125,
      "Ġkd": 8126,
      "put": 8127,
      "Ġole": 8128,
      "Ġturbo": 8129,
      "Ġghá»ģ": 8130,
      "Ġinfin": 8131,
      "athan": 8132,
      "jin": 8133,
      "ylon": 8134,
      "Ġill": 8135,
      "],": 8136,
      "Ġez": 8137,
      "Ġmuá»ĳng": 8138,
      "quÃ¡": 8139,
      "Ġkom": 8140,
      "Ġkas": 8141,
      "âĢ¢": 8142,
      "Ġtong": 8143,
      "Äĳang": 8144,
      "ĠÃºng": 8145,
      "ious": 8146,
      "Ġdeal": 8147,
      "Ġacer": 8148,
      "ĠâŃĲ": 8149,
      "ĠkhÃ¢m": 8150,
      "bro": 8151,
      "ĠtrÃ¨o": 8152,
      "giÃºp": 8153,
      "ĠÄĳÃ³a": 8154,
      "Ġfortuner": 8155,
      "flix": 8156,
      "Ġphá»Ļng": 8157,
      "Ġreport": 8158,
      "Ġash": 8159,
      "times": 8160,
      "Ġquality": 8161,
      "cor": 8162,
      "Ġsept": 8163,
      "Ġbale": 8164,
      "Ġnháº±n": 8165,
      "ĠnÄĥn": 8166,
      "elle": 8167,
      "háº¡": 8168,
      "Ġsne": 8169,
      "Ġnou": 8170,
      "Ġnguyá»ģn": 8171,
      "Ġexp": 8172,
      "Ġcatalogue": 8173,
      "ĠÃ³ng": 8174,
      "cung": 8175,
      "Ġjustin": 8176,
      "Ġamerican": 8177,
      "qs": 8178,
      "ĠcÄĳt": 8179,
      "fta": 8180,
      "ĠgÃło": 8181,
      "html": 8182,
      "bridge": 8183,
      "Ġtailieu": 8184,
      "Ġacrylic": 8185,
      "facebook": 8186,
      "ills": 8187,
      "vnd": 8188,
      "chez": 8189,
      "Ġghz": 8190,
      "ĠrÃ´m": 8191,
      "Ġcustom": 8192,
      "ĠquÄĥng": 8193,
      "apixel": 8194,
      "Ġtikibook": 8195,
      "nhÃ¬n": 8196,
      "ĠsiÃªng": 8197,
      "Ġdead": 8198,
      "cat": 8199,
      "Ġmcc": 8200,
      "Ġtcvn": 8201,
      "uld": 8202,
      "Ġmig": 8203,
      "oz": 8204,
      "ĠÄĳong": 8205,
      "artment": 8206,
      "Ġhtt": 8207,
      "Ġghost": 8208,
      "ngÃ¢n": 8209,
      "ĠchÆ°á»Łng": 8210,
      "Ġghe": 8211,
      "Ġdar": 8212,
      "Ġbridge": 8213,
      "Ġhello": 8214,
      "roy": 8215,
      "ĠdÄ©nh": 8216,
      "Ġcontact": 8217,
      "mec": 8218,
      "Ġkháº¿": 8219,
      "ids": 8220,
      "Ġkie": 8221,
      "£m": 8222,
      "Ġlittle": 8223,
      "Ġchanel": 8224,
      "Ġchapter": 8225,
      "house": 8226,
      "Ġnc": 8227,
      "ÄĳÃ¡": 8228,
      "admin": 8229,
      "?âĢĿ": 8230,
      "Ġcomputer": 8231,
      "Ġperfect": 8232,
      "mr": 8233,
      "ĠhÃ£n": 8234,
      "Ġsav": 8235,
      "kr": 8236,
      "viáº¿t": 8237,
      "Ġrank": 8238,
      "iá»ĥng": 8239,
      "ĠtÃ©p": 8240,
      "ĠdÃ¬m": 8241,
      "Ġweek": 8242,
      "ista": 8243,
      "Ġfran": 8244,
      "thethao": 8245,
      "Ġfel": 8246,
      "è¡": 8247,
      "jack": 8248,
      "Ġváº¯n": 8249,
      "uguay": 8250,
      "Ġcommun": 8251,
      "Ġnhá»ĳt": 8252,
      "ĠhÃ¡": 8253,
      "vidia": 8254,
      "size": 8255,
      "gÃ¢y": 8256,
      "láº¥y": 8257,
      "Ġlite": 8258,
      "Ġwond": 8259,
      "Ġtelecom": 8260,
      "Ġngoc": 8261,
      "Ġexplor": 8262,
      "ces": 8263,
      "tph": 8264,
      "Ġncov": 8265,
      "Ġgot": 8266,
      "xicÃ´": 8267,
      "ips": 8268,
      "tage": 8269,
      "Ġ!!!": 8270,
      "Ġtrá»©": 8271,
      "Ġarticle": 8272,
      "Ġváº§y": 8273,
      "Ġstick": 8274,
      "Ġchuá»ĳt": 8275,
      "Ġláº½o": 8276,
      "tic": 8277,
      "chiáº¿m": 8278,
      "Ġgetty": 8279,
      "ez": 8280,
      "Ġfx": 8281,
      "nga": 8282,
      "gv": 8283,
      "Ġvá»ĵng": 8284,
      "Ġhybrid": 8285,
      "Ġhdv": 8286,
      "ĠhuyÃªn": 8287,
      "Ġoctober": 8288,
      "Ġfamily": 8289,
      "Ġinnova": 8290,
      "æµ": 8291,
      "Ġchuá»Ļc": 8292,
      "tha": 8293,
      "Ġgiáº±ng": 8294,
      "miá»ħn": 8295,
      "Ġhnx": 8296,
      "Ġlionel": 8297,
      "Ġlayer": 8298,
      "Ġhad": 8299,
      "Ġmbappe": 8300,
      "pin": 8301,
      "Ġmichel": 8302,
      "Ġpriv": 8303,
      "anced": 8304,
      "uka": 8305,
      "ĠÄĳá»Ĺi": 8306,
      "Ġtáº¥y": 8307,
      "Äĳáº·t": 8308,
      "Ġdb": 8309,
      "Ġsoci": 8310,
      "sun": 8311,
      "Ġdáº¥y": 8312,
      "fin": 8313,
      "Ġgao": 8314,
      "Ġdelta": 8315,
      "Ġwenger": 8316,
      "aroo": 8317,
      "Ġlimited": 8318,
      "ĠÄĳtqg": 8319,
      "Ġbrighton": 8320,
      "ĠÂ©": 8321,
      "...,": 8322,
      "Ġphá»ī": 8323,
      "ĠtrÃ¡c": 8324,
      "ĠmÆ°Æ¡ng": 8325,
      "Ġvista": 8326,
      "ador": 8327,
      "Ġphá»ĵn": 8328,
      "ĠÃ¹": 8329,
      "Ġthread": 8330,
      "Ġkal": 8331,
      "ĠnÃ£y": 8332,
      "Ġkur": 8333,
      "Ġvng": 8334,
      "Ġfriend": 8335,
      "Ġcacbon": 8336,
      "Ġmand": 8337,
      "ĠmÆ°á»Ľn": 8338,
      "Ġmordred": 8339,
      "Ġdáº¡t": 8340,
      "hydr": 8341,
      "ĠtrÃ¡": 8342,
      "Ġleip": 8343,
      "Ġrooney": 8344,
      "Ġfeder": 8345,
      "Ġburnley": 8346,
      "Ġhop": 8347,
      "á»ĥ": 8348,
      "ibe": 8349,
      "Ġkane": 8350,
      "Ġsuyá»ħn": 8351,
      "Ġuruguay": 8352,
      "ĠphanxicÃ´": 8353,
      "ĠÄĳÆ°": 8354,
      "Ġajax": 8355,
      "****": 8356,
      "Ġposts": 8357,
      "acera": 8358,
      "ken": 8359,
      "Ġmá»¥": 8360,
      "Ġnom": 8361,
      "Ġkp": 8362,
      "bÃ¡c": 8363,
      "windo": 8364,
      "Ġliveshow": 8365,
      "eline": 8366,
      "hÄĳ": 8367,
      "ĠlÄĥm": 8368,
      "quáº£": 8369,
      "Ġsoftware": 8370,
      "pink": 8371,
      "ĠkÃ¨n": 8372,
      "build": 8373,
      "ento": 8374,
      "ful": 8375,
      "var": 8376,
      "Ġaeon": 8377,
      "Ġmk": 8378,
      "full": 8379,
      "Ġngá»Ńi": 8380,
      "Ġvt": 8381,
      "Ġhitachi": 8382,
      "Ġcin": 8383,
      "Ġsá»Łi": 8384,
      "gov": 8385,
      "Ġáº¯t": 8386,
      "Ġnar": 8387,
      "rick": 8388,
      "Ġexper": 8389,
      "ĠrÃ¹ng": 8390,
      "Ġleipzig": 8391,
      "Ġlik": 8392,
      "roll": 8393,
      "Ġviol": 8394,
      "Ġblade": 8395,
      "Ġinfonet": 8396,
      "Ġimages": 8397,
      "Ġenzyme": 8398,
      "Ġmanagement": 8399,
      "ĠuÃ´ng": 8400,
      "Ġchá»īn": 8401,
      "Ġips": 8402,
      "Ġnvidia": 8403,
      "Ġrain": 8404,
      "ĠÃĹ": 8405,
      "ĠlÃ¹m": 8406,
      "uct": 8407,
      "nháº¥t": 8408,
      "isong": 8409,
      "£c": 8410,
      "ĠthÃ²i": 8411,
      "chiá»ģu": 8412,
      "Ġæ": 8413,
      "Ġhills": 8414,
      "Ġhdd": 8415,
      "abo": 8416,
      "Ġkam": 8417,
      "Äĳáº¡o": 8418,
      "dg": 8419,
      "Ġsmith": 8420,
      "din": 8421,
      "Ġbuy": 8422,
      "Ġcháº¯p": 8423,
      "ĠsÆ°a": 8424,
      "ĠhÄĳxx": 8425,
      "Ġphá»ım": 8426,
      "lá»ĭch": 8427,
      "ĠkrÃ´ng": 8428,
      "ĠhÃ³t": 8429,
      "giai": 8430,
      "táº¡m": 8431,
      "ĠhÃª": 8432,
      "Ġukraina": 8433,
      "táº¡o": 8434,
      "Ġrá»Ļp": 8435,
      "amic": 8436,
      "tráº§n": 8437,
      "Ġváº©y": 8438,
      "ĠchÃły": 8439,
      "ĠsuÃ´ng": 8440,
      "Ġjess": 8441,
      "Ġvd": 8442,
      "Ġali": 8443,
      "Ġshark": 8444,
      "ĠnghÃ©n": 8445,
      "Ġrodr": 8446,
      "Ġmáº¥u": 8447,
      "Ġaction": 8448,
      "há»£p": 8449,
      "Ġhikvision": 8450,
      "ulette": 8451,
      "Ġlá»©t": 8452,
      "master": 8453,
      "Ġpasteur": 8454,
      "Ġnetflix": 8455,
      "Ġforbes": 8456,
      "Ġtuc": 8457,
      "chÃº": 8458,
      "ĠðŁĶ": 8459,
      "Ġnáº·c": 8460,
      "Ġpow": 8461,
      "ĠngÃ¹ng": 8462,
      "unes": 8463,
      "Ġmá»Ľ": 8464,
      "Ġvps": 8465,
      "Ġvac": 8466,
      "Ġsapphire": 8467,
      "Ġdirect": 8468,
      "Ġcash": 8469,
      "Ġnáº»": 8470,
      "Ġandr": 8471,
      "å¤": 8472,
      "ĠcÃ¢m": 8473,
      "Ġwave": 8474,
      "lá»Ľp": 8475,
      "Ġphuong": 8476,
      "Ġwindow": 8477,
      "ĠÂ°": 8478,
      "Ġgig": 8479,
      "Ġhalo": 8480,
      "Ġnhá»īnh": 8481,
      "Ġrouter": 8482,
      "ategorized": 8483,
      "Ġwhit": 8484,
      "Ġblues": 8485,
      "Ġhá»Ļc": 8486,
      "Ġlisa": 8487,
      "imi": 8488,
      "}}": 8489,
      "cur": 8490,
      "Ġclear": 8491,
      "Ġupload": 8492,
      "Ġmdf": 8493,
      "Ġfal": 8494,
      "Ġload": 8495,
      "Ġmodem": 8496,
      "uary": 8497,
      "arta": 8498,
      "vices": 8499,
      "Ġgáº¥c": 8500,
      "máº¥t": 8501,
      "Ġtng": 8502,
      "Ġuá»": 8503,
      "Ġxá»Ļn": 8504,
      "Ġgates": 8505,
      "Ġluis": 8506,
      "ocus": 8507,
      "Ġrt": 8508,
      "ĠÄĳÆ°Æ¡c": 8509,
      "itech": 8510,
      "Ġcategory": 8511,
      "Ġseptember": 8512,
      "Ġnitrile": 8513,
      "Ġtá»Ļt": 8514,
      "ĠvÃª": 8515,
      "Ġsanchez": 8516,
      "ĠgÃŃa": 8517,
      "Ġliáº¿m": 8518,
      "vanh": 8519,
      "Ġrapper": 8520,
      "ĠbÃłnh": 8521,
      "Ġkangaroo": 8522,
      "Ġvia": 8523,
      "store": 8524,
      "hg": 8525,
      "Ġdota": 8526,
      "Ġkhmer": 8527,
      "chá»ĵng": 8528,
      "sv": 8529,
      "Ġlif": 8530,
      "iti": 8531,
      "Ġyear": 8532,
      "ÄĳÃ´i": 8533,
      "Ġcontinue": 8534,
      "Ġfirefox": 8535,
      "ski": 8536,
      "ides": 8537,
      "quáº£n": 8538,
      "Ġlady": 8539,
      "Ġá»ıi": 8540,
      "eting": 8541,
      "Ġlá»©c": 8542,
      "Ġthá»«ng": 8543,
      "Ġmekong": 8544,
      "á»©ng": 8545,
      "images": 8546,
      "ĠÃ¡ch": 8547,
      "cing": 8548,
      "Ġvigl": 8549,
      "há»Ļp": 8550,
      "ĠðĿĲ": 8551,
      "Ġwild": 8552,
      "Ġups": 8553,
      "Ġkin": 8554,
      "Ġkos": 8555,
      "Ġatl": 8556,
      "Ġgara": 8557,
      "Ġgiftcode": 8558,
      "pham": 8559,
      "ĠÄĳÃ´la": 8560,
      "ĠngÃ¡t": 8561,
      "cháº¡y": 8562,
      "ency": 8563,
      "mv": 8564,
      "Ġnational": 8565,
      "ĠbÆ°ng": 8566,
      "+,": 8567,
      "Ġwir": 8568,
      "Ġcoca": 8569,
      "Ġadn": 8570,
      "aska": 8571,
      "athon": 8572,
      "Ġmelanin": 8573,
      "Ġjol": 8574,
      "Ġexplorer": 8575,
      "Ġreo": 8576,
      "Ã¶": 8577,
      "Ġany": 8578,
      "ĠrÃŃt": 8579,
      "tag": 8580,
      "Äĳá»ķi": 8581,
      "Ġbá»ģnh": 8582,
      "Ġlew": 8583,
      "Ġthien": 8584,
      "Ġmw": 8585,
      "Ġì": 8586,
      "lot": 8587,
      "Ġbattle": 8588,
      "Ġsuarez": 8589,
      "Ġngá»§i": 8590,
      "phiÃªn": 8591,
      "Ġlead": 8592,
      "Ġviglacera": 8593,
      "Ġgá»ĵ": 8594,
      "ility": 8595,
      "soi": 8596,
      "æĬ": 8597,
      "gus": 8598,
      "Ġkevin": 8599,
      "Ġbrown": 8600,
      "Ġlimous": 8601,
      "aim": 8602,
      "nic": 8603,
      "ĠngÃ³t": 8604,
      "Ġjourn": 8605,
      "Ġká»ĭ": 8606,
      "':": 8607,
      "Ġbad": 8608,
      "Ġlens": 8609,
      "ais": 8610,
      "vá»«a": 8611,
      "Ġrá»Ĺ": 8612,
      "tráº»": 8613,
      "Ġspam": 8614,
      "Ġcharles": 8615,
      "?!": 8616,
      "Ġlith": 8617,
      "Ġtrack": 8618,
      "Ġgat": 8619,
      "Ġhino": 8620,
      "ities": 8621,
      "sex": 8622,
      "sg": 8623,
      "ĠkhÄĥng": 8624,
      "Ġsilver": 8625,
      "Ġresp": 8626,
      "cert": 8627,
      "eep": 8628,
      "eway": 8629,
      "lah": 8630,
      "máº«u": 8631,
      "Ġfish": 8632,
      "words": 8633,
      "Ġmd": 8634,
      "Ġformat": 8635,
      "Ġkv": 8636,
      "anol": 8637,
      "Ġpink": 8638,
      "Ġles": 8639,
      "xo": 8640,
      "ĠnhÃºn": 8641,
      "Ġkien": 8642,
      "ea": 8643,
      "mond": 8644,
      "Ġ(-": 8645,
      "bá»ĳ": 8646,
      "ĠnÃ´m": 8647,
      "Ġour": 8648,
      "eter": 8649,
      "Ġroulette": 8650,
      "Ġbrit": 8651,
      "ĠÏ": 8652,
      "Ġá»£": 8653,
      "Ġiu": 8654,
      "Ġferrari": 8655,
      "Ġpk": 8656,
      "Ġnháº£": 8657,
      "smart": 8658,
      "rd": 8659,
      "Ġlukaku": 8660,
      "ĠÂ½": 8661,
      "Ġsteam": 8662,
      "Ġvc": 8663,
      "share": 8664,
      "Ġbaking": 8665,
      "Ġthau": 8666,
      "Ġluá»": 8667,
      "ĠthÃ©t": 8668,
      "nÃ¢ng": 8669,
      "Ġliv": 8670,
      "ĠðŁĳī": 8671,
      "ĠcÃºt": 8672,
      "ĠrÃ¡ng": 8673,
      "Ġlimousine": 8674,
      "furt": 8675,
      "Ġtriá»ģn": 8676,
      "ĠnhoÃ¡ng": 8677,
      "Ġspecial": 8678,
      "Ġskype": 8679,
      "sho": 8680,
      "life": 8681,
      "Ġbrent": 8682,
      "Ġdecember": 8683,
      "Ġlotus": 8684,
      "Ġcháº¥u": 8685,
      ".(": 8686,
      "ĠÄĳá»ķng": 8687,
      "ĠcÃºn": 8688,
      "Ġpent": 8689,
      "mod": 8690,
      "báº£ng": 8691,
      "Ġtony": 8692,
      "cÆ¡n": 8693,
      ")...": 8694,
      "ĠâĪ": 8695,
      "ðĿĳ": 8696,
      "uro": 8697,
      "Ġsá»¯ng": 8698,
      "Ġstyl": 8699,
      "ones": 8700,
      "khai": 8701,
      "Ġker": 8702,
      "Ġace": 8703,
      "Ġrober": 8704,
      "________": 8705,
      "Ġdom": 8706,
      "Ġtoi": 8707,
      "Ġlazio": 8708,
      "Ġzombie": 8709,
      "ĠlÃ¹a": 8710,
      "Łm": 8711,
      "Ġmoham": 8712,
      "Ġdiáº¿p": 8713,
      "Ġwester": 8714,
      "Ġsá»§i": 8715,
      "Ġnheo": 8716,
      "ature": 8717,
      "Ġshopping": 8718,
      "Ġmegapixel": 8719,
      "station": 8720,
      "Ġsri": 8721,
      "oro": 8722,
      "Ġshang": 8723,
      "Ġparty": 8724,
      "Ġtotal": 8725,
      "alur": 8726,
      "ingo": 8727,
      "mes": 8728,
      "Ġbáº¿t": 8729,
      "è¡Į": 8730,
      "wagen": 8731,
      "kn": 8732,
      "nlÄĳo": 8733,
      "Ġcharm": 8734,
      "Ġpiece": 8735,
      "ÄĳÃ´ng": 8736,
      "çĶ": 8737,
      "Ġbrows": 8738,
      "ghini": 8739,
      "((": 8740,
      "moi": 8741,
      "Ġáº£m": 8742,
      "Ġtáº¥c": 8743,
      "Ġtank": 8744,
      "Ġarm": 8745,
      "Ġfat": 8746,
      "Ġkate": 8747,
      "Ġpf": 8748,
      "Ġlis": 8749,
      "Ġxáº»o": 8750,
      "tball": 8751,
      "dÆ°á»Ľi": 8752,
      "Ġlact": 8753,
      "Ġbali": 8754,
      "Ġbáº§n": 8755,
      "ww": 8756,
      "ĠdÃ¡t": 8757,
      "Ġdáº§y": 8758,
      "Ġwolves": 8759,
      "sport": 8760,
      "Ġfrancisco": 8761,
      "truyá»ģn": 8762,
      "Ġnature": 8763,
      "kovic": 8764,
      "má»¥c": 8765,
      "chuáº©n": 8766,
      "ĠsÄĳt": 8767,
      "Ġláº£": 8768,
      "Ġunique": 8769,
      "kit": 8770,
      "via": 8771,
      "Ġvao": 8772,
      "ando": 8773,
      "Ġphom": 8774,
      "Ġether": 8775,
      "Ġphá»Ľt": 8776,
      "Ġgá»Ľm": 8777,
      "Ġlol": 8778,
      "Ġjeff": 8779,
      "nhe": 8780,
      "ĠbiÃª": 8781,
      "Ġquick": 8782,
      "Ġprim": 8783,
      "Ġspir": 8784,
      "Ġkiá»ĥng": 8785,
      "Ġasiad": 8786,
      "Ġactiv": 8787,
      "Äĳá»Ļng": 8788,
      "price": 8789,
      "rÃºt": 8790,
      "Ġchuyen": 8791,
      "Ġmagie": 8792,
      "huáº¿": 8793,
      "quoc": 8794,
      "Ġzan": 8795,
      "Ġprint": 8796,
      "Ġvlog": 8797,
      "borghini": 8798,
      "Ġix": 8799,
      "Ġunit": 8800,
      "Ġbooking": 8801,
      "Ġalexander": 8802,
      "omy": 8803,
      "Ġdynam": 8804,
      "kswagen": 8805,
      "Ġekip": 8806,
      "ĠphÃŃch": 8807,
      "usta": 8808,
      "song": 8809,
      "Ġquáº»": 8810,
      "Ġrá»ĵ": 8811,
      "Ġpul": 8812,
      "Ġjac": 8813,
      "Ġerik": 8814,
      "Ġsilicone": 8815,
      "ĠÑķ": 8816,
      "Ġpalest": 8817,
      "Ġthoáº¡t": 8818,
      "'m": 8819,
      "ĠbÄĳbp": 8820,
      "ĠqÄĳ": 8821,
      "Ġeasy": 8822,
      "Ġyong": 8823,
      "Ġctr": 8824,
      "ĠtÃ²ng": 8825,
      "Ġreb": 8826,
      "eca": 8827,
      "Ġváº¿": 8828,
      "Ġconte": 8829,
      "ĠâľĶï¸ı": 8830,
      "Ġthaco": 8831,
      "Ġdance": 8832,
      "force": 8833,
      "Ġgod": 8834,
      "Ġbiáº¿c": 8835,
      "Ġyen": 8836,
      "Ġnasa": 8837,
      "ely": 8838,
      "Ġtráº£ng": 8839,
      "Ġ(*": 8840,
      "$/": 8841,
      "Ġvoan": 8842,
      "Äĳáº¹p": 8843,
      "Ġdetox": 8844,
      "Ġrá»įi": 8845,
      "Ġmulti": 8846,
      "Ġpress": 8847,
      "Ġbá»įng": 8848,
      "Ġtiep": 8849,
      "Ġlamborghini": 8850,
      "elo": 8851,
      "ckho": 8852,
      "dp": 8853,
      "Ġgpu": 8854,
      "Ġchicago": 8855,
      "Ġjobs": 8856,
      "Ġskip": 8857,
      "Ġcisco": 8858,
      "Ġglass": 8859,
      "Ġhenry": 8860,
      "¡n": 8861,
      "Ġsit": 8862,
      "Ġcosm": 8863,
      "ategories": 8864,
      "khÃ³": 8865,
      "Ġmario": 8866,
      "Ġuc": 8867,
      "ĠmÃºc": 8868,
      "Ġafter": 8869,
      "acle": 8870,
      "ait": 8871,
      "Ġá»ĳi": 8872,
      "Ġorganic": 8873,
      "eto": 8874,
      "Ġlab": 8875,
      "vs": 8876,
      "ĠdáºŃt": 8877,
      "Ġequ": 8878,
      "Ġfrankfurt": 8879,
      "</": 8880,
      "Ġbá»ĭp": 8881,
      "Ġluá»ĵn": 8882,
      "thuá»ĳc": 8883,
      "char": 8884,
      "vay": 8885,
      "tráº£": 8886,
      "ĠrÃłnh": 8887,
      "Ġ==": 8888,
      "Ġnobel": 8889,
      "ĠgÃ¹": 8890,
      "ĠÃ¡ng": 8891,
      "Ġngan": 8892,
      "tot": 8893,
      "je": 8894,
      "Ġide": 8895,
      "Äģ": 8896,
      "Ġhm": 8897,
      "Ġbrom": 8898,
      "Ġorient": 8899,
      "inal": 8900,
      "zan": 8901,
      "Ġesp": 8902,
      "ĠÄĳÃ¹ng": 8903,
      "istr": 8904,
      "Ġvolkswagen": 8905,
      "âĢ¦).": 8906,
      "asma": 8907,
      "ĠxÃ¹m": 8908,
      "Ġfda": 8909,
      "won": 8910,
      "ĠxÃŃt": 8911,
      "Ġnft": 8912,
      "ĠvÃŃa": 8913,
      "ether": 8914,
      "ninh": 8915,
      "Ġkhuá»·": 8916,
      "ĠlÃ©p": 8917,
      "Ġboard": 8918,
      "binh": 8919,
      "ãĢģ": 8920,
      "sw": 8921,
      "sel": 8922,
      "ĠtÄĳ": 8923,
      "Ġhau": 8924,
      "Ġsettings": 8925,
      "åħ": 8926,
      "Ġmasc": 8927,
      "Ġloi": 8928,
      "glo": 8929,
      "âĢ²": 8930,
      "Æ¡ng": 8931,
      "ĠsÃª": 8932,
      "Ġvisit": 8933,
      "ety": 8934,
      "inese": 8935,
      "Ġmatt": 8936,
      "Ġantonio": 8937,
      "kel": 8938,
      "Ġgarena": 8939,
      "nhouse": 8940,
      "Ġquáº©n": 8941,
      "Ġprogram": 8942,
      "Ġdáº³ng": 8943,
      "Ġtoáº£n": 8944,
      "Ġlinks": 8945,
      "Ġcrown": 8946,
      "ulo": 8947,
      "ily": 8948,
      "\">": 8949,
      "nar": 8950,
      "Ġbrad": 8951,
      "Ġcarol": 8952,
      "Ġjanuary": 8953,
      "thÃ¡nh": 8954,
      "alanta": 8955,
      "Ðº": 8956,
      "oh": 8957,
      "ĠnghÃª": 8958,
      "Ġprom": 8959,
      "Ġpes": 8960,
      "Ġproc": 8961,
      "Ġwatford": 8962,
      "Ġairpo": 8963,
      "sÃ¢n": 8964,
      "sÆ¡n": 8965,
      "uke": 8966,
      "Ġfus": 8967,
      "oston": 8968,
      "Ġâĺħ": 8969,
      "triá»ĩu": 8970,
      "Ġé": 8971,
      "Ġduáº©n": 8972,
      "ences": 8973,
      "Ġsent": 8974,
      "Ġoliu": 8975,
      "ÄĳoÃłn": 8976,
      "Ġgáº¯p": 8977,
      "Ġvas": 8978,
      "Ġcarbo": 8979,
      "Ġthem": 8980,
      "Ġgate": 8981,
      "ĠnhÃŃu": 8982,
      "ï¸ıâ": 8983,
      "Ġvirut": 8984,
      "ÄĳÃ³ng": 8985,
      "tá»ĳt": 8986,
      "Ġrá»£n": 8987,
      "Ġáº£i": 8988,
      "iverse": 8989,
      "ĠkhoÃ©t": 8990,
      "Ġaw": 8991,
      "Ġtncs": 8992,
      "Ġbla": 8993,
      "Ġrome": 8994,
      "ĠgiÃ´ng": 8995,
      "Ġeverest": 8996,
      "Ġminecraft": 8997,
      "Ġsingle": 8998,
      "sual": 8999,
      "Ġqc": 9000,
      "Ġsquare": 9001,
      "Ġsays": 9002,
      "Ġspace": 9003,
      "Ġconf": 9004,
      "xml": 9005,
      "Ġoct": 9006,
      "Ġjw": 9007,
      "Ġbeckham": 9008,
      "Ġitunes": 9009,
      "Ġsá»Ńng": 9010,
      "ĠvÃ£i": 9011,
      "Ġatalanta": 9012,
      "lá»ħ": 9013,
      "Ġvillar": 9014,
      "Ġfoam": 9015,
      "Ġreact": 9016,
      "biáº¿n": 9017,
      "ĠxiÃªm": 9018,
      "Ġsach": 9019,
      "Ġhec": 9020,
      "Ġgá»įng": 9021,
      "Ġxn": 9022,
      "ĠrÆ°á»Ŀm": 9023,
      "Ġapi": 9024,
      "Ġdevelop": 9025,
      "Ġpalm": 9026,
      "Ġfeed": 9027,
      "Ġkhuá»·u": 9028,
      "Ġgucci": 9029,
      "alty": 9030,
      "Ġslide": 9031,
      "vy": 9032,
      "ĠcÃ¹i": 9033,
      "rey": 9034,
      "cos": 9035,
      "Ġdual": 9036,
      "Ġjang": 9037,
      "Ġdior": 9038,
      "Ġphat": 9039,
      "Ġcáº·c": 9040,
      "arus": 9041,
      "Ġrim": 9042,
      "Äĳs": 9043,
      "Ġná»±c": 9044,
      "Ġpalestine": 9045,
      "pan": 9046,
      "Ġroman": 9047,
      "ngoáº¡i": 9048,
      "::": 9049,
      "tail": 9050,
      "Ġleeds": 9051,
      "Ġsep": 9052,
      "Ġrating": 9053,
      "Ġmachine": 9054,
      "kÃŃch": 9055,
      "cháº³ng": 9056,
      "Ġdeep": 9057,
      "Ġbá»īnh": 9058,
      "trÃ²": 9059,
      "look": 9060,
      "Ġvespa": 9061,
      "Ġkdc": 9062,
      "mat": 9063,
      "Ġvintage": 9064,
      "ization": 9065,
      "Ġhazard": 9066,
      "Ġwedding": 9067,
      "Ġtttm": 9068,
      "Ġvhtt": 9069,
      "Ġhav": 9070,
      "Ġyan": 9071,
      "Ġwestern": 9072,
      "ĠhÃºc": 9073,
      "Ġtpbank": 9074,
      "ĠhiÃª": 9075,
      "Ġener": 9076,
      "aids": 9077,
      "Ġphar": 9078,
      "Ġdow": 9079,
      "Ġbolero": 9080,
      "len": 9081,
      "Ġcuá»ĳc": 9082,
      "Ġlit": 9083,
      "cci": 9084,
      "Ġwonder": 9085,
      "Ġlipid": 9086,
      "Ġdahua": 9087,
      "rad": 9088,
      "Ġtdtt": 9089,
      "Ġtestoster": 9090,
      "cÃł": 9091,
      "green": 9092,
      "æµĭ": 9093,
      "âĢ¦\".": 9094,
      "Ġfriday": 9095,
      "Ġuncategorized": 9096,
      "gency": 9097,
      "Ġhyalur": 9098,
      "Ġrf": 9099,
      "Ġcolum": 9100,
      "Ġholdings": 9101,
      "à¤": 9102,
      "Ġcherry": 9103,
      "ij": 9104,
      "Ġzero": 9105,
      "Ġç": 9106,
      "Ġsafari": 9107,
      "inger": 9108,
      "spot": 9109,
      "Ġvillarreal": 9110,
      "imet": 9111,
      "ĠhÄĥm": 9112,
      "Ġgreat": 9113,
      "Ġecon": 9114,
      "Ġdd": 9115,
      "nghá»ī": 9116,
      "Ġnadal": 9117,
      "Ġsf": 9118,
      "ework": 9119,
      "bg": 9120,
      "Ġbarack": 9121,
      "Ġwy": 9122,
      "çĽĳ": 9123,
      "Ġkol": 9124,
      "Ġcambridge": 9125,
      "phÃ³": 9126,
      "Ġdjo": 9127,
      "ĠtrÆ°á»£ng": 9128,
      "Ġfur": 9129,
      "ĠngoÃ£n": 9130,
      "Ġtrá»£n": 9131,
      "Ġpetro": 9132,
      "Ġláº©n": 9133,
      "ĠchÆ°á»Ŀm": 9134,
      "ðĿĴ": 9135,
      "Ġdog": 9136,
      "Ġtitle": 9137,
      "Ġautom": 9138,
      "Ġfai": 9139,
      "pard": 9140,
      "åĬ": 9141,
      "quÃ¢n": 9142,
      "Ġkinht": 9143,
      "Ġlever": 9144,
      "normal": 9145,
      "Äĳá»ĭnh": 9146,
      "Ġheart": 9147,
      "cháº¿t": 9148,
      "Ġfant": 9149,
      "Ġsad": 9150,
      "Ġswan": 9151,
      "Ġbell": 9152,
      "uto": 9153,
      ":-": 9154,
      "nhÃ³m": 9155,
      "çĽĳæµĭ": 9156,
      "vani": 9157,
      "Ġimp": 9158,
      "mÃ³n": 9159,
      "Ġvisual": 9160,
      "ĠsoÃ¡i": 9161,
      "Ġnhm": 9162,
      "Ġrb": 9163,
      "æľĪ": 9164,
      "espace": 9165,
      "Ġsha": 9166,
      "Ġgeneral": 9167,
      "Ġped": 9168,
      "Ġbau": 9169,
      "Äĳk": 9170,
      "Ġmanila": 9171,
      "Ġscott": 9172,
      "ĠhÃ¬": 9173,
      "ãĥ»": 9174,
      "ĠxÃ¨o": 9175,
      "Ġonly": 9176,
      "Ġdur": 9177,
      "Ġolympia": 9178,
      "Ġboston": 9179,
      "Ġdiá»ĩc": 9180,
      "Ġmovie": 9181,
      "clo": 9182,
      "Ġriot": 9183,
      "bom": 9184,
      "hat": 9185,
      "ving": 9186,
      "Ġmes": 9187,
      "nhac": 9188,
      "Ġacet": 9189,
      "Ġtuan": 9190,
      "ĠrÃªn": 9191,
      "Ġreply": 9192,
      "Ġfuk": 9193,
      "ÄĳÃło": 9194,
      "edothi": 9195,
      "Ġthg": 9196,
      "Ġtask": 9197,
      "ige": 9198,
      "sang": 9199,
      "uf": 9200,
      "Ġglut": 9201,
      "Ġhis": 9202,
      "Ġrealme": 9203,
      "core": 9204,
      "Ġseung": 9205,
      "ads": 9206,
      "Ġave": 9207,
      "Ġâī": 9208,
      "Ġdjokovic": 9209,
      "Ġthuá»³": 9210,
      "Ġvpn": 9211,
      "Ġchá»ĵn": 9212,
      "thÃªm": 9213,
      "Ġâľĵ": 9214,
      "Ġyeu": 9215,
      "Ġmakita": 9216,
      "Ġsulf": 9217,
      "tráºŃn": 9218,
      "lá»£i": 9219,
      "Ġepson": 9220,
      "Ġbá»ĭch": 9221,
      "Ġanna": 9222,
      "Ġryan": 9223,
      "Ġoz": 9224,
      "inson": 9225,
      "fol": 9226,
      "ĠgÃ¡n": 9227,
      "ĠthuÃ½": 9228,
      "Ġsalah": 9229,
      "Ġgioan": 9230,
      "vÅ©ng": 9231,
      "Ġnice": 9232,
      "Ġted": 9233,
      "gate": 9234,
      "mac": 9235,
      "oshi": 9236,
      "Ġkáº»o": 9237,
      "åı": 9238,
      "Ġpier": 9239,
      "ĠvÃ¡t": 9240,
      "Ġvirgin": 9241,
      "thiáº¿u": 9242,
      "Ġlump": 9243,
      "Ġzh": 9244,
      "Ġbim": 9245,
      "Ġbizlive": 9246,
      "Ġreset": 9247,
      "mad": 9248,
      "Ġrh": 9249,
      "pet": 9250,
      "Ġuniverse": 9251,
      "Ġces": 9252,
      "kus": 9253,
      "lÃ¢m": 9254,
      "Ġfuji": 9255,
      "ĠchÃ¬nh": 9256,
      "ĠtrÆ°": 9257,
      "Ġeun": 9258,
      "Ġbrowser": 9259,
      "Ġkinhtedothi": 9260,
      "tl": 9261,
      "Ġfitness": 9262,
      "Ġpast": 9263,
      "Ġrolex": 9264,
      "Ġcoronavirus": 9265,
      "Ġhid": 9266,
      "Ġmam": 9267,
      "eld": 9268,
      "Ġbá»¥c": 9269,
      "ĠvÃ£ng": 9270,
      "ĠdÃ¬u": 9271,
      "gdvn": 9272,
      "Ġrash": 9273,
      "káº¿": 9274,
      "pher": 9275,
      "ĠnkhÃ´": 9276,
      "Ġzenfone": 9277,
      "Ġdouble": 9278,
      "Ġváº¡": 9279,
      "lee": 9280,
      "ĠhÃ³ng": 9281,
      "apl": 9282,
      "truyá»ĩn": 9283,
      "Ġthá»¥t": 9284,
      "Ġgea": 9285,
      "Ġwa": 9286,
      "lip": 9287,
      "cháº¿": 9288,
      "Ġtá»§i": 9289,
      "ako": 9290,
      "Ġzhang": 9291,
      "Ġdáº±n": 9292,
      "ĠtÃ¢": 9293,
      "Ġfootball": 9294,
      "Ġcorpor": 9295,
      "Ġnaru": 9296,
      "Ġpolyester": 9297,
      "hc": 9298,
      "Ġcrom": 9299,
      "Ġanthony": 9300,
      "Ġnest": 9301,
      "ĠrÃª": 9302,
      "Ġharvard": 9303,
      "Ġbá»¡": 9304,
      "Ġdrama": 9305,
      "ĠðŁĮ": 9306,
      "Ġvii": 9307,
      "Ġttc": 9308,
      "Äĳen": 9309,
      "yy": 9310,
      "Ġsher": 9311,
      "Ġflag": 9312,
      "Ġproper": 9313,
      "Ġelectron": 9314,
      "Ġexim": 9315,
      "Ġsáº¥m": 9316,
      "lc": 9317,
      "ngu": 9318,
      "Ġapt": 9319,
      "Ġmangan": 9320,
      "non": 9321,
      "Ġlocal": 9322,
      "Ġchal": 9323,
      "aii": 9324,
      "Ġcleans": 9325,
      "Ġkháº£m": 9326,
      "iban": 9327,
      "Ġhtv": 9328,
      "Ġwiki": 9329,
      "Ġprofess": 9330,
      "Ġjennifer": 9331,
      "enix": 9332,
      "Ġlucky": 9333,
      "ews": 9334,
      "Ġvietnamese": 9335,
      "Ġselect": 9336,
      "rain": 9337,
      "Ġanim": 9338,
      "itz": 9339,
      "ĠphÃ¬nh": 9340,
      "Ð»": 9341,
      "who": 9342,
      "Äĳun": 9343,
      "Ġtake": 9344,
      "Ġedu": 9345,
      "æĬ¥": 9346,
      "Ġchristian": 9347,
      "microsoft": 9348,
      "Ġrot": 9349,
      "Ġbd": 9350,
      "Ġhá»ī": 9351,
      "ĠnáºŃm": 9352,
      "Ġud": 9353,
      "Ġcháº»": 9354,
      "Ġlane": 9355,
      "Ġrib": 9356,
      "Ġmich": 9357,
      "Ġnp": 9358,
      "Ġfolic": 9359,
      "Ġja": 9360,
      "come": 9361,
      "agi": 9362,
      "Ġformosa": 9363,
      "Ġdoji": 9364,
      "ĠgÃłu": 9365,
      "ĠnghÃ©": 9366,
      "vá»¥": 9367,
      "Ġglucose": 9368,
      "ĠnhiÃª": 9369,
      "Ġcock": 9370,
      "Ġlumpur": 9371,
      "Ġremix": 9372,
      "Ġkuala": 9373,
      "âĢľ": 9374,
      "Ġalu": 9375,
      "Ġsb": 9376,
      "sil": 9377,
      "aking": 9378,
      "iting": 9379,
      "âľħ": 9380,
      "Ġalaska": 9381,
      "Ġchun": 9382,
      "Ġháº¥t": 9383,
      "tock": 9384,
      "Ġsilva": 9385,
      "onin": 9386,
      "rao": 9387,
      "Ġpia": 9388,
      "Ġiron": 9389,
      "Ġaust": 9390,
      "Ġultr": 9391,
      "Ġhá»Ŀi": 9392,
      "ball": 9393,
      "abi": 9394,
      "Ġlak": 9395,
      "Ġchild": 9396,
      "Ġeditor": 9397,
      "ects": 9398,
      "roi": 9399,
      "ÄĳÃłn": 9400,
      "aimages": 9401,
      "her": 9402,
      "Ġlc": 9403,
      "Ġdáº¥m": 9404,
      "dataimages": 9405,
      "vanhoa": 9406,
      "Ġlaw": 9407,
      "ĠgiÄĥng": 9408,
      "Ġxiáº¿c": 9409,
      "Ġbá»Ł": 9410,
      "bá»Łi": 9411,
      "Ġweibo": 9412,
      "kiá»ĥm": 9413,
      "Ġtieng": 9414,
      "Ġtrá»Ľ": 9415,
      "irates": 9416,
      "Ġtoto": 9417,
      "váºŃt": 9418,
      "Ġhist": 9419,
      "Ġjoy": 9420,
      "uit": 9421,
      "Ġibrah": 9422,
      "ĠhÃ©o": 9423,
      "Ġbeat": 9424,
      "Ġ**": 9425,
      "tnt": 9426,
      "ĠdÆ¡": 9427,
      "mx": 9428,
      "Ġnháº½": 9429,
      "right": 9430,
      "Ġnáº»o": 9431,
      "Ġadvanced": 9432,
      "kvÄĳ": 9433,
      "hÃ²a": 9434,
      "Ġrese": 9435,
      "Ġváº¹o": 9436,
      "Ġstone": 9437,
      "Ġempire": 9438,
      "fil": 9439,
      "Ġamo": 9440,
      "sÃ¡ch": 9441,
      "avel": 9442,
      "aid": 9443,
      "vinh": 9444,
      "Ġsodium": 9445,
      "vac": 9446,
      "ĠvÃ©n": 9447,
      "ĠsÃ¡": 9448,
      "Ġrip": 9449,
      "hÆ°Æ¡ng": 9450,
      "Ã¬a": 9451,
      "Ġ[[": 9452,
      "Ġtá»ĥ": 9453,
      "Ġnk": 9454,
      "ĠnÃª": 9455,
      "Ġjolie": 9456,
      "Ø§": 9457,
      "Ġpra": 9458,
      "láº·ng": 9459,
      "dá»ħ": 9460,
      "vang": 9461,
      "Ġporto": 9462,
      "ĠðŁĵ": 9463,
      "Ġdw": 9464,
      "Ġchannel": 9465,
      "ĠhÃŃ": 9466,
      "Ġpublic": 9467,
      "Ġráº©y": 9468,
      "Äĳtb": 9469,
      "tran": 9470,
      "cheng": 9471,
      "Ġoptim": 9472,
      ",....": 9473,
      "vir": 9474,
      "æĸ": 9475,
      "Ġampl": 9476,
      "xp": 9477,
      "ĠÄĳkvÄĳ": 9478,
      "trans": 9479,
      "Ġprinc": 9480,
      "Ġbrexit": 9481,
      "Ġroot": 9482,
      "cháº¯c": 9483,
      "ĠngÃ¹i": 9484,
      "Ġcaffe": 9485,
      "china": 9486,
      "Ġleb": 9487,
      "Ġside": 9488,
      "Ġworks": 9489,
      "Ġhem": 9490,
      "ĠhÃº": 9491,
      "Ġlv": 9492,
      "Ġfederer": 9493,
      "Ġronald": 9494,
      "Ġvatican": 9495,
      "Ġchuy": 9496,
      "Ġquest": 9497,
      "Ġmsi": 9498,
      "ghn": 9499,
      "formation": 9500,
      "Ġgor": 9501,
      "tháº§y": 9502,
      "Ġserbia": 9503,
      "Ġlook": 9504,
      "Ġbruno": 9505,
      "Ġbah": 9506,
      "toy": 9507,
      "Ġwinner": 9508,
      "hÃ´": 9509,
      "gdÄĳt": 9510,
      "Ġresearch": 9511,
      "Ġoxford": 9512,
      "Ġlanka": 9513,
      "Ġâĩ": 9514,
      "ĠrÃ´n": 9515,
      "Ġstop": 9516,
      "Ġelon": 9517,
      "Ġcivic": 9518,
      "ĠphyÃªn": 9519,
      "ĠantÄĳ": 9520,
      "Ġreco": 9521,
      "Ġlotion": 9522,
      "cks": 9523,
      "sterdam": 9524,
      "tphcm": 9525,
      "Ġxá»ı": 9526,
      "uxe": 9527,
      "Ġmá»ĭt": 9528,
      "Ġpure": 9529,
      "Ġbush": 9530,
      "wski": 9531,
      "Ġyi": 9532,
      "than": 9533,
      "Ġcompact": 9534,
      "Ġtet": 9535,
      "sam": 9536,
      "±t": 9537,
      "lab": 9538,
      "Ġpenn": 9539,
      "Ġdna": 9540,
      "Äĥc": 9541,
      "Ġnghiáº¿n": 9542,
      "tk": 9543,
      "Ġuse": 9544,
      "viÃªn": 9545,
      "cnv": 9546,
      "Ġbilbao": 9547,
      "ĠchÆ¡n": 9548,
      "yan": 9549,
      "Ġairpods": 9550,
      "Ġkno": 9551,
      "?,": 9552,
      "Ġrog": 9553,
      "Äĳá»Ŀi": 9554,
      "Ġfocus": 9555,
      "Ġwireless": 9556,
[...]
