{
  "version": "1.0",
  "truncation": null,
  "padding": null,
  "added_tokens": [
    {
      "id": 0,
      "content": "[PAD]",
      "single_word": false,
      "lstrip": false,
      "rstrip": false,
      "normalized": false,
      "special": true
    },
    {
      "id": 1,
      "content": "[UNK]",
      "single_word": false,
      "lstrip": false,
      "rstrip": false,
      "normalized": false,
      "special": true
    },
    {
      "id": 2,
      "content": "<|endoftext|>",
      "single_word": false,
      "lstrip": false,
      "rstrip": false,
      "normalized": false,
      "special": true
    }
  ],
  "normalizer": {
    "type": "BertNormalizer",
    "clean_text": true,
    "handle_chinese_chars": false,
    "strip_accents": false,
    "lowercase": true
  },
  "pre_tokenizer": {
    "type": "ByteLevel",
    "add_prefix_space": true,
    "trim_offsets": true,
    "use_regex": true
  },
  "post_processor": null,
  "decoder": null,
  "model": {
    "type": "BPE",
    "dropout": null,
    "unk_token": "[UNK]",
    "continuing_subword_prefix": null,
    "end_of_word_suffix": null,
    "fuse_unk": false,
    "byte_fallback": false,
    "ignore_merges": false,
    "vocab": {
      "[PAD]": 0,
      "[UNK]": 1,
      "<|endoftext|>": 2,
      "!": 3,
      "\"": 4,
      "#": 5,
      "$": 6,
      "%": 7,
      "&": 8,
      "'": 9,
      "(": 10,
      ")": 11,
      "*": 12,
      "+": 13,
      ",": 14,
      "-": 15,
      ".": 16,
      "/": 17,
      "0": 18,
      ":": 19,
      ";": 20,
      "<": 21,
      "=": 22,
      ">": 23,
      "?": 24,
      "@": 25,
      "[": 26,
      "\\": 27,
      "]": 28,
      "^": 29,
      "_": 30,
      "`": 31,
      "a": 32,
      "b": 33,
      "c": 34,
      "d": 35,
      "e": 36,
      "f": 37,
      "g": 38,
      "h": 39,
      "i": 40,
      "j": 41,
      "k": 42,
      "l": 43,
      "m": 44,
      "n": 45,
      "o": 46,
      "p": 47,
      "q": 48,
      "r": 49,
      "s": 50,
      "t": 51,
      "u": 52,
      "v": 53,
      "w": 54,
      "x": 55,
      "y": 56,
      "z": 57,
      "{": 58,
      "|": 59,
      "}": 60,
      "~": 61,
      "¡": 62,
      "¢": 63,
      "£": 64,
      "¤": 65,
      "¥": 66,
      "¦": 67,
      "§": 68,
      "¨": 69,
      "©": 70,
      "ª": 71,
      "«": 72,
      "¬": 73,
      "®": 74,
      "¯": 75,
      "°": 76,
      "±": 77,
      "²": 78,
      "³": 79,
      "´": 80,
      "µ": 81,
      "¶": 82,
      "·": 83,
      "¸": 84,
      "¹": 85,
      "º": 86,
      "»": 87,
      "¼": 88,
      "½": 89,
      "¾": 90,
      "¿": 91,
      "Â": 92,
      "Ã": 93,
      "Ä": 94,
      "Å": 95,
      "Æ": 96,
      "Ç": 97,
      "È": 98,
      "É": 99,
      "Ê": 100,
      "Ë": 101,
      "Ì": 102,
      "Í": 103,
      "Î": 104,
      "Ï": 105,
      "Ð": 106,
      "Ñ": 107,
      "Ò": 108,
      "Ó": 109,
      "Ô": 110,
      "Õ": 111,
      "Ö": 112,
      "×": 113,
      "Ø": 114,
      "Ù": 115,
      "Ú": 116,
      "Û": 117,
      "Ü": 118,
      "Ý": 119,
      "Þ": 120,
      "ß": 121,
      "à": 122,
      "á": 123,
      "â": 124,
      "ã": 125,
      "ä": 126,
      "å": 127,
      "æ": 128,
      "ç": 129,
      "è": 130,
      "é": 131,
      "ê": 132,
      "ë": 133,
      "ì": 134,
      "í": 135,
      "ï": 136,
      "ð": 137,
      "ñ": 138,
      "Ġ": 139,
      "Ģ": 140,
      "ģ": 141,
      "Ĥ": 142,
      "ĥ": 143,
      "Ħ": 144,
      "ħ": 145,
      "Ĩ": 146,
      "ĩ": 147,
      "Ī": 148,
      "ī": 149,
      "Ĭ": 150,
      "ĭ": 151,
      "Į": 152,
      "į": 153,
      "İ": 154,
      "ı": 155,
      "Ĳ": 156,
      "ĳ": 157,
      "Ĵ": 158,
      "ĵ": 159,
      "Ķ": 160,
      "ķ": 161,
      "ĸ": 162,
      "Ĺ": 163,
      "ĺ": 164,
      "Ļ": 165,
      "ļ": 166,
      "Ľ": 167,
      "ľ": 168,
      "Ŀ": 169,
      "ŀ": 170,
      "Ł": 171,
      "ł": 172,
      "Ń": 173,
      "á»": 174,
      "áº": 175,
      "ng": 176,
      "Ġt": 177,
      "Ġc": 178,
      "Äĳ": 179,
      "nh": 180,
      "Ãł": 181,
      "ĠÄĳ": 182,
      "Æ°": 183,
      "Ã¡": 184,
      "há»": 185,
      "Ġv": 186,
      "Ġ,": 187,
      "iá»": 188,
      "hÃ": 189,
      "Ġm": 190,
      "Ġb": 191,
      "Ġl": 192,
      "Æ°á»": 193,
      "Ġk": 194,
      "áº¡": 195,
      "Ġ0": 196,
      "Ġ.": 197,
      "áº¿": 198,
      "Ġnh": 199,
      "Ġs": 200,
      "Ġtr": 201,
      "áº£": 202,
      "Ġn": 203,
      "Ãª": 204,
      "Ġh": 205,
      "Ġth": 206,
      "Ġg": 207,
      "áº¥": 208,
      "Ġch": 209,
      "á»Ļ": 210,
      "ĠcÃ": 211,
      "iá»ĩ": 212,
      "Ġng": 213,
      "Ã¡c": 214,
      "Ġd": 215,
      "Ãªn": 216,
      "´ng": 217,
      "Ġp": 218,
      "á»ĳ": 219,
      "ĠvÃł": 220,
      "qu": 221,
      "Æ¡": 222,
      "Ã¢": 223,
      "áºŃ": 224,
      "áº§": 225,
      "Ġcá»": 226,
      "Ġkh": 227,
      "iáº¿": 228,
      "tr": 229,
      "Ġvá»": 230,
      "ĠlÃł": 231,
      "Ľi": 232,
      "ĠÄĳá»": 233,
      "Äĥ": 234,
      "ch": 235,
      "Æ°á»£": 236,
      "áº¥t": 237,
      "Æ°á»Ŀ": 238,
      "Ã¬": 239,
      "Ġr": 240,
      "áº¡i": 241,
      "ĠcÃ³": 242,
      "Ġtá»": 243,
      "uy": 244,
      "th": 245,
      "Ġcá»§": 246,
      "Ġcá»§a": 247,
      "an": 248,
      "ĠcÃ¡c": 249,
      "Ġx": 250,
      "ong": 251,
      "á»ĭ": 252,
      "Ġqu": 253,
      "Ġgi": 254,
      "ĠÄĳÃ": 255,
      "Ġph": 256,
      "hÃ´ng": 257,
      "áº¯": 258,
      "iá»ģ": 259,
      "á»±": 260,
      "Ġ:": 261,
      "Æ°á»£c": 262,
      "thá»": 263,
      "Ġthá»": 264,
      "á»¯": 265,
      "ĠÄĳÆ°á»£c": 266,
      "Ġchá»": 267,
      "Ã´": 268,
      "Ġtrong": 269,
      "á»Ļt": 270,
      "á»¥": 271,
      "iá»ĩn": 272,
      "Ġhá»": 273,
      "Ġcho": 274,
      "ay": 275,
      "Ãły": 276,
      "á»Ł": 277,
      "ĠkhÃ´ng": 278,
      "ÃŃ": 279,
      "anh": 280,
      "áº·": 281,
      "Ġmá»Ļt": 282,
      "Ã¬nh": 283,
      "in": 284,
      "inh": 285,
      "iÃªn": 286,
      "ang": 287,
      "Ã³": 288,
      "Ġvá»Ľi": 289,
      "áº¡n": 290,
      "áº§n": 291,
      "Æ°á»Ľ": 292,
      "ao": 293,
      "am": 294,
      "iá»ģu": 295,
      "iá»ĥ": 296,
      "hÃŃ": 297,
      "Ġ\"": 298,
      "Æ°á»Ŀi": 299,
      "ph": 300,
      "Ã¢n": 301,
      "á»¯ng": 302,
      "gi": 303,
      "Æ°Æ¡": 304,
      "Ãłnh": 305,
      "Ġnhá»¯ng": 306,
      "Æ°á»Ŀng": 307,
      "áº£n": 308,
      "Ãłng": 309,
      "Ġmá»": 310,
      "áº£i": 311,
      "ĠngÆ°á»Ŀi": 312,
      "Ãłn": 313,
      "©ng": 314,
      "Æ°Æ¡ng": 315,
      "on": 316,
      "ai": 317,
      "áº§u": 318,
      "Ãłi": 319,
      "©c": 320,
      "ĠnhÆ°": 321,
      "Æ°á»Ľc": 322,
      "iáº¿t": 323,
      "áº¿n": 324,
      "ung": 325,
      "á»ĩ": 326,
      "áºŃn": 327,
      "Ġ-": 328,
      "ĠÄĳá»ĥ": 329,
      "hÃº": 330,
      "Ġbáº¡n": 331,
      "ĠÄĳÃ£": 332,
      "Ã¢y": 333,
      "Ġ(": 334,
      "Ġho": 335,
      "Ġ)": 336,
      "Äĥng": 337,
      "Ġâ": 338,
      "Ãº": 339,
      "hÃ¬": 340,
      "¹ng": 341,
      "áº©": 342,
      "ĠâĢ": 343,
      "ĠcÃ´ng": 344,
      "á»Ń": 345,
      "au": 346,
      "áºŃt": 347,
      "Ġtá»«": 348,
      "Ã½": 349,
      "Ŀi": 350,
      "áº½": 351,
      "Æ¡n": 352,
      "Äĥn": 353,
      "thá»ĥ": 354,
      "áº¿t": 355,
      "Ġkhi": 356,
      "Ã¡ch": 357,
      "iá»ĩt": 358,
      "á»ĵ": 359,
      "ĠÄĳáº¿n": 360,
      "Ã¡n": 361,
      "á»Ļng": 362,
      "Ã´ng": 363,
      "chá»": 364,
      "ĠnÃły": 365,
      "įc": 366,
      "Äĥm": 367,
      "iáº¿n": 368,
      "Ġnhiá»ģu": 369,
      "á»ķ": 370,
      "á»ĳi": 371,
      "Ġvá»ģ": 372,
      "Ã¡t": 373,
      "Ã£": 374,
      "Ġsáº½": 375,
      "iá»ĩu": 376,
      "á»ĳc": 377,
      "Ġtáº¡i": 378,
      "Ġá»Ł": 379,
      "dá»¥": 380,
      "er": 381,
      "kh": 382,
      "Ã´i": 383,
      "Ã¡ng": 384,
      "ĠnhÃł": 385,
      "hÃ³": 386,
      "em": 387,
      "eo": 388,
      "ĠtrÃªn": 389,
      "á»ģ": 390,
      "ĠlÃłm": 391,
      "áºŃp": 392,
      "ĠÄĳÃ³": 393,
      "Ã¡o": 394,
      "Ã¡i": 395,
      "áº±": 396,
      "Å©ng": 397,
      "Ġlá»": 398,
      "Ã²": 399,
      "ĠvÃło": 400,
      "áº«": 401,
      "en": 402,
      "iÃª": 403,
      "Ġra": 404,
      "ĠcÅ©ng": 405,
      "dá»¥ng": 406,
      "ĠngÃły": 407,
      "Ã©": 408,
      "á»ĭch": 409,
      "hÃ¢": 410,
      "ĠmÃł": 411,
      "ngh": 412,
      "ĠnÄĥm": 413,
      "iá»ĩc": 414,
      "áº¥p": 415,
      "á»Ļi": 416,
      "á»į": 417,
      "áº£o": 418,
      "Æ°á»£ng": 419,
      "áº¥y": 420,
      "áº»": 421,
      "Ġnháº¥t": 422,
      "á»±c": 423,
      "áº¯c": 424,
      "áº¹": 425,
      "áº·t": 426,
      "ar": 427,
      "á»Ļc": 428,
      "áº·c": 429,
      "hÃŃnh": 430,
      "ĵng": 431,
      "áº£m": 432,
      "Ã¹ng": 433,
      "Ãło": 434,
      "Ġthu": 435,
      "uyÃªn": 436,
      "iá»ĥm": 437,
      "Ã¡y": 438,
      "áº¡o": 439,
      "oáº¡i": 440,
      "Ã¡p": 441,
      "Ã¢m": 442,
      "Ä©": 443,
      "Ġgiá»": 444,
      "áº©m": 445,
      "Äĳá»Ļng": 446,
      "á»ķi": 447,
      "Ã¡nh": 448,
      "ĠchÃº": 449,
      "áº±ng": 450,
      "áº¡t": 451,
      "Æ¡i": 452,
      "Ġsau": 453,
      "hÃ²": 454,
      "£p": 455,
      "Ġsá»±": 456,
      "Ġtheo": 457,
      "±c": 458,
      "iá»ģn": 459,
      "Ġláº¡i": 460,
      "ĠhÆ¡n": 461,
      "áº£nh": 462,
      "ĠnÃ³": 463,
      "áº¯t": 464,
      "áº¥n": 465,
      "á»ĳng": 466,
      "oÃłn": 467,
      "Ġpháº£i": 468,
      "áº£ng": 469,
      "áº«n": 470,
      "ĠâĢĵ": 471,
      "al": 472,
      "Ġy": 473,
      "nghiá»ĩ": 474,
      "Ġcao": 475,
      "ĠchÃŃnh": 476,
      "hÃ¬nh": 477,
      "hÃ¢n": 478,
      "ĠÄĳiá»ģu": 479,
      "á»ģn": 480,
      "Ġráº¥t": 481,
      "ĠthÃ¬": 482,
      "Ġmu": 483,
      "Ġphá»": 484,
      "uyá»ĩ": 485,
      "uáº¥t": 486,
      "Ġdo": 487,
      "ĳng": 488,
      "Ġchá»ī": 489,
      "ĠthÃłnh": 490,
      "ĠgiÃ¡": 491,
      "nam": 492,
      "á»ĳt": 493,
      "ÃŃch": 494,
      "Ġsá»Ń": 495,
      "iá»ĥn": 496,
      "Ġbá»ĭ": 497,
      "ĠnÆ°á»Ľc": 498,
      "ĠÄĳáº§u": 499,
      "Æ°a": 500,
      "Æ°á»Ł": 501,
      "uyá»": 502,
      "ħn": 503,
      "ĠÄĳá»ĵng": 504,
      "Äĳá»ĭ": 505,
      "or": 506,
      "Ã¹": 507,
      "Ġmá»Ľi": 508,
      "Æ°á»Łng": 509,
      "Ġviá»ĩc": 510,
      "Ġ?": 511,
      "Ġsáº£n": 512,
      "ĠÄĳÃ¢y": 513,
      "Ġviá»ĩt": 514,
      "im": 515,
      "áº¡nh": 516,
      "ÃŃnh": 517,
      "ĠÄĳang": 518,
      "iá»ĥu": 519,
      "Ġtá»ķ": 520,
      "Ġthá»Ŀi": 521,
      "pháº©m": 522,
      "Ã´n": 523,
      "ĠÄĳi": 524,
      "ĠnhÆ°ng": 525,
      "ĠcÃ²": 526,
      "Ġ/": 527,
      "ĠhÃ": 528,
      "á»ı": 529,
      "es": 530,
      "áº¿u": 531,
      "á»©c": 532,
      "ho": 533,
      "ĠcÃ²n": 534,
      "ĠchÃºng": 535,
      "Ġcu": 536,
      "ĠthÃ´ng": 537,
      "áº¡ng": 538,
      "iÃªu": 539,
      "Äĳá»ĭnh": 540,
      "ĠmÃ¬nh": 541,
      "há»£p": 542,
      "Ġcon": 543,
      "Ļi": 544,
      "áº¥u": 545,
      "Ġthá»±c": 546,
      "ĠmÃ¡y": 547,
      "Ġngh": 548,
      "á»¥c": 549,
      "ĠcÆ¡": 550,
      "á»ĳn": 551,
      "ĠnÃªn": 552,
      "ĠhÃłng": 553,
      "hÃłng": 554,
      "ĠcÃ¡ch": 555,
      "viÃªn": 556,
      "á»£": 557,
      "it": 558,
      "Ġcáº§n": 559,
      "ia": 560,
      "Ġquy": 561,
      "ĠcÃ¹ng": 562,
      "á»ĩnh": 563,
      "Ġhiá»ĩn": 564,
      "ĠtrÆ°á»Ľc": 565,
      "Ġanh": 566,
      "hiá»ĩn": 567,
      "hÃ²ng": 568,
      "Ġf": 569,
      "hÃ³a": 570,
      "et": 571,
      "Ġtiáº¿": 572,
      "phá»": 573,
      "ĠphÃ¡t": 574,
      "ĠkhÃ¡c": 575,
      "Ġa": 576,
      "ĠkhÃ¡ch": 577,
      "lÆ°á»£ng": 578,
      "..": 579,
      "Ãºp": 580,
      "ĠthÃ": 581,
      "uyá»ĩn": 582,
      "Ġchá»§": 583,
      "Ã¢u": 584,
      "Ã²ng": 585,
      "há»ĩ": 586,
      "Ġu": 587,
      "sá»ĳ": 588,
      "Ġkho": 589,
      "thu": 590,
      "Ġtrung": 591,
      "nghiá»ĩp": 592,
      "ĠvÃ¬": 593,
      "á»įng": 594,
      "ĠlÃªn": 595,
      "Ġthiáº¿t": 596,
      "Ãºc": 597,
      "trÃ¬nh": 598,
      "Ġbiáº¿t": 599,
      "Ġtu": 600,
      "el": 601,
      "Ġlá»Ľ": 602,
      "ĠgiÃºp": 603,
      "Ġká»": 604,
      "Ġkhá»": 605,
      "ĠcÃ¢": 606,
      "nÄĥng": 607,
      "gian": 608,
      "ĠÄĳá»ģ": 609,
      "Ġbá»Ļ": 610,
      "Ġsá»ĳ": 611,
      "Ġtá»ĳt": 612,
      "Ġxe": 613,
      "áº¯ng": 614,
      "Ġhay": 615,
      "giá»": 616,
      "Æ°á»Ľng": 617,
      "áº¡ch": 618,
      "Ġdá»±": 619,
      "Ġkinh": 620,
      "Ġloáº¡i": 621,
      "táº¿": 622,
      "há»įc": 623,
      "vá»¥": 624,
      "lÃ½": 625,
      "ĠÄĳá»ĳi": 626,
      "ĠâĢ¦": 627,
      "áº¹p": 628,
      "nhÃ¢n": 629,
      "įn": 630,
      "ĠtÃ´i": 631,
      "īnh": 632,
      "ĠthÃ¡ng": 633,
      "áº¯n": 634,
      "Ãªu": 635,
      "Ġtháº¿": 636,
      "at": 637,
      "oÃłi": 638,
      "Ġnáº¿u": 639,
      "Ġcháº¥t": 640,
      "Ġgiáº£i": 641,
      "om": 642,
      "Æ°u": 643,
      "Ġhá»įc": 644,
      "áºŃy": 645,
      "«a": 646,
      "trÆ°á»Ŀng": 647,
      "ĥn": 648,
      "Ġhá»į": 649,
      "á»©ng": 650,
      "á»§": 651,
      "Ġw": 652,
      "ĠÄĳá»ĭ": 653,
      "Å©": 654,
      "Ġqua": 655,
      "ĠÄĳÆ°á»Ŀng": 656,
      "ty": 657,
      "gia": 658,
      "ic": 659,
      "uyá»ĥn": 660,
      "Ġlu": 661,
      "id": 662,
      "Ĺi": 663,
      "iá»ħn": 664,
      "ĠliÃªn": 665,
      "tin": 666,
      "ĠÃ´ng": 667,
      "Ġ...": 668,
      "nhiÃªn": 669,
      "Ġtá»±": 670,
      "as": 671,
      "Ġkhu": 672,
      "Ġhoáº·c": 673,
      "Ġbáº±ng": 674,
      "sinh": 675,
      "áº©n": 676,
      "Ġtiá»ģn": 677,
      "Ġquan": 678,
      "do": 679,
      "Ġbá»ĩnh": 680,
      "Ġan": 681,
      "cáº¥p": 682,
      "Ġtá»Ľi": 683,
      "ĠÄĳáº¡i": 684,
      "áº¡c": 685,
      "Ġthá»©": 686,
      "Ġgia": 687,
      "ĠnÃ³i": 688,
      "Ġkáº¿t": 689,
      "Äĳá»Ļ": 690,
      "Ġ;": 691,
      "á»©": 692,
      "ĠgÃ¬": 693,
      "ĠbÃłi": 694,
      "le": 695,
      "Ġxem": 696,
      "Ġmang": 697,
      "á»Ŀi": 698,
      "Ã¬m": 699,
      "ĠtÄĥng": 700,
      "Ġdá»ĭch": 701,
      "ĠÄĳiá»ĩn": 702,
      "is": 703,
      "Ġhai": 704,
      "Ġphá»¥": 705,
      "Ġtin": 706,
      "ĠphÃ²ng": 707,
      "Äĳáº§u": 708,
      "quáº£": 709,
      "Ġthá»ĭ": 710,
      "quá»ĳc": 711,
      "lu": 712,
      "á»ĵi": 713,
      "ro": 714,
      "tÃ¢m": 715,
      "ĠtrÆ°á»Ŀng": 716,
      "ĠtÃ¬m": 717,
      "thÃłnh": 718,
      "Ã³ng": 719,
      "ĠbÃªn": 720,
      "ĠhÃł": 721,
      "ĠdÃ¹ng": 722,
      "Ġtrang": 723,
      "ĠÄĳáº·c": 724,
      "Ġbáº£o": 725,
      "há»Ļi": 726,
      "Ġmua": 727,
      "to": 728,
      "ĠhÃ¬nh": 729,
      "Ġdá»": 730,
      "ĠquÃ¡": 731,
      "ta": 732,
      "á»ĵng": 733,
      "Ġváº«n": 734,
      "quan": 735,
      "Æ°á»Ľi": 736,
      "Ġlá»Ľn": 737,
      "ĠtÃ¬nh": 738,
      "thá»©c": 739,
      "ĠÄĥn": 740,
      "ĠhÃ£": 741,
      "ĠcÃ´": 742,
      "Äĳiá»ĥm": 743,
      "lo": 744,
      "áº§m": 745,
      "cÃ´ng": 746,
      "Ġpháº§n": 747,
      "ac": 748,
      "iá»ĩm": 749,
      "hÃłnh": 750,
      "Ġcáº£": 751,
      "Ġtuy": 752,
      "Ã³c": 753,
      "Ġtháº¥y": 754,
      "ĠnháºŃn": 755,
      "ĠtÃłi": 756,
      "ĠthÃª": 757,
      "giÃ¡": 758,
      "Ġsinh": 759,
      "uyá»ģn": 760,
      "ĠngoÃłi": 761,
      "Ġtiáº¿p": 762,
      "trá»ĭ": 763,
      "ĠbÃ¡n": 764,
      "trá»įng": 765,
      "cáº§u": 766,
      "Ġ|": 767,
      "ĠnÃło": 768,
      "Ġláº§n": 769,
      "ĠnhÃ¢n": 770,
      "Ġda": 771,
      "Ġcuá»Ļc": 772,
      "Ġgiá»¯": 773,
      "ĠthÃªm": 774,
      "á»Ľ": 775,
      "áº³": 776,
      "Ġtrá»Ł": 777,
      "káº¿": 778,
      "Ġbao": 779,
      "ıi": 780,
      "Ġtham": 781,
      "ĠchuyÃªn": 782,
      "ĠÄĳá»ĭa": 783,
      "biá»ĩt": 784,
      "Ãµ": 785,
      "ĠthÆ°á»Ŀng": 786,
      "viá»ĩc": 787,
      "Ġso": 788,
      "Ġ%": 789,
      "Ġquá»ĳc": 790,
      "Ġmáº·t": 791,
      "á»Ľi": 792,
      "ĠÄĳÆ¡n": 793,
      "ĠhoÃłn": 794,
      "áº¡m": 795,
      "Ġbáº¥t": 796,
      "trÃŃ": 797,
      "á»¯a": 798,
      "á»ĵn": 799,
      "Ġchi": 800,
      "Ġchiáº¿": 801,
      "nay": 802,
      "Ġgiao": 803,
      "Ġnhau": 804,
      "Ġáº£nh": 805,
      "Ġtá»īnh": 806,
      "thá»ĳng": 807,
      "chá»©c": 808,
      "Ġtá»ķng": 809,
      "«ng": 810,
      "Ġin": 811,
      "bá»ĭ": 812,
      "Ġdu": 813,
      "hÃŃch": 814,
      "tiáº¿": 815,
      "hÃºt": 816,
      "Ã¡m": 817,
      "liá»ĩu": 818,
      "á»±a": 819,
      "Ġná»Ļi": 820,
      "tÆ°": 821,
      "ĠÄĳáº¹p": 822,
      "báº£n": 823,
      "ing": 824,
      "tÃ´i": 825,
      "giá»Ľi": 826,
      "Ġ!": 827,
      "ká»": 828,
      "ol": 829,
      "Ġchu": 830,
      "dá»±": 831,
      "toÃłn": 832,
      "Ġtáº¡o": 833,
      "áº§y": 834,
      "ĠyÃªu": 835,
      "ĠÄĳá»ģu": 836,
      "minh": 837,
      "Ġem": 838,
      "Ġvi": 839,
      "á»Łi": 840,
      "xuáº¥t": 841,
      "Ġvá»«a": 842,
      "Ġto": 843,
      "Ġmá»į": 844,
      "ĠmÃłu": 845,
      "ĠÄĳÃ¡nh": 846,
      "Ġngay": 847,
      "Ġi": 848,
      "Ġtráº»": 849,
      "tháº¿": 850,
      "áºŃu": 851,
      "ĠbÃ¬nh": 852,
      "ur": 853,
      "phÃ¡p": 854,
      "áº±m": 855,
      "Ġthá»§": 856,
      "dÃ¢n": 857,
      "triá»ĥn": 858,
      "kho": 859,
      "Ġbá»Łi": 860,
      "Ġmá»įi": 861,
      "ed": 862,
      "ĠtÃŃnh": 863,
      "áº«u": 864,
      "ad": 865,
      "áº¥m": 866,
      "tÃ¡c": 867,
      "Ġhá»ĵ": 868,
      "Ã¨": 869,
      "áº³ng": 870,
      "Ġcáº£m": 871,
      "Ġxuáº¥t": 872,
      "áº¯m": 873,
      "áº¯p": 874,
      "Ġhoáº¡t": 875,
      "ĠtáºŃp": 876,
      "Ġgáº§n": 877,
      "ĠkhÃ³": 878,
      "Ġthi": 879,
      "ĠcÃ¡": 880,
      "Ġráº±ng": 881,
      "Ġ'": 882,
      "ĠchÆ°a": 883,
      "Ġgiáº£m": 884,
      "ÄĳÃ¬nh": 885,
      "Ġdá»ħ": 886,
      "ĠsÃ¡ng": 887,
      "phá»ĳ": 888,
      "sáº£n": 889,
      "Ġmá»¹": 890,
      "vi": 891,
      "cÃ¡ch": 892,
      "Ã©t": 893,
      "chÃŃ": 894,
      "Ã£i": 895,
      "ĠxÃ¢y": 896,
      "un": 897,
      "á»Ŀ": 898,
      "iáº¿u": 899,
      "Ġhiá»ĩu": 900,
      "ra": 901,
      "Ġtuá»ķi": 902,
      "ĠtiÃªu": 903,
      "ĠvÄĥn": 904,
      "hÃ¹": 905,
      "vá»ĭ": 906,
      "Ġthanh": 907,
      "Ġnhanh": 908,
      "Ġta": 909,
      "hÃ©": 910,
      "thá»ĭ": 911,
      "Ġhá»ĩ": 912,
      "eb": 913,
      "Ġchá»ĭ": 914,
      "ĠluÃ´n": 915,
      "Ġtriá»ĩu": 916,
      "Ġmá»Ĺi": 917,
      "Ġbu": 918,
      "ĠphÃ¢n": 919,
      "Ġbáº¯t": 920,
      "ĠcÃ¡i": 921,
      "iÃªm": 922,
      "Ġco": 923,
      "quy": 924,
      "ĠxÃ£": 925,
      "ĠlÃºc": 926,
      "Ġlo": 927,
      "bá»Ļ": 928,
      "áº·p": 929,
      "Ġmuá»ĳn": 930,
      "Ġhoa": 931,
      "ĠtoÃłn": 932,
      "Ġkhiáº¿n": 933,
      "Ġo": 934,
      "Ġxu": 935,
      "lá»±c": 936,
      "uyá»ħn": 937,
      "ĠthÆ°Æ¡ng": 938,
      "Äĳá»ģ": 939,
      "Ġcá»ķ": 940,
      "ĠgÃ¢y": 941,
      "Ġvá»ĭ": 942,
      "thá»§": 943,
      "vá»Ľi": 944,
      "Ġhá»Ļi": 945,
      "´i": 946,
      "hiá»ĩu": 947,
      "ná»Ļi": 948,
      "chá»ī": 949,
      "Ġcung": 950,
      "Ġnhá»ı": 951,
      "ĠdÆ°á»Ľi": 952,
      "Æ°á»¡": 953,
      "Ġ+": 954,
      "ĠÄĳiá»ĥm": 955,
      "vá»±c": 956,
      "thuáºŃt": 957,
      "áº·ng": 958,
      "Ġchá»įn": 959,
      "Ġthay": 960,
      "ĠbÃ³ng": 961,
      "ĠphÆ°Æ¡ng": 962,
      "nghiá»ĩm": 963,
      "dá»±ng": 964,
      "ĠbÃ¡o": 965,
      "ĠÄĳáº¥t": 966,
      "cáº£": 967,
      "Ġdoanh": 968,
      "tiÃªn": 969,
      "ĠhÃ³a": 970,
      "ĠÄĳá»Ļi": 971,
      "Æ°ng": 972,
      "á»Ńa": 973,
      "ÃŃn": 974,
      "Ġnam": 975,
      "Ġcá»Ń": 976,
      "tá»¥c": 977,
      "ĠnÆ¡i": 978,
      "Ġnguyá»ħn": 979,
      "hÃºc": 980,
      "ine": 981,
      "Ġbáº£n": 982,
      "Ġtá»·": 983,
      "Ġchiáº¿c": 984,
      "Ġsá»©c": 985,
      "Æ°á»£t": 986,
      "Ġban": 987,
      "Ġviáº¿t": 988,
      "¥c": 989,
      "hÃ²a": 990,
      "ĠnguyÃªn": 991,
      "phÃŃ": 992,
      "trá»£": 993,
      "sÄ©": 994,
      "il": 995,
      "ĠhÃ£y": 996,
      "¯u": 997,
      "tÃŃch": 998,
      "Ġe": 999,
      "Ġtá»«ng": 1000,
      "nháºŃn": 1001,
      "ĠvÃ´": 1002,
      "ĠtÆ°": 1003,
      "Æ°á»¡ng": 1004,
      "lÃł": 1005,
      "Ġkhoáº£ng": 1006,
      "ĠhÆ°á»Ľng": 1007,
      "Ġ?_": 1008,
      "ĠhÃłnh": 1009,
      "ĠmÃ¹": 1010,
      "váºŃy": 1011,
      "nghá»ĩ": 1012,
      "ká»³": 1013,
      "ĠÄĳÆ°a": 1014,
      "ter": 1015,
      "Ġtáº¥t": 1016,
      "uyáº¿n": 1017,
      "us": 1018,
      "ĠtÃªn": 1019,
      "Ġmá»©c": 1020,
      "Ã³n": 1021,
      "cá»©": 1022,
      "táº¡o": 1023,
      "tÆ°á»£ng": 1024,
      "oo": 1025,
      "ĠÄĳÄĥng": 1026,
      "Ġphong": 1027,
      "ĠtÃ¡c": 1028,
      "tÃŃnh": 1029,
      "Ġtay": 1030,
      "Ġj": 1031,
      "tra": 1032,
      "Ä©a": 1033,
      "ĠcÄĥn": 1034,
      "ÃŃt": 1035,
      "chá»įn": 1036,
      "Ġdiá»ħn": 1037,
      "ĠÃ½": 1038,
      "áº£y": 1039,
      "ĠquÃ½": 1040,
      "Ġhá»Ĺ": 1041,
      "Ä©nh": 1042,
      "á»£i": 1043,
      "Äĳá»ķi": 1044,
      "Ġrá»ĵi": 1045,
      "ĠchÆ¡i": 1046,
      "sá»±": 1047,
      "Ġtp": 1048,
      "ĠchÆ°Æ¡ng": 1049,
      "á»ĵm": 1050,
      "vÄĥn": 1051,
      "máº·t": 1052,
      "Ġhá»£p": 1053,
      "dáº«n": 1054,
      "áº¿p": 1055,
      "Ġnghá»": 1056,
      "ĠdÃ¢n": 1057,
      "Ġgá»į": 1058,
      "ame": 1059,
      "Ġná»ķi": 1060,
      "áº¡y": 1061,
      "Ġgiá»¯a": 1062,
      "ap": 1063,
      "kiá»ĩn": 1064,
      "Ã¬n": 1065,
      "lá»ĭch": 1066,
      "Ġlá»±a": 1067,
      "ĠbÃ©": 1068,
      "hi": 1069,
      "Ġtrá»±c": 1070,
      "Ġcá»Ńa": 1071,
      "Ġcáº¥p": 1072,
      "Ġchia": 1073,
      "iÃªng": 1074,
      "Ġcáº§u": 1075,
      "ag": 1076,
      "Ġngu": 1077,
      "ĠÄĳáº·t": 1078,
      "Ġchiáº¿n": 1079,
      "hÃ¢u": 1080,
      "trang": 1081,
      "ĠhÃ´": 1082,
      "ĠcÃ¢u": 1083,
      "Ġkiá»ĥm": 1084,
      "tá»Ń": 1085,
      "ĠbÃłn": 1086,
      "Ġsá»Ł": 1087,
      "ĠphÃŃ": 1088,
      "Ġká»¹": 1089,
      "á»įc": 1090,
      "ĠtÆ°Æ¡ng": 1091,
      "Ġai": 1092,
      "Ġmáº¹": 1093,
      "Ġthá»ĥ": 1094,
      "Äĳáº¡o": 1095,
      "Ġkháº£": 1096,
      "á»Ĺ": 1097,
      "ĠÄĳá»Ļ": 1098,
      "Ġmáº«u": 1099,
      "Ġtiáº¿ng": 1100,
      "uyá»ĩt": 1101,
      "sá»ĳng": 1102,
      "Ġchá»ĳng": 1103,
      "thÃ´ng": 1104,
      "Ã¡u": 1105,
      "ĠÄĳá»ĵ": 1106,
      "ĠnhÃ¬n": 1107,
      "one": 1108,
      "há»ĵ": 1109,
      "os": 1110,
      "Äĳá»ĵng": 1111,
      "ĠcÃ¢y": 1112,
      "Ġdi": 1113,
      "Ġchuyá»ĥn": 1114,
      "Ġvu": 1115,
      "ĠÄĳÃº": 1116,
      "hÃ´": 1117,
      "Ġ>": 1118,
      "ıe": 1119,
      "Ġsá»ĳng": 1120,
      "ĠtráºŃn": 1121,
      "Ġmáº¡nh": 1122,
      "Ġba": 1123,
      "ĠbÃł": 1124,
      "iáº¿m": 1125,
      "tu": 1126,
      "Ġmá»Ł": 1127,
      "Ã²n": 1128,
      "Äĳáº¡i": 1129,
      "Ġgáº·p": 1130,
      "báº£o": 1131,
      "phÃ²ng": 1132,
      "ĠÄĳÃ´ng": 1133,
      "Ġca": 1134,
      "ĠphÃ¹": 1135,
      "Ġnguá»ĵn": 1136,
      "Ġchung": 1137,
      "Ġtruyá»ģn": 1138,
      "Äĳo": 1139,
      "cm": 1140,
      "cÃ¹ng": 1141,
      "Ġsang": 1142,
      "hÃ©p": 1143,
      "nghá»": 1144,
      "ĳi": 1145,
      "á»¹": 1146,
      "sá»Ł": 1147,
      "Ġphim": 1148,
      "biáº¿n": 1149,
      "ĠlÆ°u": 1150,
      "co": 1151,
      "ĠÄĳáº§y": 1152,
      "qua": 1153,
      "Ãłu": 1154,
      "re": 1155,
      "ĠbÆ°á»Ľc": 1156,
      "Ġtinh": 1157,
      "dá»ĭch": 1158,
      "Ġhuyá»ĩn": 1159,
      "Ġgiá»Ľi": 1160,
      "Ġ|_": 1161,
      "ĠÄĳÃºng": 1162,
      "Ġnay": 1163,
      "áº©u": 1164,
      "doanh": 1165,
      "há»¯u": 1166,
      "khá»": 1167,
      "Ġtá»ĳi": 1168,
      "Ġgiá»Ŀ": 1169,
      "ĠdÃ²ng": 1170,
      "Ã¢ng": 1171,
      "tiáº¿p": 1172,
      "£i": 1173,
      "ĠkhÃ¡": 1174,
      "chÃŃnh": 1175,
      "Ġsao": 1176,
      "Ġgame": 1177,
      "bÃ¡o": 1178,
      "tiáº¿t": 1179,
      "Ġquáº£n": 1180,
      "ĠtháºŃt": 1181,
      "cÃ¡o": 1182,
      "ĠquáºŃn": 1183,
      "thoáº¡i": 1184,
      "á»«ng": 1185,
      "ĠÄĳáº£m": 1186,
      "ĠchÃ¢n": 1187,
      "Ġmáº¥t": 1188,
      "hÃ³ng": 1189,
      "sáº¯c": 1190,
      "há»Ļ": 1191,
      "and": 1192,
      "pháº§n": 1193,
      "ĠsÃ¢n": 1194,
      "©a": 1195,
      "ĠváºŃn": 1196,
      "ĠÄĳáº¡t": 1197,
      "káº¿t": 1198,
      "Ġváº¥n": 1199,
      "Ġcuá»ĳi": 1200,
      "Ġthuá»ĳc": 1201,
      "ĠÄĳa": 1202,
      "bÃ¬nh": 1203,
      "Ġnhu": 1204,
      "láºŃp": 1205,
      "vá»ĩ": 1206,
      "áºµ": 1207,
      "Ã³m": 1208,
      "Ġquáº£ng": 1209,
      "ĠrÃµ": 1210,
      "thÃ¢n": 1211,
      "te": 1212,
      "ĠvÃ¹ng": 1213,
      "áºŃm": 1214,
      "ĠngÃłnh": 1215,
      "nÃło": 1216,
      "ĠmÃ³n": 1217,
      "cháº¥t": 1218,
      "ĠmÃ¹a": 1219,
      "diá»ĩn": 1220,
      "Ġcam": 1221,
      "Ġthuá»Ļc": 1222,
      "thÆ°á»Ŀng": 1223,
      "khÃ¡ch": 1224,
      "Ġháº¿t": 1225,
      "ĠhÃ´m": 1226,
      "thá»Ŀi": 1227,
      "Ġgá»įi": 1228,
      "Ġquyáº¿t": 1229,
      "line": 1230,
      "ew": 1231,
      "thÆ°Æ¡ng": 1232,
      "ĠthÃŃch": 1233,
      "sÃ¡ch": 1234,
      "ĠÃŃt": 1235,
      "Ġtiáº¿n": 1236,
      "ĠváºŃy": 1237,
      "Ġá»©ng": 1238,
      "cháº¿": 1239,
      "dung": 1240,
      "mÃ¡y": 1241,
      "Ġbá»ı": 1242,
      "ĠlÃ£": 1243,
      "sÃ¡t": 1244,
      "Ġvn": 1245,
      "ĠphÃ¡p": 1246,
      "ĠvÃ²ng": 1247,
      "Ãºt": 1248,
      "sáº»": 1249,
      "trung": 1250,
      "ĠnÃ¢ng": 1251,
      "Ġláº¥y": 1252,
      "láº¡i": 1253,
      "máº¯t": 1254,
      "ion": 1255,
      "Ġsu": 1256,
      "so": 1257,
      "ĠÄĳÃ¡": 1258,
      "váº¥n": 1259,
      "váºŃt": 1260,
      "ĠgiÃ¡o": 1261,
      "ĠdÃłnh": 1262,
      "cá»©u": 1263,
      "áº¡p": 1264,
      "ĠphÃŃa": 1265,
      "nháºŃt": 1266,
      "Ġchuáº©n": 1267,
      "Ġlá»Ŀi": 1268,
      "iá»ĩp": 1269,
      "Ġtráº£": 1270,
      "Ġtho": 1271,
      "Ġlá»Ľp": 1272,
      "nÆ°á»Ľc": 1273,
      "ĠnháºŃt": 1274,
      "viá»ĩn": 1275,
      "ĠlÃ½": 1276,
      "ĠmÃ´i": 1277,
      "ĠnhÃ©": 1278,
      "Ġmá»¥c": 1279,
      "ná»¯": 1280,
      "táºŃp": 1281,
      "dá»¥c": 1282,
      "chu": 1283,
      "hÆ°á»Łng": 1284,
      "ĠÄĳáº¥u": 1285,
      "uyáº¿t": 1286,
      "Ġcháº¿": 1287,
      "ĠÄĳá»Ļc": 1288,
      "ĠvÃłng": 1289,
      "Ġchá»¯": 1290,
      "ĠÃ¡p": 1291,
      "ĠÃ´": 1292,
      "Ġvá»¥": 1293,
      "ĠkÃ©": 1294,
      "ĠÂ": 1295,
      "Ġvui": 1296,
      "Ġná»¯": 1297,
      "cÆ¡": 1298,
      "sao": 1299,
      "phÆ°Æ¡ng": 1300,
      "Ġchá»©ng": 1301,
      "ĠriÃªng": 1302,
      "ĠÆ°u": 1303,
      "Ġkáº¿": 1304,
      "Ġcháº¯c": 1305,
      "lá»ĩ": 1306,
      "ex": 1307,
      "iv": 1308,
      "toÃ¡n": 1309,
      "ip": 1310,
      "chÆ¡i": 1311,
      "áº©y": 1312,
      "ec": 1313,
      "Ġnáº±m": 1314,
      "Ġáº¥y": 1315,
      "Ġnháº±m": 1316,
      "Ġdanh": 1317,
      "phá»¥c": 1318,
      "dÆ°á»¡ng": 1319,
      "ĠÄĳÃ´i": 1320,
      "Ġtuáº§n": 1321,
      "hoáº¡ch": 1322,
      "tráº¡ng": 1323,
      "nd": 1324,
      "um": 1325,
      "ĠhÃ²a": 1326,
      "ĠchÃ¢u": 1327,
      "tiáº¿ng": 1328,
      "Ãºi": 1329,
      "Ġlá»£i": 1330,
      "Ġkiáº¿n": 1331,
      "Ġ=": 1332,
      "thanh": 1333,
      "Ġchiá»ģu": 1334,
      "Ġbiá»ĥn": 1335,
      "Ã³p": 1336,
      "nháº¥t": 1337,
      "Ġxin": 1338,
      "dÃłng": 1339,
      "Ġná»ģn": 1340,
      "ig": 1341,
      "ent": 1342,
      "ĠbÃ¡c": 1343,
      "ĠngÃ¢n": 1344,
      "vn": 1345,
      "trÆ°á»Łng": 1346,
      "ĠdÃłi": 1347,
      "Ġráº»": 1348,
      "á»Ńi": 1349,
      "tay": 1350,
      "Ġá»§": 1351,
      "ĠtrÃ¡i": 1352,
      "Ġtuyá»ĩt": 1353,
      "Ãªm": 1354,
      "ĠÄĳÃ¡ng": 1355,
      "tá»ĳ": 1356,
      "dÆ°Æ¡ng": 1357,
      "ĠÄĳÃł": 1358,
      "giáº£n": 1359,
      "ban": 1360,
      "Ġcá»¥": 1361,
      "ĠÄĳá»ķ": 1362,
      "Ġcáº£nh": 1363,
      "nghá»ĭ": 1364,
      "ĠváºŃt": 1365,
      "tÃŃn": 1366,
      "lan": 1367,
      "Ġngoáº¡i": 1368,
      "suáº¥t": 1369,
      "luáºŃn": 1370,
      "ĠhÃ£ng": 1371,
      "á»ĭp": 1372,
      "thÃŃch": 1373,
      "ĠnÄĥng": 1374,
      "Ġkhai": 1375,
      "ĠtÃ¢m": 1376,
      "á»¡": 1377,
      "thiá»ĩn": 1378,
      "ĠthÃ¢n": 1379,
      "quyáº¿t": 1380,
      "ĠÃ¢m": 1381,
      "tá»©c": 1382,
      "Ã³i": 1383,
      "ĠmÃłn": 1384,
      "Ġxuá»ĳng": 1385,
      "Ġgá»Ńi": 1386,
      "ĠgÃ¡i": 1387,
      "ĠnhÃ³m": 1388,
      "Ġtiáº¿t": 1389,
      "Ġthiáº¿u": 1390,
      "thiáº¿t": 1391,
      "Ġdáº«n": 1392,
      "khÃŃ": 1393,
      "Ġus": 1394,
      "Æ°Æ¡i": 1395,
      "ĠthiÃªn": 1396,
      "ĠxÃ¡c": 1397,
      "ĠâĢľ": 1398,
      "ĠÄĳá»§": 1399,
      "á»įn": 1400,
      "kiáº¿n": 1401,
      "Ġná»¯a": 1402,
      "Ã£n": 1403,
      "Ġxá»Ń": 1404,
      "vid": 1405,
      "Ġghi": 1406,
      "Ġcom": 1407,
      "hÃª": 1408,
      "ĠlÃ¢u": 1409,
      "táº¡i": 1410,
      "ĠÄĳÃ³ng": 1411,
      "iá»ħ": 1412,
      "ĠsiÃªu": 1413,
      "la": 1414,
      "Ġhá»ıi": 1415,
      "Ġhá»Ļ": 1416,
      "nghÄ©a": 1417,
      "áº§ng": 1418,
      "kÃ½": 1419,
      "ĠhÃłn": 1420,
      "Ġrá»Ļng": 1421,
      "Ġhiá»ĥu": 1422,
      "kháº©u": 1423,
      "ite": 1424,
      "Äĳáº¹p": 1425,
      "Ġphá»¥c": 1426,
      "ĠâĢĿ": 1427,
      "giá»Ŀ": 1428,
      "Ġcá»±c": 1429,
      "cáº£nh": 1430,
      "Ġcá»Ļng": 1431,
      "Ġnghe": 1432,
      "ĠthÃ¡i": 1433,
      "Ġká»ĥ": 1434,
      "ĠÄĳÃ¢u": 1435,
      "nÃªn": 1436,
      "ĠphÃºt": 1437,
      "ĠphiÃªn": 1438,
      "Ġbáº¯c": 1439,
      "ĠnháºŃp": 1440,
      "ĠkÃŃch": 1441,
      "tÆ°á»Łng": 1442,
      "ĠÄĳau": 1443,
      "ĠÃ¡o": 1444,
      "Ġká»³": 1445,
      "Ġvá»ĳn": 1446,
      "iá»ģm": 1447,
      "tÃ¬nh": 1448,
      "chá»§": 1449,
      "Ġvay": 1450,
      "Ġuy": 1451,
      "Ġgiáº¥y": 1452,
      "ĠdÃ¹": 1453,
      "ĠÄĳá»įc": 1454,
      "táº£i": 1455,
      "Ġtráº¯ng": 1456,
      "tá»ĭch": 1457,
      "ĠchÄĥm": 1458,
      "Ġgiá»ĳng": 1459,
      "gá»ĵm": 1460,
      "lá»£i": 1461,
      "ÄĳoÃłn": 1462,
      "Ġphá»ķ": 1463,
      "Äĳiá»ĩn": 1464,
      "ĠÄĳá»Ļng": 1465,
      "á»ī": 1466,
      "ĠgiÃ¡m": 1467,
      "Ġháº£i": 1468,
      "chuyá»ĥn": 1469,
      "Ġmáº·c": 1470,
      "Ġon": 1471,
      "ĠbÃ¡nh": 1472,
      "Ġlá»ħ": 1473,
      "ĠthuÃª": 1474,
      "thÆ°": 1475,
      "ĠcÃ¢n": 1476,
      "me": 1477,
      "Ġkim": 1478,
      "ĠÄĳoÃłn": 1479,
      "ĠÄĳÃło": 1480,
      "Ġmáº¯t": 1481,
      "hiá»ĥu": 1482,
      "Ġnghá»ĩ": 1483,
      "cÆ°": 1484,
      "á»Ĺi": 1485,
      "st": 1486,
      "Ġtráº§n": 1487,
      "Ġnguy": 1488,
      "phone": 1489,
      "Ġmiá»ħn": 1490,
      "Ġcá»©": 1491,
      "Ġnhiá»ĩt": 1492,
      "nhÆ°": 1493,
      "khai": 1494,
      "ĠkhÃ³a": 1495,
      "ÄĳÃ¡": 1496,
      "Łi": 1497,
      "Ġdiá»ĩn": 1498,
      "Ġtráº£i": 1499,
      "Ġtiá»ĩn": 1500,
      "Ġchá»©c": 1501,
      "Ġtriá»ĥn": 1502,
      "bay": 1503,
      "Ġdáº§u": 1504,
      "nháºŃp": 1505,
      "ĠkÃ¨": 1506,
      "Ġlao": 1507,
      "Ġthe": 1508,
      "Ġbáº£ng": 1509,
      "Ġma": 1510,
      "mu": 1511,
      "háº¡n": 1512,
      "ngÆ°á»Ŀi": 1513,
      "Ġvá»£": 1514,
      "Ġxanh": 1515,
      "Ġxa": 1516,
      "máº¡i": 1517,
      "ĠnghiÃªn": 1518,
      "tiÃªu": 1519,
      "Ġáº¥n": 1520,
      "Ġlá»ĭch": 1521,
      "Ġmáº¡ng": 1522,
      "ĠtÃ¢y": 1523,
      "chá»©ng": 1524,
      "ĠngÃ´i": 1525,
      "vá»įng": 1526,
      "Ġgá»Ĺ": 1527,
      "má»¹": 1528,
      "ĠÄĳo": 1529,
      "giáº£": 1530,
      "phá»§": 1531,
      "cáº£m": 1532,
      "uÃ´i": 1533,
      "Ġweb": 1534,
      "ninh": 1535,
      "cu": 1536,
      "com": 1537,
      "Ġbuá»ķi": 1538,
      "bá»ĳ": 1539,
      "Ġbiáº¿n": 1540,
      "Ġhu": 1541,
      "Ġkiá»ĥu": 1542,
      "quyá»ģn": 1543,
      "Ġmong": 1544,
      "bi": 1545,
      "Ġ&": 1546,
      "Ġkhá»ıe": 1547,
      "Ġcáº£i": 1548,
      "Ġuá»ĳng": 1549,
      "máº¡nh": 1550,
      "ĠtÃ¹": 1551,
      "giÃ¡c": 1552,
      "Ġmo": 1553,
      "Ġcháº¡y": 1554,
      "chÃ³ng": 1555,
      "iá»ħm": 1556,
      "ĠbÃŃ": 1557,
      "Ġkhá»ıi": 1558,
      "ĠÄĳá»Ŀi": 1559,
      "su": 1560,
      "¨n": 1561,
      "Ġsáº¡ch": 1562,
      "Ġyáº¿u": 1563,
      "ly": 1564,
      "bá»ĩnh": 1565,
      "khÄĥn": 1566,
      "Ġmay": 1567,
      "Ġsá»¯a": 1568,
      "Ġnhá»Ŀ": 1569,
      "ĠÄĳÃ¡p": 1570,
      "khoa": 1571,
      "ĠnÃ´ng": 1572,
      "thiá»ĩu": 1573,
      "Ġmiá»ģn": 1574,
      "ĠcÃłng": 1575,
      "giÃ¡o": 1576,
      "Ġ<": 1577,
      "Ġquyá»ģn": 1578,
      "tháº¥t": 1579,
      "Ġsá»Ńa": 1580,
      "Ġbiá»ĥu": 1581,
      "Ġá»ķ": 1582,
      "tháº§n": 1583,
      "lÃ²ng": 1584,
      "ĠÄĳá»ĭnh": 1585,
      "Ġtiá»ĥu": 1586,
      "ĠhoÃłng": 1587,
      "ĠÄĳáº£ng": 1588,
      "sung": 1589,
      "Ġre": 1590,
      "pp": 1591,
      "ĠvÆ°á»£t": 1592,
      "Ġnghá»ī": 1593,
      "Ġháº¥p": 1594,
      "art": 1595,
      "Ġchuyá»ĩn": 1596,
      "Ġviet": 1597,
      "á»Ļn": 1598,
      "se": 1599,
      "ĠmÃ´": 1600,
      "Ġcá»ĳ": 1601,
      "pt": 1602,
      "Äĳáº¥u": 1603,
      "ĠtrÃ¬nh": 1604,
      "Ġgá»ĵm": 1605,
      "ik": 1606,
      "Ġ[": 1607,
      "nhiá»ĩm": 1608,
      "Ġkhoa": 1609,
      "tá»±": 1610,
      "ook": 1611,
      "Ġxáº£y": 1612,
      "ĠquÃ¢n": 1613,
      "Äĳoáº¡n": 1614,
      "ĠdÃ¢y": 1615,
      "Ġbá»ķ": 1616,
      "Ġcáº¡nh": 1617,
      "ĠlÃ£nh": 1618,
      "Ġthá»Ń": 1619,
      "Ġtháº©m": 1620,
      "ıng": 1621,
      "ıa": 1622,
      "Ġ]": 1623,
      "._": 1624,
      "Äĳá»©c": 1625,
      "Æ¡m": 1626,
      "Äĳáº·t": 1627,
      "luáºŃt": 1628,
      "Ġngá»§": 1629,
      "dáº¡ng": 1630,
      "á»¥ng": 1631,
      "Ġduy": 1632,
      "ark": 1633,
      "ĠÄĳá»©ng": 1634,
      "sÆ¡n": 1635,
      "tÃ´": 1636,
      "Ġpháº£n": 1637,
      "bo": 1638,
      "pháº¡m": 1639,
      "ĠÄĳÃłn": 1640,
      "ĠlÃª": 1641,
      "thá»±c": 1642,
      "ĠnÃ³ng": 1643,
      "ul": 1644,
      "sÃ³c": 1645,
      "hiá»ĥm": 1646,
      "mt": 1647,
      "di": 1648,
      "Ġtranh": 1649,
      "phÃ¡t": 1650,
      "thÃ¡i": 1651,
      "ĠtÃŃch": 1652,
      "Ġtháº¥p": 1653,
      "Ġchá»ĭu": 1654,
      "ak": 1655,
      "phÃ©p": 1656,
      "Äĳá»Ŀi": 1657,
      "hÆ°á»Ľng": 1658,
      "ĠluáºŃt": 1659,
      "Ġcháº¿t": 1660,
      "Ġz": 1661,
      "ÄĳÃ¢y": 1662,
      "ff": 1663,
      "nguyÃªn": 1664,
      "Äĳá»§": 1665,
      "ĠphÃ³": 1666,
      "Ġal": 1667,
      "áº·n": 1668,
      "hÃ´n": 1669,
      "ĠkhÃ¡m": 1670,
      "Ġnháº¹": 1671,
      "Ġcovid": 1672,
      "Ġub": 1673,
      "ĠtÃ¢n": 1674,
      "khá»ıe": 1675,
      "era": 1676,
      "Ġkhá»Łi": 1677,
      "ĠÄĳá»©c": 1678,
      "tháº¯ng": 1679,
      "ĠÄĳÃ¨n": 1680,
      "Ġ!_": 1681,
      "long": 1682,
      "ess": 1683,
      "yáº¿u": 1684,
      "yÃªu": 1685,
      "ĠtrÃ¡nh": 1686,
      "Ġcháº³ng": 1687,
      "kiáº¿m": 1688,
      "Ġngon": 1689,
      "ĠtáºŃn": 1690,
      "Ġusd": 1691,
      "Äĳá»ĵ": 1692,
      "xuyÃªn": 1693,
      "Ġá»§y": 1694,
      "hu": 1695,
      "niÃªn": 1696,
      "Ġtai": 1697,
      "ĠÄĳem": 1698,
      "ĠlÆ°á»£ng": 1699,
      "Ġtáº¥n": 1700,
      "ity": 1701,
      "Äĳá»ĳc": 1702,
      "ĠlÄ©nh": 1703,
      "ĠviÃªm": 1704,
      "á»Ľm": 1705,
      "máº¡ng": 1706,
      "Ġquáº§n": 1707,
      "Ġvai": 1708,
      "ĠtrÃ²": 1709,
      "cháº¯n": 1710,
      "ĠsÃ¢u": 1711,
      "ĠkÃ©o": 1712,
      "Ġcl": 1713,
      "ĠcáºŃp": 1714,
      "tt": 1715,
      "áºµn": 1716,
      "tiáº¿n": 1717,
      "ĠmÃ£": 1718,
      "ĠkhÃŃ": 1719,
      "Ġgiai": 1720,
      "Ġláº¯p": 1721,
      "trÃ¬": 1722,
      "if": 1723,
      "Ġtuyá»ĥn": 1724,
      "ĠthÆ°": 1725,
      "bu": 1726,
      "á»«": 1727,
      "Ġnáº·ng": 1728,
      "Ġháº¡": 1729,
      "Ġq": 1730,
      "Ġtáº·ng": 1731,
      "ĠtÃ²": 1732,
      "Ġ*": 1733,
      "Ġpháº¡m": 1734,
      "sÆ°": 1735,
      "loáº¡i": 1736,
      "trÃ²": 1737,
      "tÃłi": 1738,
      "ĠÄĳÃªm": 1739,
      "biá»ĥu": 1740,
      "kháº£o": 1741,
      "ĠlÃ²ng": 1742,
      "da": 1743,
      "ĠÂ»": 1744,
      "Ġthá»§y": 1745,
      "Ġnhiá»ĩm": 1746,
      "Ġnghiá»ģn": 1747,
      "Å©i": 1748,
      "Ġam": 1749,
      "Ġháº¡n": 1750,
      "Ġtá»§": 1751,
      "ts": 1752,
      "ail": 1753,
      "Ġhy": 1754,
      "Ġquáº£": 1755,
      "giang": 1756,
      "Ġquay": 1757,
      "dÃłi": 1758,
      "báº±ng": 1759,
      "ĠtÃ¹y": 1760,
      "á»Ľn": 1761,
      "Ãµi": 1762,
      "ba": 1763,
      "Ġgh": 1764,
      "ĠÄĳá»ķi": 1765,
      "Ġbá»ĳ": 1766,
      "cáº¡nh": 1767,
      "hÃ¨": 1768,
      "chuyá»ĩn": 1769,
      "ĠsÃ¡ch": 1770,
      "má»¥c": 1771,
      "khoáº£n": 1772,
      "ĠnÃłng": 1773,
      "tranh": 1774,
      "sáº¡n": 1775,
      "Ġtrao": 1776,
      "ĠnghÄ©": 1777,
      "ĠÄĳÃ´": 1778,
      "Ġsá»Ľm": 1779,
      "ĠlÆ°á»£t": 1780,
      "hoáº¡t": 1781,
      "Ġtáº§ng": 1782,
      "Ãºng": 1783,
      "Ġvá»ĩ": 1784,
      "tiá»ĩn": 1785,
      "cÆ°á»Ŀng": 1786,
      "tÆ°á»Ľng": 1787,
      "Ġhá»ĵng": 1788,
      "phÃºc": 1789,
      "ĠcÃł": 1790,
      "huy": 1791,
      "sá»Ń": 1792,
      "tuyáº¿n": 1793,
      "Ġ<_": 1794,
      "Ġsáºµn": 1795,
      "Ġháº¡t": 1796,
      "site": 1797,
      "Ġtháº¯ng": 1798,
      "Ġdáº¥u": 1799,
      "ĠcÅ©": 1800,
      "Ġchá»©a": 1801,
      "hÃ¢m": 1802,
      "_|": 1803,
      "ĠgÃ³p": 1804,
      "ĠsÆ¡n": 1805,
      "ÄĳÃ´ng": 1806,
      "ie": 1807,
      "cáºŃp": 1808,
      "á»ģm": 1809,
      "ou": 1810,
      "thao": 1811,
      "Ġsai": 1812,
      "Ġsho": 1813,
      "Ġubnd": 1814,
      "xÃ¡c": 1815,
      "ĠngÄĥn": 1816,
      "Ġbáº§u": 1817,
      "Ġcáº¯t": 1818,
      "ĠÃ¡nh": 1819,
      "niá»ĩm": 1820,
      "Ġhá»ĵi": 1821,
      "Ã£o": 1822,
      "ĠtÃłu": 1823,
      "má»ģm": 1824,
      "cÃłng": 1825,
      "ĠtÃ³c": 1826,
      "ack": 1827,
      "Ġbay": 1828,
      "Äĳá»ĳi": 1829,
      "Ġlinh": 1830,
      "ĠláºŃp": 1831,
      "ná»ĳi": 1832,
      "Ġnhá»Ľ": 1833,
      "Ġtáº¿t": 1834,
      "chá»īnh": 1835,
      "áºµng": 1836,
      "mÃ´n": 1837,
      "ard": 1838,
      "kiá»ĩm": 1839,
      "bÃłn": 1840,
      "Ġtop": 1841,
      "url": 1842,
      "viá»ĩt": 1843,
      "cá»±c": 1844,
      "net": 1845,
      "ore": 1846,
      "Ġdáº¡ng": 1847,
      "ĠvÃłi": 1848,
      "quÃ¢n": 1849,
      "ver": 1850,
      "bÃ¡n": 1851,
      "phÃ¡": 1852,
      "dÃ¹": 1853,
      "ĠtrÆ°á»Łng": 1854,
      "ĠvÅ©": 1855,
      "xu": 1856,
      "sá»©c": 1857,
      "á»ĥ": 1858,
      "Ġchá»ĵng": 1859,
      "ĠtÃŃn": 1860,
      "ĠtuyÃªn": 1861,
      "phÃº": 1862,
      "ce": 1863,
      "áº¹n": 1864,
      "ĠlÃ¡": 1865,
      "Ġthá»ĭt": 1866,
      "ĠcÃº": 1867,
      "ĠmÃ¡u": 1868,
      "ĠthuáºŃn": 1869,
      "Ġsuy": 1870,
      "ĠquÃ¡n": 1871,
      "Ġonline": 1872,
      "náºµng": 1873,
      "po": 1874,
      "chuáº©n": 1875,
      "ĠhÆ°Æ¡ng": 1876,
      "soÃ¡t": 1877,
      "Ġtrá»ĭ": 1878,
      "ck": 1879,
      "ord": 1880,
      "ĠtÃ²a": 1881,
      "Ġlá»±c": 1882,
      "hoa": 1883,
      "lai": 1884,
      "trá»Ŀi": 1885,
      "ĠthÃº": 1886,
      "ĠÄĳen": 1887,
      "ĠÄĳá»ı": 1888,
      "con": 1889,
      "ĠvÃ©": 1890,
      "Ġbáº¿p": 1891,
      "dÃ¹ng": 1892,
      "ĠphÆ°á»Ŀng": 1893,
      "ĠphÃº": 1894,
      "cá»¥": 1895,
      "quang": 1896,
      "Ġháº§u": 1897,
      "Ġtáº§m": 1898,
      "báºŃt": 1899,
      "Ġtá»Ń": 1900,
      "est": 1901,
      "Ġchuyáº¿n": 1902,
      "xÃºc": 1903,
      "Ġtrai": 1904,
      "ĠcÃ¡n": 1905,
      "ĠquÃł": 1906,
      "ngá»Ŀ": 1907,
      "trÃºc": 1908,
      "Ġsáº¯p": 1909,
      "chÃº": 1910,
      "Ġwebsite": 1911,
      "Ġchá»Ĺ": 1912,
      "khu": 1913,
      "ĠkÃŃnh": 1914,
      "ĠkhÃ´": 1915,
      "ngá»¯": 1916,
      "háºŃu": 1917,
      "Ġno": 1918,
      "Ġtháº»": 1919,
      "ca": 1920,
      "Ġtruy": 1921,
      "lá»Ŀi": 1922,
      "lá»Ľn": 1923,
      "háº¡i": 1924,
      "Ġá»ķn": 1925,
      "thÆ°á»Ľc": 1926,
      "Äĳa": 1927,
      "á»¥n": 1928,
      "danh": 1929,
      "Ġcan": 1930,
      "Ġthuáº¿": 1931,
      "ĠrÄĥng": 1932,
      "hoÃłng": 1933,
      "lá»Ļ": 1934,
      "ĠtháºŃm": 1935,
      "ĠhÃłi": 1936,
      "ĠyÃªn": 1937,
      "hÃł": 1938,
      "Ã©p": 1939,
      "Ġvid": 1940,
      "háº¿t": 1941,
      "ĠthÆ°á»Łng": 1942,
      "ĠsÃ´ng": 1943,
      "Ġchá»¯a": 1944,
      "mÃ£": 1945,
      "Ġiphone": 1946,
      "ngoÃłi": 1947,
      "linh": 1948,
      "Ġmáº¯c": 1949,
      "Ġtuyáº¿n": 1950,
      "Æ°á»Ŀn": 1951,
      "ĠsÃłn": 1952,
      "Ġbá»ģn": 1953,
      "Ġkhuyáº¿n": 1954,
      "de": 1955,
      "á»įt": 1956,
      "ĠthÄĥm": 1957,
      "ĠkÃ½": 1958,
      "vá»Ŀi": 1959,
      "hcm": 1960,
      "Ġgmt": 1961,
      "Ġtháº§n": 1962,
      "Ġtháº¥t": 1963,
      "truyá»ģn": 1964,
      "ĠxÃ©t": 1965,
      "Ġbá»©c": 1966,
      "muá»ĳn": 1967,
      "Ã´m": 1968,
      "dÃ¡ng": 1969,
      "Ġvideo": 1970,
      "ĠthÃ´i": 1971,
      "ĠvÃŃ": 1972,
      "láº¡c": 1973,
      "Ġkhá»ĳi": 1974,
      "sÆ¡": 1975,
      "Ġar": 1976,
      "Ġtháº§y": 1977,
      "ĠlÃłn": 1978,
      "Ġphá»ĳ": 1979,
      "av": 1980,
      "ate": 1981,
      "ĠsÆ¡": 1982,
      "Ġngá»ĵi": 1983,
      "bá»ı": 1984,
      "phong": 1985,
      "tinh": 1986,
      "Ġnga": 1987,
      "Ġsp": 1988,
      "xe": 1989,
      "Ġgiáº£": 1990,
      "Ġcha": 1991,
      "Ġká»·": 1992,
      "tháº¥y": 1993,
      "Ġtáº¥m": 1994,
      "Ġand": 1995,
      "Ġle": 1996,
      "ĠnghÄ©a": 1997,
      "ebook": 1998,
      "ĠtÆ°Æ¡i": 1999,
      "Ġsh": 2000,
      "xuÃ¢n": 2001,
      "Äĳáº£o": 2002,
      "Ġphá»ĳi": 2003,
      "ĠháºŃu": 2004,
      "ĠnghiÃªm": 2005,
      "ĠkÃ¨m": 2006,
      "tháº£o": 2007,
      "Ã¨o": 2008,
      "há»ĵi": 2009,
      "Ġbá»Ļt": 2010,
      "ma": 2011,
      "ĠnuÃ´i": 2012,
      "thá»§y": 2013,
      "Ġchá»¥": 2014,
      "mi": 2015,
      "Ġtrá»įng": 2016,
      "ĠtrÃł": 2017,
      "ink": 2018,
      "Ġhot": 2019,
      "Äĳáº¥t": 2020,
      "chá»¯": 2021,
      "cao": 2022,
      "Ġcáº§m": 2023,
      "Ġpro": 2024,
      "age": 2025,
      "Ġlá»Ĺi": 2026,
      "thuá»Ļc": 2027,
      "luyá»ĩn": 2028,
      "Ġchá»¥p": 2029,
      "Ġmá»ĳi": 2030,
      "Ġcamera": 2031,
      "sÃ¡ng": 2032,
      "Ġnháº¡c": 2033,
      "ers": 2034,
      "Ã³t": 2035,
      "ort": 2036,
      "Ġdá»±a": 2037,
      "ĠbiÃªn": 2038,
      "ÄĳÃ¡o": 2039,
      "thuáºŃn": 2040,
      "be": 2041,
      "ue": 2042,
      "Ġváº»": 2043,
      "Ġnhá»±a": 2044,
      "ĠgÃł": 2045,
      "Ġthai": 2046,
      "Ġtá»ī": 2047,
      "diá»ħn": 2048,
      "ass": 2049,
      "up": 2050,
      "Ġdá»¯": 2051,
      "tiá»ģn": 2052,
      "Ġthá»ĳng": 2053,
      "dÃµi": 2054,
      "_â": 2055,
      "cÃ²n": 2056,
      "ngá»įc": 2057,
      "Ġnáº¯m": 2058,
      "vÃ¬": 2059,
      "pháºŃn": 2060,
      "ber": 2061,
      "ĠcáºŃu": 2062,
      "Ġinter": 2063,
      "Ġkem": 2064,
      "Ġnháº¥n": 2065,
      "Ġhome": 2066,
      "máº¹": 2067,
      "Ġtá»ĳc": 2068,
      "mo": 2069,
      "ĠtÃ¡i": 2070,
      "Ġnghá»ģ": 2071,
      "ngÅ©": 2072,
      "Ġtim": 2073,
      "Ġxung": 2074,
      "Ġgháº¿": 2075,
      "Ġminh": 2076,
      "Ã¹i": 2077,
      "top": 2078,
      "chá»ĭ": 2079,
      "Æ°á»£u": 2080,
      "ÄĳÃ³": 2081,
      "tv": 2082,
      "láº¡nh": 2083,
      "acebook": 2084,
      "ĠnÃ©t": 2085,
      "ĠmÃ¹i": 2086,
      "hÆ°Æ¡ng": 2087,
      "mÃ¡i": 2088,
      "Ġlong": 2089,
      "ua": 2090,
      "ĠtÃºi": 2091,
      "ĠkÃª": 2092,
      "phá»ĳi": 2093,
      "_Â": 2094,
      "Ġtáº£i": 2095,
      "ĠÄĳáº¡o": 2096,
      "Ġháº¯n": 2097,
      "ÄĳÆ°á»Ŀng": 2098,
      "khÃ´ng": 2099,
      "Ġnáº¯ng": 2100,
      "Ġro": 2101,
      "lv": 2102,
      "Ġthoáº£i": 2103,
      "thÃ¡c": 2104,
      "Ġxo": 2105,
      "ĠtrÃ¡ch": 2106,
      "ĠhÃºt": 2107,
      "Ġ#": 2108,
      "Ġrau": 2109,
      "ir": 2110,
      "Ġmá»¥n": 2111,
      "ĠÄĳá»«ng": 2112,
      "ĠÄĳÃ³n": 2113,
      "Ġcoi": 2114,
      "Ġláº¡nh": 2115,
      "ĠtÃ´n": 2116,
      "Ġhá»įp": 2117,
      "ĠlÆ°Æ¡ng": 2118,
      "Äĳá»Ļi": 2119,
      "ĠrÆ°á»£u": 2120,
      "Ġmáº¥y": 2121,
      "máº½": 2122,
      "Ġsuá»ĳt": 2123,
      "ÄĳoÃ¡n": 2124,
      "Ġnha": 2125,
      "Ġcáº¥u": 2126,
      "chiáº¿n": 2127,
      "Ġrá»Ńa": 2128,
      "tho": 2129,
      "Ġsong": 2130,
      "Ġngáº¯n": 2131,
      "ĠmÅ©i": 2132,
      "Ġkháº¯c": 2133,
      "Ġdáº§n": 2134,
      "nháº¡c": 2135,
      "háº£i": 2136,
      "Ġtrá»ĵng": 2137,
      "ĠcÃ¡nh": 2138,
      "Ġmá»Ŀi": 2139,
      "ke": 2140,
      "Ġhá»¯u": 2141,
      "Ġchá»£": 2142,
      "há»ıi": 2143,
      "báº¡n": 2144,
      "kinh": 2145,
      "Ġnghá»ĭ": 2146,
      "xy": 2147,
      "Ġko": 2148,
      "Ġapp": 2149,
      "ĠhÆ¡i": 2150,
      "Ġse": 2151,
      "nhiÃªu": 2152,
      "Ġkm": 2153,
      "du": 2154,
      "gÃ²n": 2155,
      "pr": 2156,
      "tá»Ļc": 2157,
      "Ġcuá»ĳn": 2158,
      "ĠÄĳáº©y": 2159,
      "Ġsáº¯c": 2160,
      "ĠsÃłi": 2161,
      "Ġxáº¿p": 2162,
      "ĠtÆ°á»Ŀng": 2163,
      "ĠnÃºi": 2164,
      "Ġgáº¯n": 2165,
      "Ġliá»ģn": 2166,
      "váº»": 2167,
      "há»ĵng": 2168,
      "hÃ¹ng": 2169,
      "web": 2170,
      "ĠhÃ¡t": 2171,
      "xÃ©t": 2172,
      "Ġkhung": 2173,
      "Ġnáº¥u": 2174,
      "ĵn": 2175,
      "Ġst": 2176,
      "log": 2177,
      "Ġmá»ĩ": 2178,
      "ĠgiÃłnh": 2179,
      "ĠÄĳáº£o": 2180,
      "Ġáº©m": 2181,
      "amin": 2182,
      "Ġháº¡nh": 2183,
      "Ġkiáº¿m": 2184,
      "xÃ£": 2185,
      "Ġkháº³ng": 2186,
      "háº£o": 2187,
      "áº¥c": 2188,
      "lÃłm": 2189,
      "láº½": 2190,
      "Ġdáº¡y": 2191,
      "Ġchá»Ŀ": 2192,
      "Ġkg": 2193,
      "ĠmÆ°a": 2194,
      "įa": 2195,
      "Ġchiáº¿m": 2196,
      "Ġniá»ģm": 2197,
      "Ġpha": 2198,
      "Ġthá»©c": 2199,
      "Ġcáº·p": 2200,
      "ĠchÃło": 2201,
      "iá»ĩng": 2202,
      "Ġkáº»": 2203,
      "Ġkhoáº£n": 2204,
      "thi": 2205,
      "pe": 2206,
      "Äĳá»ĭa": 2207,
      "chá»¯a": 2208,
      "táº¯c": 2209,
      "Ġbo": 2210,
      "ĠmÆ¡": 2211,
      "Ġhá»Ļp": 2212,
      "Ġau": 2213,
      "Ġad": 2214,
      "ĠgÃ³c": 2215,
      "Ġkia": 2216,
      "Ġtáº¡m": 2217,
      "Ġbiá»ĩt": 2218,
      "Ġcá»¥c": 2219,
      "cá»ĳ": 2220,
      "iz": 2221,
      "thÆ¡": 2222,
      "ĠcÃłi": 2223,
      "ĠcÆ°á»Ŀi": 2224,
      "ct": 2225,
      "ĠlÃ´": 2226,
      "ÄĳÃŃch": 2227,
      "Ġnhiá»ħm": 2228,
      "Ġung": 2229,
      "Ġbiá»ĩn": 2230,
      "Ġthá»«a": 2231,
      "má»Ļt": 2232,
      "Ġchá»©": 2233,
      "Ġtháº£o": 2234,
      "bÃło": 2235,
      "go": 2236,
      "Ġfacebook": 2237,
      "máº¡ch": 2238,
      "Ġnew": 2239,
      "tel": 2240,
      "Ġáº¥m": 2241,
      "ĠmÃ¡i": 2242,
      "phcm": 2243,
      "Ġha": 2244,
      "ĠdÆ°Æ¡ng": 2245,
      "ĠlÃłng": 2246,
      "Ġtruyá»ĩn": 2247,
      "lÆ°á»£c": 2248,
      "quáº£n": 2249,
      "á»³": 2250,
      "ĠmáºŃt": 2251,
      "á»ıi": 2252,
      "á»ħ": 2253,
      "Ġgá»įn": 2254,
      "máºŃt": 2255,
      "ĠlÃ£i": 2256,
      "ĠphÃ¡": 2257,
      "no": 2258,
      "ĠgÃ³i": 2259,
      "Ġdinh": 2260,
      "ĠtiÃªn": 2261,
      "Ġvin": 2262,
      "Ġman": 2263,
      "yo": 2264,
      "cung": 2265,
      "Ġcá»©u": 2266,
      "thá»¥": 2267,
      "cháº¥p": 2268,
      "ÄĳÃ´": 2269,
      "Ġcm": 2270,
      "ld": 2271,
      "Ġxinh": 2272,
      "Ġsoi": 2273,
      "sÃłng": 2274,
      "ĠvÆ°á»Ŀn": 2275,
      "Ġhlv": 2276,
      "ĠlÃ¡i": 2277,
      "chÃ¢u": 2278,
      "wn": 2279,
      "iáº¿ng": 2280,
      "Ġgáº¥p": 2281,
      "ist": 2282,
      "mai": 2283,
      "Ġwin": 2284,
      "á»Ľt": 2285,
      "ĠsÃ¡t": 2286,
      "Ġ..": 2287,
      "ry": 2288,
      "io": 2289,
      "Ġviá»ĩn": 2290,
      "phiáº¿u": 2291,
      "Ġhiá»ĩp": 2292,
      "Ġxáº¥u": 2293,
      "áº³n": 2294,
      "ĠchÃ¡y": 2295,
      "má»Ľi": 2296,
      "ĠkhuÃ´n": 2297,
      "rÃłng": 2298,
      "Ġnghi": 2299,
      "Ġxong": 2300,
      "ĠthÃŃ": 2301,
      "all": 2302,
      "Ġthá»ıa": 2303,
      "Ġá»ĳng": 2304,
      "áºŃc": 2305,
      "tuyá»ĥn": 2306,
      "háº¡ng": 2307,
      "§ng": 2308,
      "rá»Ļng": 2309,
      "Ġphi": 2310,
      "chi": 2311,
      "Ġru": 2312,
      "quanh": 2313,
      "tc": 2314,
      "Ã©o": 2315,
      "ga": 2316,
      "phÃª": 2317,
      "ĠxuÃ¢n": 2318,
      "ĠgiÃłu": 2319,
      "Ġcá»ķng": 2320,
      "ģm": 2321,
      "ĠÄĳÃ²": 2322,
      "min": 2323,
      "Ġinternet": 2324,
      "Ġká»ĭp": 2325,
      "ill": 2326,
      "Ġhá»įa": 2327,
      "ĠÄĳoáº¡n": 2328,
      "Ġsm": 2329,
      "khiá»ĥn": 2330,
      "cáºŃn": 2331,
      "ĠbÃ¢y": 2332,
      "ation": 2333,
      "trÃ¹ng": 2334,
      "cá»Ń": 2335,
      "Ġla": 2336,
      "Ġtphcm": 2337,
      "Ġlan": 2338,
      "Ġquen": 2339,
      "ĠkÃ©m": 2340,
      "Ġvit": 2341,
      "Ġis": 2342,
      "Ġdung": 2343,
      "á»©t": 2344,
      "sh": 2345,
      "Ġvá»ı": 2346,
      "ĠlÃ¢m": 2347,
      "theo": 2348,
      "Ġgoo": 2349,
      "giao": 2350,
      "ĠrÃºt": 2351,
      "ĠmÃ´n": 2352,
      "ĠÄĳÃłi": 2353,
      "nhu": 2354,
      "bank": 2355,
      "ĠÄĳá»Ļt": 2356,
      "tá»ı": 2357,
      "und": 2358,
      "ick": 2359,
      "ut": 2360,
      "Ġkháº¯p": 2361,
      "Ġmm": 2362,
      "Ġrá»«ng": 2363,
      "ht": 2364,
      "Ġsa": 2365,
      "gle": 2366,
      "á»ĭn": 2367,
      "city": 2368,
      "lÃ£": 2369,
      "Ġsá»£": 2370,
      "Ġgá»ĳc": 2371,
      "thá»±": 2372,
      "sen": 2373,
      "ÄĳÃ£i": 2374,
      "bÃłi": 2375,
      "Ġtrá»©ng": 2376,
      "Ġdá»«ng": 2377,
      "ná»¯a": 2378,
      "sp": 2379,
      "--": 2380,
      "ĠbÄĥng": 2381,
      "ĠhÃłm": 2382,
      "ĠchÃŃ": 2383,
      "thÃºc": 2384,
      "kim": 2385,
      "Ġcá»©ng": 2386,
      "báº¡i": 2387,
      "Ġsáº¯t": 2388,
      "Ġbá»¯a": 2389,
      "kÃŃnh": 2390,
      "hÃ¨o": 2391,
      "ĠgiÃły": 2392,
      "trÆ°ng": 2393,
      "ĠvÄ©nh": 2394,
      "ran": 2395,
      "ian": 2396,
      "bÃ¨": 2397,
      "ĠviÃªn": 2398,
      "ĠkhÃ¡n": 2399,
      "ĠÄĳáº¥y": 2400,
      "man": 2401,
      "tÃ¢y": 2402,
      "yÃªn": 2403,
      "Ġbá»ģ": 2404,
      "gh": 2405,
      "Ġhá»ģ": 2406,
      "ĠvÃµ": 2407,
      "cá»Ńa": 2408,
      "á»¥i": 2409,
      "Ġhcm": 2410,
      "thiÃªn": 2411,
      "chá»ĭu": 2412,
      "ĠcÄĥng": 2413,
      "kÃª": 2414,
      "are": 2415,
      "nha": 2416,
      "ĠmÃ¡t": 2417,
      "xi": 2418,
      "ĠkÃªnh": 2419,
      "įng": 2420,
      "Ġly": 2421,
      "Ġsam": 2422,
      "Ġpr": 2423,
      "ĠcÃ¡t": 2424,
      "Ġfor": 2425,
      "fa": 2426,
      "khuáº©n": 2427,
      "thÆ°á»Łng": 2428,
      "Ġdá»ĭp": 2429,
      "Ġfan": 2430,
      "ĠchÃ³": 2431,
      "Ġváº£i": 2432,
      "lÆ°u": 2433,
      "ell": 2434,
      "má»Ļ": 2435,
      "Äĳt": 2436,
      "giáº£i": 2437,
      "Ġkhá»§ng": 2438,
      "biáº¿t": 2439,
      "Ġcháº¥p": 2440,
      "Ġtá»©c": 2441,
      "Ġbar": 2442,
      "ĠxÆ°Æ¡ng": 2443,
      "Ġche": 2444,
      "Ġngá»įc": 2445,
      "ĠgiÃ³": 2446,
      "Ġlá»įc": 2447,
      "á»«a": 2448,
      "gÃ³p": 2449,
      "ĠquÃª": 2450,
      "cc": 2451,
      "cÆ°á»£c": 2452,
      "chung": 2453,
      "ĠthÃ©": 2454,
      "mÃ´": 2455,
      "ft": 2456,
      "ÄĳÃłn": 2457,
      "Ġmá»ģm": 2458,
      "ĠchÃ¹": 2459,
      "vÃł": 2460,
      "Ľp": 2461,
      "rus": 2462,
      "Ġtá»Ļi": 2463,
      "Ġpin": 2464,
      "ĠloÃłi": 2465,
      "per": 2466,
      "Ġtrá»įn": 2467,
      "giá»¯": 2468,
      "ala": 2469,
      "ĠbÃ£i": 2470,
      "ĠchÃ¡u": 2471,
      "ĠÄĳÃ¡m": 2472,
      "Ġvitamin": 2473,
      "Ġtrá»Ŀi": 2474,
      "ost": 2475,
      "Ġváº¿t": 2476,
      "Ġmar": 2477,
      "Ġtt": 2478,
      "ĠcÆ¡m": 2479,
      "gáº¯ng": 2480,
      "ment": 2481,
      "ĠthÃ©p": 2482,
      "Ġpo": 2483,
      "khÃºc": 2484,
      "Ġmi": 2485,
      "Ġtáº¯m": 2486,
      "sa": 2487,
      "láº¯ng": 2488,
      "tÃ¢n": 2489,
      "nhiá»ħm": 2490,
      "ĠngÆ°á»£c": 2491,
      "máº¯n": 2492,
      "Ġte": 2493,
      "Ġgoogle": 2494,
      "máº«u": 2495,
      "ws": 2496,
      "ĠthÆ°á»£ng": 2497,
      "ĠgÆ°Æ¡ng": 2498,
      "alo": 2499,
      "á»³nh": 2500,
      "ri": 2501,
      "Ġquanh": 2502,
      "Ġláº¯m": 2503,
      "ino": 2504,
      "khi": 2505,
      "Ġtam": 2506,
      "Ġvs": 2507,
      "Ġcháº·t": 2508,
      "pl": 2509,
      "ym": 2510,
      "ĠquÃªn": 2511,
      "ague": 2512,
      "tá»ĳc": 2513,
      "Ġgiáº£ng": 2514,
      "ge": 2515,
      "Ġde": 2516,
      "Ġser": 2517,
      "end": 2518,
      "Ġvinh": 2519,
      "báº¡c": 2520,
      "ĠcÆ°á»Ľi": 2521,
      "Ġháº¡ng": 2522,
      "Ġnáº¡n": 2523,
      "xanh": 2524,
      "ĠchÃºc": 2525,
      "Ãºa": 2526,
      "máº¯c": 2527,
      "Ġphan": 2528,
      "Ġkhá»ķ": 2529,
      "tuá»ķi": 2530,
      "Ġtnh": 2531,
      "Ġdá»ĭ": 2532,
      "Ġthua": 2533,
      "orld": 2534,
      "tÄ©nh": 2535,
      "ice": 2536,
      "ĠkÃ¨o": 2537,
      "Äĳiá»ĥn": 2538,
      "Ġnháº¯c": 2539,
      "ve": 2540,
      "kÃ¬": 2541,
      "ĠÆ°a": 2542,
      "vÅ©": 2543,
      "_Â»": 2544,
      "nhÃł": 2545,
      "Ġngá»«ng": 2546,
      "mÃª": 2547,
      "Ġat": 2548,
      "son": 2549,
      "Ġpm": 2550,
      "Ġfi": 2551,
      "nghi": 2552,
      "ĠcÆ¡n": 2553,
      "á»ĳp": 2554,
      "Ġmai": 2555,
      "chÃºt": 2556,
      "pu": 2557,
      "ĠthÆ¡m": 2558,
      "£t": 2559,
      "Ġbá»¥ng": 2560,
      "ĠcÆ°": 2561,
      "Ġláº¡": 2562,
      "nhuáºŃn": 2563,
      "Ġxi": 2564,
      "ĠsÃ³ng": 2565,
      "nhi": 2566,
      "Ġvá»¯": 2567,
      "Ġtáº¿": 2568,
      "ĠdÆ°á»¡ng": 2569,
      "Ġby": 2570,
      "ĠcháºŃm": 2571,
      "rl": 2572,
      "ĠÄĳáºŃu": 2573,
      "tim": 2574,
      "Ġeu": 2575,
      "tÄĥng": 2576,
      "náº¡n": 2577,
      "ton": 2578,
      "ox": 2579,
      "ews": 2580,
      "oi": 2581,
      "kháº¯c": 2582,
      "ne": 2583,
      "Ġtrá»¥": 2584,
      "Ġbáº¡c": 2585,
      "ĠpháºŃt": 2586,
      "Ġná»Ĺ": 2587,
      "phi": 2588,
      "ĠtrÄĥm": 2589,
      "Ġtnhh": 2590,
      "trá»¯": 2591,
      "ĠrÆ¡i": 2592,
      "Ġtiá»ģm": 2593,
      "nghÄ©": 2594,
      "ina": 2595,
      "má»«ng": 2596,
      "Ġrá»Ŀi": 2597,
      "thá»į": 2598,
      "tre": 2599,
      "iáº¿p": 2600,
      "táº§ng": 2601,
      "thÃº": 2602,
      "Ġ_": 2603,
      "hÃ´i": 2604,
      "ĠthÃ´": 2605,
      "ĠâĢ¢": 2606,
      "Ġlá»ĳi": 2607,
      "by": 2608,
      "Ġphá»§": 2609,
      "á»§i": 2610,
      "ĠÄĳá»©a": 2611,
      "Ġbáº¿n": 2612,
      "nghá»ģ": 2613,
      "dáº§u": 2614,
      "táº£": 2615,
      "binh": 2616,
      "tháº£i": 2617,
      "online": 2618,
      "hÃ¬n": 2619,
      "Ġngang": 2620,
      "Ġná»£": 2621,
      "lÃ¢m": 2622,
      "ĠhÃ¨": 2623,
      "ĠphÃ³ng": 2624,
      "Ġtá»ĵn": 2625,
      "vÃłi": 2626,
      "quen": 2627,
      "á»Ļp": 2628,
      "ÄĳÆ¡n": 2629,
      "Ġlá»Ĺ": 2630,
      "Ġvá»¯ng": 2631,
      "ĠÄĳÃ²i": 2632,
      "Ġbá»¥i": 2633,
      "Ġson": 2634,
      "uá»ĳng": 2635,
      "Ġof": 2636,
      "ĠÂ»_": 2637,
      "Ġas": 2638,
      "Ġme": 2639,
      "chá»ĵng": 2640,
      "ko": 2641,
      "ash": 2642,
      "Ġun": 2643,
      "cÃ¡c": 2644,
      "va": 2645,
      "ĠkhÃ¡ng": 2646,
      "ast": 2647,
      "Ġthá»ķ": 2648,
      "Ġphá»©c": 2649,
      "Ġvietnam": 2650,
      "ĠÄĳá»Ĺ": 2651,
      "chÃºa": 2652,
      "nhÃłng": 2653,
      "Ġbe": 2654,
      "Ġtháº³ng": 2655,
      "Ġgiáº¥c": 2656,
      "Ã³a": 2657,
      "báº¯c": 2658,
      "ĠchÃºt": 2659,
      "Ã©n": 2660,
      "nÃły": 2661,
      "bÃł": 2662,
      "ĠÄĳá»£t": 2663,
      "trÆ°Æ¡ng": 2664,
      "lá»¥c": 2665,
      "Ġhiá»ĥn": 2666,
      "ĠhÆ°á»Łng": 2667,
      "ĠbáºŃc": 2668,
      "Äĳá»ı": 2669,
      "Ġbuá»ĵn": 2670,
      "vong": 2671,
      "ĠlÃ´ng": 2672,
      "ĠthoÃ¡t": 2673,
      "Ġtáº¯t": 2674,
      "háº¡": 2675,
      "ĠÃ¡n": 2676,
      "ab": 2677,
      "roid": 2678,
      "Ġcá»±": 2679,
      "Ġhuy": 2680,
      "ive": 2681,
      "láº¡": 2682,
      "fe": 2683,
      "Ġgá»£i": 2684,
      "hÆ°ng": 2685,
      "ĠnghÃ¨o": 2686,
      "Ġá»§ng": 2687,
      "Ġim": 2688,
      "Ġláº«n": 2689,
      "Ġlink": 2690,
      "ĳt": 2691,
      "cá»Ļng": 2692,
      "Ġmin": 2693,
      "ĠlÃ£o": 2694,
      "máº¡c": 2695,
      "mÃ£i": 2696,
      "aptop": 2697,
      "mÃ¬nh": 2698,
      "ps": 2699,
      "Ġsmart": 2700,
      "tráº»": 2701,
      "loáº¡n": 2702,
      "ĠgiÆ°á»Ŀng": 2703,
      "ull": 2704,
      "§y": 2705,
      "cáº¥u": 2706,
      "tÃº": 2707,
      "ĠchÃłng": 2708,
      "ĠtrÃ´ng": 2709,
      "táº£ng": 2710,
      "Ġyou": 2711,
      "tri": 2712,
      "Ġngá»įt": 2713,
      "kÃŃch": 2714,
      "can": 2715,
      "ĠchÃ¹a": 2716,
      "á»Ļm": 2717,
      "Äĳáº³ng": 2718,
      "ĠkiÃªn": 2719,
      "Ġex": 2720,
      "Ġthan": 2721,
      "ngáº¡i": 2722,
      "ha": 2723,
      "viet": 2724,
      "ti": 2725,
      "rÃ£i": 2726,
      "loáº¡t": 2727,
      "ĠÄĳá»īnh": 2728,
      "lá»Ļc": 2729,
      "bÃły": 2730,
      "lus": 2731,
      "ngo": 2732,
      "Ġac": 2733,
      "mÃł": 2734,
      "Ġmá»¡": 2735,
      "Ġháº³n": 2736,
      "ĠtÆ°á»Łng": 2737,
      "Ġquá»¹": 2738,
      "Ġti": 2739,
      "dows": 2740,
      "....": 2741,
      "thiá»ĥu": 2742,
      "ada": 2743,
      "na": 2744,
      "Ġmic": 2745,
      "Ġgiá»ıi": 2746,
      "ĠdÆ°á»£c": 2747,
      "ĠÄĳáºŃm": 2748,
      "Ġ]_": 2749,
      "arket": 2750,
      "ĠphÃ©p": 2751,
      "Äĳá»ĭch": 2752,
      "Ġpháº«u": 2753,
      "Ġbáº¯n": 2754,
      "ĠbÃ²": 2755,
      "Ġthá»¥": 2756,
      "rid": 2757,
      "Ġapple": 2758,
      "Ġtreo": 2759,
      "ĠvÆ°Æ¡ng": 2760,
      "Ġchiáº¿u": 2761,
      "Ġgan": 2762,
      "cup": 2763,
      "vÃ¢n": 2764,
      "Ġdao": 2765,
      "ines": 2766,
      "Ġloa": 2767,
      "Ġii": 2768,
      "chÆ°Æ¡ng": 2769,
      "don": 2770,
      "sá»¹": 2771,
      "hÆ¡i": 2772,
      "á»§y": 2773,
      "Ġtá»ķn": 2774,
      "Ġbáº¡ch": 2775,
      "Ġhuyáº¿t": 2776,
      "Ġit": 2777,
      "Ġsá»ķ": 2778,
      "ká»·": 2779,
      "á»ĩt": 2780,
      "Ġbá»Ŀ": 2781,
      "chÃ¢n": 2782,
      "Ġtáº¡p": 2783,
      "ays": 2784,
      "ĠtiÃªm": 2785,
      "Ġtá»Ŀ": 2786,
      "ĠthÆ¡": 2787,
      "cl": 2788,
      "Ġsan": 2789,
      "chiáº¿u": 2790,
      "old": 2791,
      "ĠlÆ°ng": 2792,
      "duy": 2793,
      "ĠchÃºa": 2794,
      "táº¡p": 2795,
      "ĠnhÃ£n": 2796,
      "nguyá»ĩn": 2797,
      "Ġsamsung": 2798,
      "Ġná»Ĺi": 2799,
      "ĠthÃºc": 2800,
      "khoÃ¡n": 2801,
      "cá»¥c": 2802,
      "ona": 2803,
      "ĠhÆ°": 2804,
      "ĠchÃŃn": 2805,
      "Ġmiá»ĩng": 2806,
      "nhiá»ĩt": 2807,
      "Ġná»Ńa": 2808,
      "vu": 2809,
      "load": 2810,
      "á»įi": 2811,
      "hÃ³i": 2812,
      "roup": 2813,
      "ĠtrÃŃ": 2814,
      "we": 2815,
      "Ġquang": 2816,
      "bao": 2817,
      "ĠvÃ¢n": 2818,
      "Ġjo": 2819,
      "ama": 2820,
      "pro": 2821,
      "ĠlÆ°á»Ľi": 2822,
      "Äĳáº©y": 2823,
      "huyáº¿t": 2824,
      "ide": 2825,
      "buá»Ļc": 2826,
      "Ġmuá»ĳi": 2827,
      "ump": 2828,
      "Ġngá»±c": 2829,
      "ĠnÃºt": 2830,
      "league": 2831,
      "Ġsing": 2832,
      "hai": 2833,
      "ĠthÃ¹ng": 2834,
      "ĠdÃły": 2835,
      "Ġandroid": 2836,
      "bá»ķ": 2837,
      "Ġlaptop": 2838,
      "kÃ¨o": 2839,
      "cha": 2840,
      "Ġworld": 2841,
      "Ãłm": 2842,
      "ĠxÃ³a": 2843,
      "pa": 2844,
      "Ġgáº¡o": 2845,
      "Ġnáº¥m": 2846,
      "Ġlá»Ńa": 2847,
      "ĠtÃ´": 2848,
      "ĠhÃ¢m": 2849,
      "Ġbr": 2850,
      "ĠbÆ¡i": 2851,
      "ĠÆ°á»Ľc": 2852,
      "sho": 2853,
      "Ġbi": 2854,
      "Äĳá»ĥ": 2855,
      "ĠhÄĳ": 2856,
      "ĠÂ·": 2857,
      "Ġhd": 2858,
      "Ġshop": 2859,
      "Ġcar": 2860,
      "vs": 2861,
      "ki": 2862,
      "ight": 2863,
      "Ġcháº¥m": 2864,
      "liá»ĩt": 2865,
      "iver": 2866,
      "ĠkÃŃn": 2867,
      "Ġthiá»ĩt": 2868,
      "biá»ĥn": 2869,
      "Ġemail": 2870,
      "Ġbá»ĳn": 2871,
      "trá»Ļi": 2872,
      "Äĳá»¡": 2873,
      "ĠbáºŃt": 2874,
      "Ġhuyá»ģn": 2875,
      "ká»ĥ": 2876,
      "ĠkÃªu": 2877,
      "ĠlÃ²": 2878,
      "Ġtháº¯c": 2879,
      "ico": 2880,
      "biÃªn": 2881,
      "ĠnghÃ¬n": 2882,
      "oc": 2883,
      "báº¿p": 2884,
      "giáº£m": 2885,
      "cÃ¡i": 2886,
      "thÃ¹": 2887,
      "Ġgr": 2888,
      "view": 2889,
      "gs": 2890,
      "tá»«": 2891,
      "tÃ´ng": 2892,
      "Ġcháº£y": 2893,
      "Äĳáº£m": 2894,
      "Ġcas": 2895,
      "Ġsim": 2896,
      "Ġlá»Ļ": 2897,
      "Ġmá»ĭn": 2898,
      "xh": 2899,
      "tháºŃt": 2900,
      "Ġgd": 2901,
      "rÄĥng": 2902,
      "áº¹o": 2903,
      "Ġgiá»įng": 2904,
      "ngá»«a": 2905,
      "vÃłng": 2906,
      "Ġmal": 2907,
      "Æ°á»Ľp": 2908,
      "fi": 2909,
      "įt": 2910,
      "Ġmá»ĩt": 2911,
      "thai": 2912,
      "ĠngÃ´": 2913,
      "ĠchÃ¬": 2914,
      "ĠrÃ¨": 2915,
      "ĠÄĳh": 2916,
      "Ġblog": 2917,
      "ĠbuÃ´n": 2918,
      "Ġbuá»Ļc": 2919,
      "xáº¿p": 2920,
      "ork": 2921,
      "gá»ĳc": 2922,
      "Ġxá»ķ": 2923,
      "vinh": 2924,
      "Ġvis": 2925,
      "Ġvirus": 2926,
      "láº»": 2927,
      "gÃ³i": 2928,
      "chá»ĳng": 2929,
      "Ġná»Ļp": 2930,
      "Ġshow": 2931,
      "lÃłnh": 2932,
      "cn": 2933,
      "Ġgáº¡ch": 2934,
      "±ng": 2935,
      "ĠngÃłn": 2936,
      "Ã¹a": 2937,
      "thuyáº¿t": 2938,
      "Ġsá»ĳt": 2939,
      "Ġtung": 2940,
      "Ġchuá»Ĺi": 2941,
      "land": 2942,
      "Ġwindows": 2943,
      "cs": 2944,
      "ĠdÃłn": 2945,
      "sáº¯m": 2946,
      "gr": 2947,
      "ester": 2948,
      "Ġná»ĳi": 2949,
      "chuá»Ļng": 2950,
      "tráºŃn": 2951,
      "ngÃły": 2952,
      "Ġsk": 2953,
      "Ġthpt": 2954,
      "Ã©m": 2955,
      "Ġtrá»¥c": 2956,
      "Ġdáº¡": 2957,
      "lá»įc": 2958,
      "bile": 2959,
      "ace": 2960,
      "Æ°á»Ľt": 2961,
      "hÃło": 2962,
      "tor": 2963,
      "tháº³ng": 2964,
      "duyá»ĩt": 2965,
      "ÄĳÃ¡p": 2966,
      "ru": 2967,
      "Ġphun": 2968,
      "coin": 2969,
      "ĠbÃª": 2970,
      "Ġel": 2971,
      "ĠngÃ´n": 2972,
      "Ġchá»īnh": 2973,
      "ĠÄĳeo": 2974,
      "ĠÃ©p": 2975,
      "ĠthÃ¡nh": 2976,
      "Ġtháº£m": 2977,
      "Ġdown": 2978,
      "Ġga": 2979,
      "Ġthá»Ł": 2980,
      "tráº¥n": 2981,
      "Ġtiá»ĩc": 2982,
      "Ġseo": 2983,
      "ðŁ": 2984,
      "á»Ĺng": 2985,
      "ĠnÃªu": 2986,
      "ĠbÃ¡t": 2987,
      "Ġkháº©u": 2988,
      "Ġcá»±u": 2989,
      "tro": 2990,
      "Ġpost": 2991,
      "Ġvan": 2992,
      "Äĳá»£i": 2993,
      "Ġbit": 2994,
      "Ġpháº¥n": 2995,
      "cam": 2996,
      "tá»ĩ": 2997,
      "apore": 2998,
      "Ġbá»įn": 2999,
      "ĠdáºŃy": 3000,
      "li": 3001,
      "ĠdÆ°": 3002,
      "Ġcol": 3003,
      "ĠkhÃ¡nh": 3004,
      "há»įa": 3005,
      "he": 3006,
      "ĠcÆ°á»Ŀng": 3007,
      "arketing": 3008,
      "Ġtan": 3009,
      "ĠÄĳá»ĩ": 3010,
      "Ġgian": 3011,
      "ĠtÃŃ": 3012,
      "Ġhá»©a": 3013,
      "Ġvá»¡": 3014,
      "Ġtrá»£": 3015,
      "ĠrÃ¡c": 3016,
      "Ġtriá»ģu": 3017,
      "Ġhuáº¿": 3018,
      "loan": 3019,
      "uá»ķi": 3020,
      "Ġcháº¡m": 3021,
      "Ġcá»Ļt": 3022,
      "má»ıi": 3023,
      "hy": 3024,
      "trÃº": 3025,
      "bl": 3026,
      "Ġtáº©y": 3027,
      "vo": 3028,
      "thÃ´n": 3029,
      "gá»įi": 3030,
      "ĠbÃły": 3031,
      "Ġtháº¥m": 3032,
      "Ġhi": 3033,
      "Ġbá»ĳi": 3034,
      "Ġnháº¯n": 3035,
      "car": 3036,
      "Ġliá»ĩu": 3037,
      "Ġbáº£y": 3038,
      "nai": 3039,
      "Ġchá»¥c": 3040,
      "ĠhÃ´n": 3041,
      "Ġná»ķ": 3042,
      "ĠlÃ¢y": 3043,
      "ĠbÃ´ng": 3044,
      "Ġhoang": 3045,
      "Äĳiá»ģu": 3046,
      "riÃªng": 3047,
      "Ġháº¹n": 3048,
      "há»ĵn": 3049,
      "Ġsingapore": 3050,
      "alaxy": 3051,
      "ĠghÃ©": 3052,
      "Ġtráº§m": 3053,
      "Ġgiáº·t": 3054,
      "Ġcáº¥m": 3055,
      "Ġmiáº¿ng": 3056,
      "Ġná»ĵi": 3057,
      "ĠthÃ³i": 3058,
      "Ġip": 3059,
      "ĠsÄĥn": 3060,
      "Ġ>>": 3061,
      "gen": 3062,
      "lá»ħ": 3063,
      "ĠÄĳáº³ng": 3064,
      "mÆ¡": 3065,
      "xá»Ń": 3066,
      "Ġbá»ĵi": 3067,
      "Ġdá»¥ng": 3068,
      "Ġgiáº¿t": 3069,
      "ĠtháºŃn": 3070,
      "Ġloáº¡t": 3071,
      "ka": 3072,
      "onal": 3073,
      "ngÆ¡i": 3074,
      "Ġpl": 3075,
      "nhá»Ľ": 3076,
      "cel": 3077,
      "quÃ½": 3078,
      "tá»¥": 3079,
      "cuá»Ļc": 3080,
      "ĠvÃ¡y": 3081,
      "ĠtrÃłn": 3082,
      "Ġclip": 3083,
      "Ġváº½": 3084,
      "nhá»¯ng": 3085,
      "ĠtrÆ°Æ¡ng": 3086,
      "Ġfile": 3087,
      "Ġli": 3088,
      "ngoáº¡i": 3089,
      "Ġreal": 3090,
      "Ġcháº¥n": 3091,
      "dÅ©ng": 3092,
      "dÃły": 3093,
      "gon": 3094,
      "ĠmÃª": 3095,
      "vÆ°Æ¡ng": 3096,
      "tai": 3097,
      "Ġkhá»Ľp": 3098,
      "giÃ£n": 3099,
      "Ġvua": 3100,
      "ĠnhÃ´m": 3101,
      "Ġclb": 3102,
      "use": 3103,
      "ĠkhuyÃªn": 3104,
      "tuáº¥n": 3105,
      "ĠlÃłnh": 3106,
      "khÃ¡m": 3107,
      "á»īnh": 3108,
      "ÄĳÆ°Æ¡ng": 3109,
      "ĠÃºc": 3110,
      "Ġcá»Ŀ": 3111,
      "ÄĳÃłi": 3112,
      "á»§a": 3113,
      "Ġsex": 3114,
      "ĠtÆ°á»£ng": 3115,
      "ĠxÃºc": 3116,
      "ĠphÃª": 3117,
      "thá»©": 3118,
      "Ġled": 3119,
      "Ġthao": 3120,
      "há»©ng": 3121,
      "Ġgu": 3122,
      "Ġcn": 3123,
      "sá»©": 3124,
      "ĠchÄĥn": 3125,
      "_âĢ": 3126,
      "Ġmy": 3127,
      "ĠthoÃ¡ng": 3128,
      "ĠgiÃł": 3129,
      "ĠÄĳam": 3130,
      "ĠthÃ¢m": 3131,
      "Ġcs": 3132,
      "ade": 3133,
      "Ġgam": 3134,
      "for": 3135,
      "huá»ĳng": 3136,
      "tÃłu": 3137,
      "Äĳá»Ļc": 3138,
      "Ġtá»¥": 3139,
      "Ġeuro": 3140,
      "chia": 3141,
      "khá»ķ": 3142,
      "Ġtour": 3143,
      "Ġfull": 3144,
      "Ġsn": 3145,
      "xin": 3146,
      "Ġláº¡c": 3147,
      "láº¡t": 3148,
      "Ġtá»±a": 3149,
      "Ġnet": 3150,
      "Ġor": 3151,
      "dá»ĭ": 3152,
      "Ġbá»ĥ": 3153,
      "ngÃłnh": 3154,
      "Ġháº±ng": 3155,
      "ĠngÃłi": 3156,
      "ĠtÃ´m": 3157,
      "Ġdownload": 3158,
      "Ġchuá»Ļt": 3159,
      "ĠmÃ£i": 3160,
      "ĠthÄĥng": 3161,
      "game": 3162,
      "Ġbl": 3163,
      "ÄĳÃ¡ng": 3164,
      "Ġmáº§m": 3165,
      "Ġhá»§y": 3166,
      "Ġtá»įa": 3167,
      "kháº¥u": 3168,
      "ĠnÆ°á»Ľng": 3169,
      "ĠtrÃºng": 3170,
      "Ġmicro": 3171,
      "huynh": 3172,
      "news": 3173,
      "ĠxÃ¢m": 3174,
      "lam": 3175,
      "Ġsá»©": 3176,
      "sÃ¡nh": 3177,
      "ĠbÃ¡m": 3178,
      "pháº¡t": 3179,
      "á»ĳm": 3180,
      "nÃ³ng": 3181,
      "Ġ[_": 3182,
      "Ġres": 3183,
      "non": 3184,
      "Ġkháº£o": 3185,
      "Ġtá»ĳn": 3186,
      "Ġxá»©": 3187,
      "ĠhÃ²": 3188,
      "ĠdÃ¡n": 3189,
      "Ĥ«": 3190,
      "chÃºng": 3191,
      "Ġxoay": 3192,
      "mÃ¡t": 3193,
      "ara": 3194,
      "Ġthang": 3195,
      "trÃ¡ch": 3196,
      "Ġsá»£i": 3197,
      "cá»ķ": 3198,
      "gb": 3199,
      "ll": 3200,
      "Ġlá»«a": 3201,
      "hiá»ĩp": 3202,
      "Ġrá»§i": 3203,
      "Ġhá»Ĺn": 3204,
      "lÃ£m": 3205,
      "trÃło": 3206,
      "ĠÄĳÃŃ": 3207,
      "Ġkhen": 3208,
      "Äĳiá»ĩu": 3209,
      "lao": 3210,
      "Ġmá»ĩnh": 3211,
      "ĠlÅ©": 3212,
      "bÃ¡": 3213,
      "Ġhotline": 3214,
      "xá»©": 3215,
      "cÃ³": 3216,
      "á»·": 3217,
      "Äĳáº¡t": 3218,
      "ĠnÃ£o": 3219,
      "ies": 3220,
      "Ġcáº©n": 3221,
      "Ġpháº¡t": 3222,
      "Ġrao": 3223,
      "ions": 3224,
      "Ġmá»įc": 3225,
      "Ġmod": 3226,
      "Ġtráº¡m": 3227,
      "rom": 3228,
      "lá»Ńa": 3229,
      "tÃºc": 3230,
      "'s": 3231,
      "Ġmá»ıng": 3232,
      "Ã£y": 3233,
      "Ġlá»ĩnh": 3234,
      "tÃ¹ng": 3235,
      "ifi": 3236,
      "ĠsÃ´i": 3237,
      "Ġyo": 3238,
      "Ġcanh": 3239,
      "ĠÄĳinh": 3240,
      "ĠtÃ¡o": 3241,
      "Ġsáº¡c": 3242,
      "Ġhe": 3243,
      "ans": 3244,
      "ĠlÃ£ng": 3245,
      "ilip": 3246,
      "trai": 3247,
      "ĠthÃ´n": 3248,
      "cÆ°Æ¡ng": 3249,
      "ure": 3250,
      "trá»±c": 3251,
      "má»ĩnh": 3252,
      "Ġninh": 3253,
      "ĠngÃ£": 3254,
      "ĠtÃ¡ch": 3255,
      "hÃ©o": 3256,
      "Ġ#_": 3257,
      "tÃ³c": 3258,
      "my": 3259,
      "ĠxÄĥng": 3260,
      "wer": 3261,
      "Ġva": 3262,
      "ĠphÃ¡i": 3263,
      "Ġmá»ĵ": 3264,
      "á»įa": 3265,
      "mar": 3266,
      "Ġsmartphone": 3267,
      "ĠkÄ©": 3268,
      "Ġrá»ĳi": 3269,
      "©t": 3270,
      "ĠbÃ¹i": 3271,
      "Ġluyá»ĩn": 3272,
      "Ġmá»±c": 3273,
      "lÆ°Æ¡ng": 3274,
      "Ġfl": 3275,
      "Ġsy": 3276,
      "Ġchim": 3277,
      "Ġinox": 3278,
      "Ġngáº¯m": 3279,
      "áº¯k": 3280,
      "ĠdÆ°á»Ŀng": 3281,
      "ĠgiÃ¢y": 3282,
      "thang": 3283,
      "dÆ°á»£c": 3284,
      "khÃ¡nh": 3285,
      "bs": 3286,
      "az": 3287,
      "tá»Ŀ": 3288,
      "Ġhuáº¥n": 3289,
      "ish": 3290,
      "Ġchiáº¿t": 3291,
      "Ġchá»Ł": 3292,
      "cÃ´": 3293,
      "táºŃt": 3294,
      "ĠÄĳá»ĳt": 3295,
      "ĠÄĳua": 3296,
      "phÆ°á»Ľc": 3297,
      "thÃ¡ng": 3298,
      "Ġáº¡": 3299,
      "Ġmáº£nh": 3300,
      "ĠtrÆ°a": 3301,
      "cÃ¢y": 3302,
      "san": 3303,
      "Ġoff": 3304,
      "ĠsÃºng": 3305,
      "Ġpar": 3306,
      "Ġáº£o": 3307,
      "Ġsofa": 3308,
      "bang": 3309,
      "amp": 3310,
      "cho": 3311,
      "áº¹t": 3312,
      "tháº§u": 3313,
      "Ġbang": 3314,
      "Ġmac": 3315,
      "á»©a": 3316,
      "Ġlau": 3317,
      "ĠsÆ°": 3318,
      "ĠphÃºc": 3319,
      "ĠbÃ£o": 3320,
      "ĠvÅ©ng": 3321,
      "ĠÄĳá»±ng": 3322,
      "bÃ¬": 3323,
      "Ġven": 3324,
      "ĠxuyÃªn": 3325,
      "náº¡": 3326,
      "Ã£ng": 3327,
      "py": 3328,
      "str": 3329,
      "sea": 3330,
      "áº«y": 3331,
      "ĠÄĳáº¯t": 3332,
      "dio": 3333,
      "Ġtrá»Ļn": 3334,
      "Ã²i": 3335,
      "Ġháº§m": 3336,
      "Ġhiáº¿m": 3337,
      "press": 3338,
      "vá»¯ng": 3339,
      "Ġml": 3340,
      "emi": 3341,
      "váº¹n": 3342,
      "ĠtÃłn": 3343,
      "thÃ¡nh": 3344,
      "thÆ°á»£ng": 3345,
      "Ġdn": 3346,
      "ÄĳÃ³n": 3347,
      "Ġthá»£": 3348,
      "sk": 3349,
      "tháºŃn": 3350,
      "sm": 3351,
      "Ġtrá»ĳng": 3352,
      "ĠhÃ¹ng": 3353,
      "Ġcáº£ng": 3354,
      "phim": 3355,
      "Ġhon": 3356,
      "Ġcá»¥m": 3357,
      "nÃ³i": 3358,
      "mÃ³c": 3359,
      "Ġmen": 3360,
      "Ġpe": 3361,
      "ãĢ": 3362,
      "Ġlá»¥c": 3363,
      "ood": 3364,
      "oto": 3365,
      "quÃ¡n": 3366,
      "sÃ³ng": 3367,
      "Ġpc": 3368,
      "ĠÄĳt": 3369,
      "ot": 3370,
      "ĠsÃ¡u": 3371,
      "ĠdÃŃnh": 3372,
      "ĠÄĳÃ¬nh": 3373,
      "Ġcr": 3374,
      "Ġtri": 3375,
      "Ġup": 3376,
      "Ġpark": 3377,
      "ĠÃ´m": 3378,
      "ind": 3379,
      "aysia": 3380,
      "ngÃ´n": 3381,
      "ĠtrÃ²n": 3382,
      "xit": 3383,
      "cháº·n": 3384,
      "Ġgalaxy": 3385,
      "hay": 3386,
      "ĠbÃ©o": 3387,
      "Äĳiá»ĩp": 3388,
      "assage": 3389,
      "Ġen": 3390,
      "gan": 3391,
      "Ġthuyáº¿t": 3392,
      "sÃ¡u": 3393,
      "Ġbáº¥m": 3394,
      "lÃŃ": 3395,
      "Ġruá»Ļt": 3396,
      "ngá»§": 3397,
      "ĠÄĳáº¿": 3398,
      "Ġ$": 3399,
      "Ġcp": 3400,
      "lÃ¢u": 3401,
      "nuÃ´i": 3402,
      "ĠÄĳÆ°Æ¡ng": 3403,
      "Ġbá»Ľt": 3404,
      "mÃ¡u": 3405,
      "chuyá»ģn": 3406,
      "ĠkhoÃ¡ng": 3407,
      "Ġháº¡i": 3408,
      "Ġmon": 3409,
      "Ġvo": 3410,
      "thá»Ŀ": 3411,
      "ĠlÃło": 3412,
      "hd": 3413,
      "tráº§n": 3414,
      "miá»ĩng": 3415,
      "res": 3416,
      "trá»«": 3417,
      "che": 3418,
      "Ġnáº¡p": 3419,
      "Ġmáº¡ch": 3420,
      "Ġváº¡n": 3421,
      "ĠdÃ¡m": 3422,
      "ĠÄĳá»ģn": 3423,
      "alia": 3424,
      "sá»ķ": 3425,
      "dÃ¢m": 3426,
      "Ġká»ĩ": 3427,
      "ĠkhÃ³c": 3428,
      "ĠhÆ°ng": 3429,
      "Ġbáº©n": 3430,
      "ÄĳÃło": 3431,
      "Ġmalaysia": 3432,
      "Äĳá»įc": 3433,
      "home": 3434,
      "za": 3435,
      "ther": 3436,
      "khÃŃch": 3437,
      "Ġkhá»ķng": 3438,
      "dáº¥u": 3439,
      "Ġmá»ı": 3440,
      "£n": 3441,
      "cp": 3442,
      "Ġsal": 3443,
      "Ġkháº©n": 3444,
      "ĠbÃº": 3445,
      "Æ°á»¡i": 3446,
      "Ġvisa": 3447,
      "Ġhang": 3448,
      "col": 3449,
      "cr": 3450,
      "ĠcÃ´n": 3451,
      "Ġcanada": 3452,
      "lá»Ĺi": 3453,
      "Ġphilip": 3454,
      "nhá»ı": 3455,
      "the": 3456,
      "khÃ³a": 3457,
      "ĠthÃ¡o": 3458,
      "phÃ³ng": 3459,
      "Ġchai": 3460,
      "ike": 3461,
      "int": 3462,
      "cáºŃy": 3463,
      "ĠðŁ": 3464,
      "Ġtá»ĩ": 3465,
      "rá»Ńa": 3466,
      "Ġbá»ĵn": 3467,
      "Ġkar": 3468,
      "Ġphá»ıng": 3469,
      "Ġol": 3470,
      "ĠmÆ°á»Ŀi": 3471,
      "Ġthá»Ŀ": 3472,
      "Ġtá»ĳ": 3473,
      "phÃ³": 3474,
      "vel": 3475,
      "giÃ¡m": 3476,
      "Ġed": 3477,
      "Ġtháº£": 3478,
      "Ġnháº¡y": 3479,
      "Ġcafe": 3480,
      "ĠghÃ©p": 3481,
      "ited": 3482,
      "ĠlÃºa": 3483,
      "Ġdiá»ĩt": 3484,
      "giÃ¡p": 3485,
      "Ġquáº¡t": 3486,
      "Ġtá»©": 3487,
      "tuá»ĩ": 3488,
      "ĠhoÃłi": 3489,
      "ĠtÃ´ng": 3490,
      "Ġhá»ıa": 3491,
      "Ġbá»ĵ": 3492,
      "ano": 3493,
      "Ġposted": 3494,
      "ci": 3495,
      "Ġdá»įc": 3496,
      "sá»Ńa": 3497,
      "dr": 3498,
      "ect": 3499,
      "ata": 3500,
      "elsea": 3501,
      "ĠbÆ¡m": 3502,
      "Ġká»ĭch": 3503,
      "nghiá»ģn": 3504,
      "máº»": 3505,
      "bet": 3506,
      "Äĳáº¿": 3507,
      "tan": 3508,
      "Ġquyáº¿n": 3509,
      "Ġcá»ı": 3510,
      "tráº¯ng": 3511,
      "Ġmarketing": 3512,
      "Ġmáº¹o": 3513,
      "dy": 3514,
      "ĠchÃª": 3515,
      "van": 3516,
      "men": 3517,
      "ĠÃ¡": 3518,
      "Ġap": 3519,
      "ica": 3520,
      "sáº½": 3521,
      "Äĳua": 3522,
      "soft": 3523,
      "Ġbong": 3524,
      "Ġlá»ĩ": 3525,
      "báº¯t": 3526,
      "gá»¡": 3527,
      "rÅ©": 3528,
      "ÄĳÄĥng": 3529,
      "váºŃn": 3530,
      "Ġtháº¡ch": 3531,
      "Ġtrá»«": 3532,
      "ĠtháºŃp": 3533,
      "Ġkhoe": 3534,
      "Ġcáº¯m": 3535,
      "lock": 3536,
      "gt": 3537,
      "ĠtÃŃm": 3538,
      "Ġthá»¥y": 3539,
      "giÃ³": 3540,
      "Ġtáº§n": 3541,
      "lá»±a": 3542,
      "Ġmg": 3543,
      "Ġcomment": 3544,
      "Ġpv": 3545,
      "ĠmÃ£n": 3546,
      "lÆ°á»£t": 3547,
      "Ġoxy": 3548,
      "hn": 3549,
      "Ġheo": 3550,
      "Ġtw": 3551,
      "ĠÄĳÄ©a": 3552,
      "Ġke": 3553,
      "Æ°Æ¡n": 3554,
      "Ġyáº¿n": 3555,
      "ich": 3556,
      "nÆ¡i": 3557,
      "gÃ¬": 3558,
      "ĠbÃ¹": 3559,
      "Ġnon": 3560,
      "Ġts": 3561,
      "Ġtivi": 3562,
      "ĠÄĳÃłm": 3563,
      "Ġdá»«a": 3564,
      "iá»ħu": 3565,
      "rá»¡": 3566,
      "ĠÄĳáºŃp": 3567,
      "Ġbitcoin": 3568,
      "Ġtá»ı": 3569,
      "Ġthuyá»ģn": 3570,
      "Ġmini": 3571,
      "ero": 3572,
      "Ġnhan": 3573,
      "shop": 3574,
      "Ġnu": 3575,
      "ĠbÃ¹ng": 3576,
      "_]": 3577,
      "Ġsay": 3578,
      "Ġpu": 3579,
      "ens": 3580,
      "adrid": 3581,
      "ree": 3582,
      "cÃ¡p": 3583,
      "lÃ¡": 3584,
      "ðĿ": 3585,
      "Ġxay": 3586,
      "tube": 3587,
      "rá»ĳi": 3588,
      "ary": 3589,
      "ali": 3590,
      "Ġtrump": 3591,
      "Ġná»ĵng": 3592,
      "Ġvang": 3593,
      "tá»ķ": 3594,
      "áº«m": 3595,
      "Ġliá»ģu": 3596,
      "Äĳáº¡p": 3597,
      "Ġnháº£y": 3598,
      "gu": 3599,
      "Ġcor": 3600,
      "lÃ´ng": 3601,
      "tÃºy": 3602,
      "cÃ¡nh": 3603,
      "cá»§a": 3604,
      "lá»ĵ": 3605,
      "ĠthÃ¡ch": 3606,
      "Ġhonda": 3607,
      "ames": 3608,
      "olf": 3609,
      "yota": 3610,
      "ĠgiÃ¡p": 3611,
      "ĠkhÃ¡i": 3612,
      "Äĳi": 3613,
      "Ġchua": 3614,
      "Ġna": 3615,
      "lá»ĩnh": 3616,
      "thÃ¬": 3617,
      "Ġlá»£n": 3618,
      "ĠsÆ°u": 3619,
      "led": 3620,
      "phÃ¡n": 3621,
      "mail": 3622,
      "láº§m": 3623,
      "ĠkhÄĥn": 3624,
      "ix": 3625,
      "ĠÄĳiá»ĥn": 3626,
      "book": 3627,
      "Ġhá»ıng": 3628,
      "Ġrung": 3629,
      "Ġcáº©m": 3630,
      "Ġspa": 3631,
      "tá»ıa": 3632,
      "Ġtráº¡ng": 3633,
      "br": 3634,
      "Äĳai": 3635,
      "ĠtuÃ¢n": 3636,
      "ks": 3637,
      "tein": 3638,
      "Ġliá»ĩt": 3639,
      "nhÆ°á»£ng": 3640,
      "nguyá»ĩt": 3641,
      "ĠchÃ©": 3642,
      "Ġáº©n": 3643,
      "xá»ī": 3644,
      "Ġchelsea": 3645,
      "phá»¥": 3646,
      "ble": 3647,
      "air": 3648,
      "Ġcá»ĳt": 3649,
      "of": 3650,
      "Ġgen": 3651,
      "Ġnhá»ĭp": 3652,
      "ĠhÃ²n": 3653,
      "bÃ©o": 3654,
      "ss": 3655,
      "táº¥n": 3656,
      "ern": 3657,
      "ÄĳÃªm": 3658,
      "Ġsun": 3659,
      "phu": 3660,
      "Ġtrá»Ļm": 3661,
      "nháº¯c": 3662,
      "mÃłu": 3663,
      "Ġne": 3664,
      "edia": 3665,
      "lÄ©nh": 3666,
      "xÆ°a": 3667,
      "Ġcasino": 3668,
      "hÃ£": 3669,
      "Ġgo": 3670,
      "act": 3671,
      "ĠtrÆ°ng": 3672,
      "dáº¡y": 3673,
      "Ġblu": 3674,
      "ĠtrÃº": 3675,
      "ĠmÃ¨o": 3676,
      "ics": 3677,
      "tÆ°Æ¡i": 3678,
      "ĠtÆ°á»Ľng": 3679,
      "ĠÄĳáº§m": 3680,
      "Ġtiáº¿c": 3681,
      "ĠniÃªm": 3682,
      "xo": 3683,
      "thuá»ĳc": 3684,
      "ĠÄĳáº¯c": 3685,
      "Ġcong": 3686,
      "ana": 3687,
      "ĠxÆ°a": 3688,
      "trÃ²n": 3689,
      "tháº¡ch": 3690,
      "mÃłng": 3691,
      "ĠngáºŃp": 3692,
      "nhÃ¡nh": 3693,
      "tá»Ļi": 3694,
      "tm": 3695,
      "Ġngo": 3696,
      "Ġchinh": 3697,
      "agen": 3698,
      "ngu": 3699,
      "ker": 3700,
      "há»ķ": 3701,
      "áº»o": 3702,
      "Ġadmin": 3703,
      "Ġviá»ħn": 3704,
      "láº·ng": 3705,
      "Æ°á»Łi": 3706,
      "Ġnghiá»ĩp": 3707,
      "tháºŃp": 3708,
      "pool": 3709,
      "sÃ¢u": 3710,
      "Ġbá»ĳc": 3711,
      "Ġwifi": 3712,
      "ĠcÆ°á»Ľp": 3713,
      "Ġdai": 3714,
      "reen": 3715,
      "Ġchá»ĳt": 3716,
      "tÃ¡": 3717,
      "Ġbia": 3718,
      "tech": 3719,
      "ĠmÃ¢y": 3720,
      "ĠÄĳan": 3721,
      "cÆ°á»Ľi": 3722,
      "Ġtoyota": 3723,
      "xa": 3724,
      "kia": 3725,
      "táº¥t": 3726,
      "esia": 3727,
      "Ġtv": 3728,
      "ĠbÄĳ": 3729,
      "ome": 3730,
      "lÃ£nh": 3731,
      "lang": 3732,
      "----": 3733,
      "ngÃ¢n": 3734,
      "ĠxÆ°á»Łng": 3735,
      "Ġbá»įc": 3736,
      "thá»ķ": 3737,
      "ds": 3738,
      "ĠtrÆ°á»£t": 3739,
      "xáº¿": 3740,
      "thá»«a": 3741,
      "báº¡ch": 3742,
      "trong": 3743,
      "á»¥t": 3744,
      "hoÃłn": 3745,
      "Æ°á»£n": 3746,
      "Ġbet": 3747,
      "may": 3748,
      "Ġtia": 3749,
      "enn": 3750,
      "ĠcÆ°á»Ľc": 3751,
      "ĠÄĳáº·ng": 3752,
      "Ġtriá»ĩt": 3753,
      "ĠtrÃ´i": 3754,
      "Ġxá»©ng": 3755,
      "chua": 3756,
      "Ġhuá»³nh": 3757,
      "Ġmassage": 3758,
      "ĠngÆ°Æ¡i": 3759,
      "Ġngá»įn": 3760,
      "ĠngÃ³n": 3761,
      "Ġxáº£": 3762,
      "ĠtráºŃt": 3763,
      "Ġná»¥": 3764,
      "bÃŃ": 3765,
      "má»±c": 3766,
      "Ġios": 3767,
      "vent": 3768,
      "Ġes": 3769,
      "bá»ķng": 3770,
      "vÃło": 3771,
      "ĠngÃ¢m": 3772,
      "Ġngá»¥": 3773,
      "ase": 3774,
      "Ġtiá»ĩm": 3775,
      "tá»ĳi": 3776,
      "donesia": 3777,
      "ĠbáºŃn": 3778,
      "Ġju": 3779,
      "Ġkhá»Ń": 3780,
      "Ġchanh": 3781,
      "ee": 3782,
      "jo": 3783,
      "ĠvnÄĳ": 3784,
      "ĠmÃ³ng": 3785,
      "Ġá»ĳp": 3786,
      "raz": 3787,
      "ĠcÃ¡p": 3788,
      "nhiá»ģu": 3789,
      "xÃ¡ch": 3790,
      "ngoÃ¡i": 3791,
      "háº¹n": 3792,
      "Ġmas": 3793,
      "chÄĥng": 3794,
      "Ġham": 3795,
      "Ġâľ": 3796,
      "senal": 3797,
      "tp": 3798,
      "Ġview": 3799,
      "zu": 3800,
      "Ġmobile": 3801,
      "pha": 3802,
      "win": 3803,
      "ĠdÃ¢u": 3804,
      "acc": 3805,
      "Ġfpt": 3806,
      "ĠâĢĶ": 3807,
      "Ġaf": 3808,
      "luÃ´n": 3809,
      "cháº½": 3810,
      "Ġindonesia": 3811,
      "Ġkhoai": 3812,
      "ria": 3813,
      "Ġic": 3814,
      "Ġmá»Ļc": 3815,
      "Ã¹m": 3816,
      "tÃ¡n": 3817,
      "Ġphá»ķi": 3818,
      "ave": 3819,
      "Ġdá»ĭu": 3820,
      "ĠmÃły": 3821,
      "Ġkeo": 3822,
      "Ġcáº¥t": 3823,
      "ner": 3824,
      "Äĳuá»ķi": 3825,
      "Ġmáº£ng": 3826,
      "ĠhÄĳnd": 3827,
      "yl": 3828,
      "__": 3829,
      "ĠchiÃªu": 3830,
      "Ġhar": 3831,
      "iverpool": 3832,
      "Ġcá»ĳng": 3833,
      "group": 3834,
      "ĠãĢ": 3835,
      "Ġbom": 3836,
      "Ġlogo": 3837,
      "Ġyoutube": 3838,
      "kÃ©m": 3839,
      "ĠlÃŃt": 3840,
      "Ġná»Ł": 3841,
      "ĠÄĳÃ¹": 3842,
      "á»ĭt": 3843,
      "si": 3844,
      "bon": 3845,
      "tÃłng": 3846,
      "Ġá»ĵn": 3847,
      "ven": 3848,
      "Ġblack": 3849,
      "ley": 3850,
      "ĠkhÃ¢u": 3851,
      "xÆ°á»Łng": 3852,
      "Ġaxit": 3853,
      "Ġmc": 3854,
      "vietnam": 3855,
      "ime": 3856,
      "ii": 3857,
      "ĠcháºŃu": 3858,
      "ĠtÃº": 3859,
      "ja": 3860,
      "ars": 3861,
      "thÆ¡m": 3862,
      "nÄĥm": 3863,
      "ĠphÃ¡o": 3864,
      "háº¡nh": 3865,
      "ĠÃ´n": 3866,
      "tain": 3867,
      "duyÃªn": 3868,
      "let": 3869,
      "orn": 3870,
      "vai": 3871,
      "ron": 3872,
      "atch": 3873,
      "ymp": 3874,
      "ĠbÃºt": 3875,
      "ÄĳÃł": 3876,
      "Ġwh": 3877,
      "Ġthá»ĭnh": 3878,
      "máº¡n": 3879,
      "ser": 3880,
      "lin": 3881,
      "Ġsc": 3882,
      "tiá»ĥu": 3883,
      "ji": 3884,
      "trá»¥": 3885,
      "ĠÄĳá»ĩm": 3886,
      "Ġdr": 3887,
      "Ġnáº¿p": 3888,
      "aser": 3889,
      "Ġmá»ĳc": 3890,
      "mua": 3891,
      "Ġlá»¡": 3892,
      "Ġuk": 3893,
      "Ġset": 3894,
      "plus": 3895,
      "Ġinch": 3896,
      "pines": 3897,
      "lub": 3898,
      "_#": 3899,
      "ĠÄĳá»£i": 3900,
      "arl": 3901,
      "ĠlÄĥng": 3902,
      "Ġchuá»ĳi": 3903,
      "Ġpol": 3904,
      "song": 3905,
      "ach": 3906,
      "ĠnÃ©n": 3907,
      "Ġdá»įn": 3908,
      "Ġvá»Ļi": 3909,
      "Ġviettel": 3910,
      "ĠlÃ´i": 3911,
      "nga": 3912,
      "Ġcua": 3913,
      "ĠngÅ©": 3914,
      "dÃ¢y": 3915,
      "Ġtuáº¥n": 3916,
      "ĠkhÃ´n": 3917,
      "Ġtrá»ĳn": 3918,
      "ives": 3919,
      "hot": 3920,
      "ĠÄĳe": 3921,
      "nÃ©t": 3922,
      "gháº¿": 3923,
      "nÃ´ng": 3924,
      "Ġid": 3925,
      "fo": 3926,
      "à¸": 3927,
      "Ġni": 3928,
      "á»ĩm": 3929,
      "ĠÆ¡i": 3930,
      "thá»ĭnh": 3931,
      "bÃ©": 3932,
      "ose": 3933,
      "mÄĥng": 3934,
      "ĠvÃ¡ch": 3935,
      "Ġarsenal": 3936,
      "ĠthÃ¡p": 3937,
      "ith": 3938,
      "háº¥p": 3939,
      "Ġgolf": 3940,
      "ĠnÃ¢u": 3941,
      "chá»ĳi": 3942,
      "ĠmÅ©": 3943,
      "tráº£": 3944,
      "ham": 3945,
      "Ġkiá»ĩn": 3946,
      "Ġtá»ıa": 3947,
      "ize": 3948,
      "Äĳá»ĵn": 3949,
      "Ġphoto": 3950,
      "nghá»ī": 3951,
      "cháº¯c": 3952,
      "ĠcÃºp": 3953,
      "ĳn": 3954,
      "ngÃło": 3955,
      "iss": 3956,
      "ĠcÆ°á»£c": 3957,
      "Ġsá»ĳc": 3958,
      "Ġrá»ĵng": 3959,
      "uyen": 3960,
      "gÃ¡i": 3961,
      "Ġmer": 3962,
      "ÄĳÃłm": 3963,
      "Ġchá»§ng": 3964,
      "Ġtha": 3965,
      "mon": 3966,
      "ĠrÃ¨n": 3967,
      "play": 3968,
      "Ġliverpool": 3969,
      "ger": 3970,
      "nn": 3971,
      "ĠÄĳáº±ng": 3972,
      "iá»ģng": 3973,
      "ĠcáºŃn": 3974,
      "ale": 3975,
      "ampions": 3976,
      "ĠhÃ´i": 3977,
      "Ġmá»«ng": 3978,
      "Ġgas": 3979,
      "omes": 3980,
      "Ġtem": 3981,
      "ĠmÃ©t": 3982,
      "kÃŃ": 3983,
      "park": 3984,
      "ĠÃªm": 3985,
      "Ġpan": 3986,
      "mÃły": 3987,
      "ĠxÃ´ng": 3988,
      "Ġreview": 3989,
      "ĠduyÃªn": 3990,
      "mÃŃ": 3991,
      "ĠxÃł": 3992,
      "ĠvÆ°Æ¡n": 3993,
      "ĠrÃ¨m": 3994,
      "Ġair": 3995,
      "ence": 3996,
      "Ġgá»ĳi": 3997,
      "Ġláº¯ng": 3998,
      "seo": 3999,
      "Ġbh": 4000,
      "ĠtrÃŃch": 4001,
      "ĠtÄ©nh": 4002,
      "sta": 4003,
      "Äĳen": 4004,
      "trinh": 4005,
      "thÃ¡ch": 4006,
      "tháº¡nh": 4007,
      "trÃłng": 4008,
      "ĠmÃŃ": 4009,
      "giÃºp": 4010,
      "bÃ³": 4011,
      "Ġleo": 4012,
      "ĠhÃło": 4013,
      "ĠqÄĳ": 4014,
      "_[": 4015,
      "df": 4016,
      "áº±n": 4017,
      "hÃłm": 4018,
      "sub": 4019,
      "Ġhung": 4020,
      "Ġchip": 4021,
      "page": 4022,
      "mang": 4023,
      "lÆ°á»Ľi": 4024,
      "bÃ³ng": 4025,
      "king": 4026,
      "Ġvnd": 4027,
      "Ġtra": 4028,
      "ĠthuáºŃt": 4029,
      "aoke": 4030,
      "ial": 4031,
      "khoáº£ng": 4032,
      "Ġkhoáº£nh": 4033,
      "Ġphiáº¿u": 4034,
      "Ġusb": 4035,
      "aw": 4036,
      "day": 4037,
      "Ġipad": 4038,
      "vil": 4039,
      "Ġphilippines": 4040,
      "Ġráº¡ng": 4041,
      "Ġmá»Ŀ": 4042,
      "Ġtrá»ĭnh": 4043,
      "Ġgiang": 4044,
      "ze": 4045,
      "sáº¡ch": 4046,
      "ĠcÃ¡m": 4047,
      "vin": 4048,
      "Ġkhuyáº¿t": 4049,
      "chá»§ng": 4050,
      "Ġao": 4051,
      "nghe": 4052,
      "ivers": 4053,
      "diá»ĩt": 4054,
      "ple": 4055,
      "ere": 4056,
      "bar": 4057,
      "ĠÄĳá»ĳng": 4058,
      "Ġsen": 4059,
      "Ġlen": 4060,
      "sÃ³t": 4061,
      "ĠngÃµ": 4062,
      "puchia": 4063,
      "ĠgÃ²": 4064,
      "ĠÄĳÃ¡y": 4065,
      "táº¯m": 4066,
      "ĠxÆ¡": 4067,
      "pháº£i": 4068,
      "nang": 4069,
      "ngá»įt": 4070,
      "Ġmá»Ļ": 4071,
      "Ġhp": 4072,
      "Ġká»ģ": 4073,
      "ieu": 4074,
      "Ġdan": 4075,
      "ĠbÄĥn": 4076,
      "ĠdÃ¡ng": 4077,
      "Ġpháº¿": 4078,
      "Ġmicrosoft": 4079,
      "mp": 4080,
      "khoÄĥn": 4081,
      "ĠphÆ¡i": 4082,
      "que": 4083,
      "Ġcal": 4084,
      "Ġnháº§m": 4085,
      "Ġdá»©t": 4086,
      "Ġráº¯n": 4087,
      "Ġnáº¯p": 4088,
      "ters": 4089,
      "Ġ....": 4090,
      "Ġval": 4091,
      "Ġcháº£": 4092,
      "bin": 4093,
      "giáº¥y": 4094,
      "Ġword": 4095,
      "ĠÄĳÃŃch": 4096,
      "tá»ĵn": 4097,
      "há»ıng": 4098,
      "bc": 4099,
      "Ġláº¡m": 4100,
      "vang": 4101,
      "Ġdáº¡o": 4102,
      "ĠchÃ¨": 4103,
      "ĠmÃłng": 4104,
      "_âĤ«": 4105,
      "Ġbáº¡o": 4106,
      "lÃª": 4107,
      "Ġben": 4108,
      "Ġlam": 4109,
      "phÃ¡i": 4110,
      "Ġdá»±ng": 4111,
      "táº·ng": 4112,
      "ud": 4113,
      "ĠÄĳáº¯k": 4114,
      "ĠmÃ¬": 4115,
      "xx": 4116,
      "ĠÄĳÃ¢m": 4117,
      "undai": 4118,
      "vis": 4119,
      "Ġcampuchia": 4120,
      "Ġtráº¡i": 4121,
      "Ġgold": 4122,
      "razil": 4123,
      "Ġcá»ĵn": 4124,
      "bÆ¡m": 4125,
      "mÆ°u": 4126,
      "kiá»ģu": 4127,
      "ĠgiÃ¡ng": 4128,
      "ná»ģ": 4129,
      "Ġtháº±ng": 4130,
      "nguá»ĵn": 4131,
      "madrid": 4132,
      "Ġpremi": 4133,
      "Ġkaraoke": 4134,
      "lá»ĩch": 4135,
      "trÄĥng": 4136,
      "ĠbÄĳs": 4137,
      "Ġrá»±c": 4138,
      "cai": 4139,
      "ná»ķ": 4140,
      "ĠÄĳá»ĵi": 4141,
      "chÃłng": 4142,
      "lagen": 4143,
      "Ġhan": 4144,
      "ngÆ°á»¡ng": 4145,
      "ï¸": 4146,
      "ĠchiÃªm": 4147,
      "ĠÄĳá»¡": 4148,
      "Ġsyria": 4149,
      "ĳc": 4150,
      "ign": 4151,
      "Ġtá»ıi": 4152,
      "ĠgiáºŃt": 4153,
      "mer": 4154,
      "der": 4155,
      "ĠnÃ¡m": 4156,
      "hÃ³c": 4157,
      "Ã½t": 4158,
      "ini": 4159,
      "ï¸ı": 4160,
      "ĠâĢ¢_": 4161,
      "khÃ¡ng": 4162,
      "shi": 4163,
      "ĠkhÃ©o": 4164,
      "Ġhiáº¿n": 4165,
      "Ġlá»ĵng": 4166,
      "Ġváº¯ng": 4167,
      "pháºŃt": 4168,
      "arch": 4169,
      "Ġtn": 4170,
      "Ġurl": 4171,
      "máº¡o": 4172,
      "onaldo": 4173,
      "ĠbÃ´i": 4174,
      "Ã¨n": 4175,
      "Ġop": 4176,
      "ĠngÆ°": 4177,
      "ĠÃł": 4178,
      "Ġlai": 4179,
      "Ġváº¯c": 4180,
      "Ġdec": 4181,
      "Ġps": 4182,
      "dÃ¢u": 4183,
      "tÆ°á»Ŀng": 4184,
      "diá»ĩu": 4185,
      "ĠphÃŃm": 4186,
      "thiá»ĩp": 4187,
      "Ġolymp": 4188,
      "gram": 4189,
      "igh": 4190,
      "Ġsuá»ĳi": 4191,
      "ita": 4192,
      "Ġshi": 4193,
      "ĠvÆ°á»Ľng": 4194,
      "Ġtháº¯t": 4195,
      "thoÃ¡t": 4196,
      "ÃŃu": 4197,
      "Ġtre": 4198,
      "áº·m": 4199,
      "bur": 4200,
      "bÃ³n": 4201,
      "hoáº£ng": 4202,
      "khá»©": 4203,
      "ĠkÃ¬": 4204,
      "ngÃ£i": 4205,
      "ant": 4206,
      "Ġbá»Ĺng": 4207,
      "háº³n": 4208,
      "Ġlá»©a": 4209,
      "ya": 4210,
      "máº¿n": 4211,
      "........": 4212,
      "ĠkhÃ³i": 4213,
      "Ġcáº£n": 4214,
      "ye": 4215,
      "ĠgiÃ£n": 4216,
      "Ġhiá»ģn": 4217,
      "iano": 4218,
      "Ġplay": 4219,
      "Ġclick": 4220,
      "Ġcháº©n": 4221,
      "ĠtrÃ¹ng": 4222,
      "má»Ļng": 4223,
      "liÃªn": 4224,
      "ato": 4225,
      "cáº§m": 4226,
      "ĠÄĳuÃ´i": 4227,
      "cá»¡": 4228,
      "Ġram": 4229,
      "ĠdÆ°a": 4230,
      "cá»ĳc": 4231,
      "hÃ¡t": 4232,
      "phÃºt": 4233,
      "trá»Ł": 4234,
      "mÆ°á»Ŀi": 4235,
      "ĠÃ¡m": 4236,
      "ĠcÆ°Æ¡ng": 4237,
      "Ġsi": 4238,
      "Ġct": 4239,
      "huáº¥n": 4240,
      "kong": 4241,
      "trá»ĵng": 4242,
      "accine": 4243,
      "ok": 4244,
      "khá»Łi": 4245,
      "cá»©ng": 4246,
      "york": 4247,
      "Ġcá»¡": 4248,
      "ĠsÆ°Æ¡ng": 4249,
      "ster": 4250,
      "ĠvÄ©": 4251,
      "Ġnhi": 4252,
      "ĠÃ": 4253,
      "ris": 4254,
      "ĠcÄĳ": 4255,
      "tte": 4256,
      "ĠnhiÃªn": 4257,
      "eck": 4258,
      "tráº¡i": 4259,
      "Ġwe": 4260,
      "ĠngÆ°á»¡ng": 4261,
      "Ġlá»įt": 4262,
      "ĠtrÃ¢n": 4263,
      "Ġvinhomes": 4264,
      "Ġukra": 4265,
      "nhÃ£": 4266,
      "_Â·": 4267,
      "mÃ²": 4268,
      "Ġphu": 4269,
      "Ġ@": 4270,
      "Ġcap": 4271,
      "ĠvÃ²i": 4272,
      "ĠÂ·_": 4273,
      "gÅ©i": 4274,
      "Ġhyundai": 4275,
      "ĠnhÆ°á»£c": 4276,
      "Ġmau": 4277,
      "Ġquáº·ng": 4278,
      "Ġcháº·n": 4279,
      "Ġmodel": 4280,
      "ĠchiÃªn": 4281,
      "á»±ng": 4282,
      "iga": 4283,
      "thÃ¡p": 4284,
      "Ġste": 4285,
      "Ġrá»¥ng": 4286,
      "má»Ļc": 4287,
      "á»ĥn": 4288,
      "ĠthÃ¹": 4289,
      "nháº¹": 4290,
      "ced": 4291,
      "Ġvaccine": 4292,
      "ĠsÆ°ng": 4293,
      "ĠgiÃ¡n": 4294,
      "ĠdÅ©ng": 4295,
      "ari": 4296,
      "bia": 4297,
      "giÃª": 4298,
      "mau": 4299,
      "Ġtag": 4300,
      "váº£": 4301,
      "Ġtok": 4302,
      "stralia": 4303,
      "Ġlh": 4304,
      "ĠchÃ¡n": 4305,
      "inch": 4306,
      "Ġase": 4307,
      "á»Ľp": 4308,
      "háº±ng": 4309,
      "ington": 4310,
      "enter": 4311,
      "biz": 4312,
      "ĠnhÄĥn": 4313,
      "mÃ´i": 4314,
      "Ġmá»ķ": 4315,
      "ÄĳÆ°á»£c": 4316,
      "mÃ¬": 4317,
      "dá»©t": 4318,
      "nghiÃªn": 4319,
      "Ġkhoan": 4320,
      "Ġngáº¡c": 4321,
      "op": 4322,
      "Ġáº¥p": 4323,
      "ext": 4324,
      "ason": 4325,
      "trÃ¡ng": 4326,
      "Ġdes": 4327,
      "Ġprotein": 4328,
      "Ġasean": 4329,
      "ĠquÃ©t": 4330,
      "Ġbrazil": 4331,
      "Ġsáº¹o": 4332,
      "Ġsil": 4333,
      "ngÆ°Æ¡i": 4334,
      "ĠlÃ¡t": 4335,
      "bot": 4336,
      "Ġmv": 4337,
      "dc": 4338,
      "báºŃc": 4339,
      "Ġquá»·": 4340,
      "xáº¡": 4341,
      "enc": 4342,
      "tÃªn": 4343,
      "essi": 4344,
      "Ġsoáº¡n": 4345,
      "ni": 4346,
      "thoÃ¡ng": 4347,
      "Ġtáº¡": 4348,
      "cháº¡m": 4349,
      "á´": 4350,
      "giáº·t": 4351,
      "chÃ¡nh": 4352,
      "Ġtm": 4353,
      "máº·c": 4354,
      "á»ķn": 4355,
      "Ġku": 4356,
      "iáº¿c": 4357,
      "ĠluÃ¢n": 4358,
      "Ġchampions": 4359,
      "Ġngá»¯": 4360,
      "Ġford": 4361,
      "box": 4362,
      "ĠâĨ": 4363,
      "Ġnhá»ĭ": 4364,
      "Ġhong": 4365,
      "ĠÃ¡c": 4366,
      "Ġtáº¯c": 4367,
      "dong": 4368,
      "quÃ¡t": 4369,
      "Ġtráº¥n": 4370,
      "Ġtaxi": 4371,
      "bai": 4372,
      "kÃ©o": 4373,
      "video": 4374,
      "Ġvtv": 4375,
      "hÃ£i": 4376,
      "hiáº¿n": 4377,
      "ĠÃ¢u": 4378,
      "Ġsony": 4379,
      "lÄĳ": 4380,
      "phÆ°á»£ng": 4381,
      "Ġá»ĳc": 4382,
      "port": 4383,
      "Ġplus": 4384,
      "tion": 4385,
      "Ġtao": 4386,
      "Ġthuáº§n": 4387,
      "ĠtoÃ¡n": 4388,
      "bá»ıng": 4389,
      "han": 4390,
      "qg": 4391,
      "Äĳiá»ģn": 4392,
      "ax": 4393,
      "Ġnho": 4394,
      "Ġread": 4395,
      "cÃ£i": 4396,
      "ĠkhÃ´i": 4397,
      "ĠgÄĥng": 4398,
      "Ġcay": 4399,
      "aco": 4400,
      "tal": 4401,
      "sc": 4402,
      "arden": 4403,
      "ĠÆ°ng": 4404,
      "united": 4405,
      "Ġiran": 4406,
      "games": 4407,
      "Ġdis": 4408,
      "Ġmat": 4409,
      "istan": 4410,
      "bá»ī": 4411,
      "Ġtik": 4412,
      "yáº¿t": 4413,
      "cháº£y": 4414,
      "viáº¿t": 4415,
      "tuyáº¿t": 4416,
      "fone": 4417,
      "Ġlon": 4418,
      "Äĳá»±ng": 4419,
      "á»µ": 4420,
      "váº·t": 4421,
      "phÃŃm": 4422,
      "vui": 4423,
      "tx": 4424,
      "Ġngá»©a": 4425,
      "ife": 4426,
      "star": 4427,
      "Ġer": 4428,
      "chÃ©p": 4429,
      "ná»ķi": 4430,
      "ford": 4431,
      "Ġtháº¥u": 4432,
      "ĠchÃ©n": 4433,
      "Ġstar": 4434,
      "cb": 4435,
      "khá»ĳi": 4436,
      "dÄ©": 4437,
      "ĠÄĳun": 4438,
      "Ġváº¥t": 4439,
      "nhÄ©": 4440,
      "Ġcollagen": 4441,
      "canh": 4442,
      "dáº§n": 4443,
      "Ġthá»ķi": 4444,
      "Ġnháº«n": 4445,
      "lÆ°á»¡ng": 4446,
      "ĠtÃ¡n": 4447,
      "Ġone": 4448,
      "tream": 4449,
      "td": 4450,
      "Ġgiam": 4451,
      "Ġthiá»ĩn": 4452,
      "tiá»ħn": 4453,
      "Ġváº·t": 4454,
      "ĠsÃ²ng": 4455,
      "ĠchÃªnh": 4456,
      "trÃ¡nh": 4457,
      "ane": 4458,
      "ĠlÃ¢n": 4459,
      "Ġlaser": 4460,
      "ĠÄĳÃ¨": 4461,
      "Ġparis": 4462,
      "xÃ¡": 4463,
      "nhÆ¡n": 4464,
      "ãģ": 4465,
      "Ġki": 4466,
      "Ġngá»±a": 4467,
      "ena": 4468,
      "mes": 4469,
      "Ġná»ĳt": 4470,
      "Ġcai": 4471,
      "ĠchÃ¬m": 4472,
      "bum": 4473,
      "Ġblock": 4474,
      "Ġbig": 4475,
      "Ġtá»ĭ": 4476,
      "pi": 4477,
      "onald": 4478,
      "Ġbid": 4479,
      "rlines": 4480,
      "ĠmÃłi": 4481,
      "ĠÄĳá»¥": 4482,
      "ele": 4483,
      "ĠxÃ¡m": 4484,
      "Ġteam": 4485,
      "Ġvá»ĭnh": 4486,
      "bal": 4487,
      "lá»Ľp": 4488,
      "chá»«ng": 4489,
      "lÃ³t": 4490,
      "ust": 4491,
      "cong": 4492,
      "Ġbv": 4493,
      "Ġláº§u": 4494,
      "ild": 4495,
      "ÄĳÄ©a": 4496,
      "hÃłn": 4497,
      "ĠÃ´tÃ´": 4498,
      "sá»£": 4499,
      "Ġmp": 4500,
      "Ġper": 4501,
      "celona": 4502,
      "chá»Ĺ": 4503,
      "ory": 4504,
      "mm": 4505,
      "aland": 4506,
      "trÃŃch": 4507,
      "Ġlá»ıng": 4508,
      "tina": 4509,
      "ĠlÃµi": 4510,
      "Ġcat": 4511,
      "ky": 4512,
      "Ġthcs": 4513,
      "Ġresort": 4514,
      "ĠÄĳuá»ķi": 4515,
      "sÃºt": 4516,
      "ĠvÃ¡n": 4517,
      "rÃ¡p": 4518,
      "ĠlÆ°á»¡i": 4519,
      "sáº¯t": 4520,
      "ĠrÃł": 4521,
      "aomi": 4522,
      "á»ĭa": 4523,
      "Ġtuyáº¿t": 4524,
      "ah": 4525,
      "ká»ĭch": 4526,
      "hiáº¿u": 4527,
      "Äĳá»Ľi": 4528,
      "low": 4529,
      "ĠÄĳá»ĵn": 4530,
      "Ġang": 4531,
      "Ġcity": 4532,
      "ĠÄĳiá»ģm": 4533,
      "lot": 4534,
      "link": 4535,
      "pg": 4536,
      "viá»ħn": 4537,
      "lÆ°ng": 4538,
      "ĠkhÃ©p": 4539,
      "ream": 4540,
      "Ġlá»ģ": 4541,
      "pho": 4542,
      "ĠtÃ³m": 4543,
      "xá»īu": 4544,
      "¥t": 4545,
      "Ġsap": 4546,
      "Äĳoáº¡t": 4547,
      "mobile": 4548,
      "Ġstr": 4549,
      "Ġcuá»Ļn": 4550,
      "Ġbá»ī": 4551,
      "dá»ĭp": 4552,
      "cháº¡y": 4553,
      "mÃ²n": 4554,
      "cáº£n": 4555,
      "Ġbáº¯p": 4556,
      "sá»ĳt": 4557,
      "ĠcÃºng": 4558,
      "Ġiii": 4559,
      "ngá»£i": 4560,
      "ĠláºŃt": 4561,
      "Ġngáº§m": 4562,
      "Ġsg": 4563,
      "trÃł": 4564,
      "ĠÄĳáº¯p": 4565,
      "Ġsw": 4566,
      "Ġtech": 4567,
      "Ġuá»ĳn": 4568,
      "cd": 4569,
      "ĠlÄĥn": 4570,
      "á»ıng": 4571,
      "hÃ¨n": 4572,
      "ĠnhÃ¬": 4573,
      "Ġhá»ķ": 4574,
      "ĠthÆ°a": 4575,
      "Ã¬a": 4576,
      "Ġsky": 4577,
      "ĠbÃ¡ch": 4578,
      "váº½": 4579,
      "Ġrang": 4580,
      "dá»įa": 4581,
      "ĠÄĳáº¡n": 4582,
      "ĠmÃ¢m": 4583,
      "kiá»ĩt": 4584,
      "ĠnÃ©m": 4585,
      "chiá»ģu": 4586,
      "ĠdÃ¢ng": 4587,
      "Ġdáº£i": 4588,
      "Ġmuá»Ļn": 4589,
      "airlines": 4590,
      "Ġlg": 4591,
      "ĠtrÄ©": 4592,
      "room": 4593,
      "gin": 4594,
      "áº¿ch": 4595,
      "chÃ¢m": 4596,
      "ĠtÃ¡m": 4597,
      "Ġngá»Ŀ": 4598,
      "sd": 4599,
      "xvn": 4600,
      "cÃ¢u": 4601,
      "bÄĥng": 4602,
      "ĠmÃ´ng": 4603,
      "Ġjohn": 4604,
      "Ġcanxi": 4605,
      "Ġnháº¥p": 4606,
      "Ġcá»§ng": 4607,
      "eld": 4608,
      "cá»ĳt": 4609,
      "ĠxÃŃch": 4610,
      "háº¹p": 4611,
      "Ġhiáº¿u": 4612,
      "Ġred": 4613,
      "ĠphÆ°á»Ľc": 4614,
      "Ġeo": 4615,
      "Ġtháº£i": 4616,
      "ĠâĤ«": 4617,
      "náº¡p": 4618,
      "sáº¥y": 4619,
      "sun": 4620,
      "ku": 4621,
      "por": 4622,
      "mÃ¹a": 4623,
      "Ġmáº·n": 4624,
      "ĠkhÃ¡t": 4625,
      "Ġmb": 4626,
      "Ġbuá»ĵng": 4627,
      "ise": 4628,
      "Ġhá»©ng": 4629,
      "express": 4630,
      "báº£ng": 4631,
      "ance": 4632,
      "Ġpremier": 4633,
      "ĠbÆ¡": 4634,
      "Ġcháº·ng": 4635,
      "chÃ¡y": 4636,
      "Äĳá»©ng": 4637,
      "chester": 4638,
      "nham": 4639,
      "má»Ł": 4640,
      "lÃ©o": 4641,
      "pan": 4642,
      "Ġhack": 4643,
      "thuáº«n": 4644,
      "Ġngáº¡i": 4645,
      "Ġgel": 4646,
      "Ġsl": 4647,
      "ĠÄĳu": 4648,
      "tru": 4649,
      "Ġtru": 4650,
      "Ġá»Ľt": 4651,
      "omo": 4652,
      "Ġsuper": 4653,
      "work": 4654,
      "Ġve": 4655,
      "Ġmel": 4656,
      "sy": 4657,
      "Ġbhxh": 4658,
      "Äĳá»īnh": 4659,
      "ĠbÃło": 4660,
      "Ġchá»«ng": 4661,
      "ĠvÃº": 4662,
      "Ġsea": 4663,
      "Ġviá»ģn": 4664,
      "ĠchÃ¡nh": 4665,
      "ren": 4666,
      "Ġlee": 4667,
      "ĠÄĳiá»ģn": 4668,
      "ĠlÃŃ": 4669,
      "cáº¯p": 4670,
      "ĠnÄĳ": 4671,
      "Ľt": 4672,
      "mÅ©i": 4673,
      "mÃ£n": 4674,
      "Ġfu": 4675,
      "camera": 4676,
      "Ġukraine": 4677,
      "fl": 4678,
      "giá»ĳng": 4679,
      "quá»³nh": 4680,
      "ĠÄĳÃºc": 4681,
      "ragon": 4682,
      "ĠxÃło": 4683,
      "ĠthÃ¬a": 4684,
      "Ġkhe": 4685,
      "ooth": 4686,
      "Ġcro": 4687,
      "Ġvá»ĭt": 4688,
      "má»ī": 4689,
      "á»ĩn": 4690,
      "trá»Ļn": 4691,
      "liÃªm": 4692,
      "nÆ°á»Ľng": 4693,
      "ĠchÃ¡o": 4694,
      "Ġdá»ĩt": 4695,
      "tá»īnh": 4696,
      "khiáº¿t": 4697,
      "emo": 4698,
      "tang": 4699,
      "ĠÄĳÃ³i": 4700,
      "khÃ³": 4701,
      "Ġmax": 4702,
      "Ġty": 4703,
      "ĠdÃ£y": 4704,
      "out": 4705,
      "ilan": 4706,
      "ben": 4707,
      "red": 4708,
      "ĠgÃ¡nh": 4709,
      "itter": 4710,
      "Äĳá»Ľn": 4711,
      "Ġbarcelona": 4712,
      "Ġtrinh": 4713,
      "vic": 4714,
      "Ġttxvn": 4715,
      "Ġláº¥p": 4716,
      "ĠÃ¢n": 4717,
      "ngá»Ļ": 4718,
      "inho": 4719,
      "ĠbÆ°u": 4720,
      "tudio": 4721,
      "trump": 4722,
      "bá»įc": 4723,
      "khoÃ¡ng": 4724,
      "cer": 4725,
      "hiáº¿m": 4726,
      "Ġsuáº¥t": 4727,
      "cÃºng": 4728,
      "aki": 4729,
      "ĠmÃ¡": 4730,
      "truyá»ĩn": 4731,
      "ĠcÆ°á»¡ng": 4732,
      "pn": 4733,
      "thua": 4734,
      "dÆ°": 4735,
      "ĠtrÆ¡n": 4736,
      "Ġrom": 4737,
      "Ġhá»ĳi": 4738,
      "Ġ~": 4739,
      "cov": 4740,
      "Ġnháº¯m": 4741,
      "sÃ¢m": 4742,
      "Ġgiáº¥u": 4743,
      "ember": 4744,
      "Ġkon": 4745,
      "ĠgÃµ": 4746,
      "combank": 4747,
      "ĠgÃ£": 4748,
      "thÄĥng": 4749,
      "cá»±": 4750,
      "lÃ¹ng": 4751,
      "ings": 4752,
      "arm": 4753,
      "Ġaustralia": 4754,
      "Ġform": 4755,
      "Ġpa": 4756,
      "ĠkÃŃ": 4757,
      "dáº¡": 4758,
      "Ġtáº£n": 4759,
      "ĠdÄ©": 4760,
      "lÃłng": 4761,
      "pin": 4762,
      "Ġlang": 4763,
      "qt": 4764,
      "bá»Ļt": 4765,
      "lÅ©": 4766,
      "sex": 4767,
      "ĠÄĳáº»": 4768,
      "ĠchÃ¬a": 4769,
      "Ġje": 4770,
      "ná»Ńa": 4771,
      "Ġmr": 4772,
      "khá»Ľp": 4773,
      "Ġcard": 4774,
      "liga": 4775,
      "nt": 4776,
      "gÃłng": 4777,
      "chÃ¹": 4778,
      "Ġzing": 4779,
      "Ġzalo": 4780,
      "tÃ´n": 4781,
      "ĠmÃ¢u": 4782,
      "ĠlÃŃnh": 4783,
      "Ġdá»ĳc": 4784,
      "ney": 4785,
      "ola": 4786,
      "Ġsá»ıi": 4787,
      "liÃªu": 4788,
      "ĠÄĳá»¥ng": 4789,
      "giáº£ng": 4790,
      "ĠnghiÃªng": 4791,
      "ĠhÆ°u": 4792,
      "Ġdonald": 4793,
      "date": 4794,
      "Ġphanh": 4795,
      "Ġmáº¡": 4796,
      "tráº£i": 4797,
      "Ġcá»ĳc": 4798,
      "inc": 4799,
      "Ġxiaomi": 4800,
      "ae": 4801,
      "Ġquáº§y": 4802,
      "hoan": 4803,
      "ĠhoÃłnh": 4804,
      "vuÃ´ng": 4805,
      "cap": 4806,
      "Ġpre": 4807,
      "ura": 4808,
      "Ġláº¯c": 4809,
      "á»¥a": 4810,
      "ake": 4811,
      "lt": 4812,
      "Ġ{": 4813,
      "ational": 4814,
      "Ġgá»«ng": 4815,
      "ĠdÃ£": 4816,
      "Ġjav": 4817,
      "ond": 4818,
      "Ġpoly": 4819,
      "báº£y": 4820,
      "Ġhs": 4821,
      "Ġbinh": 4822,
      "nu": 4823,
      "Ġcc": 4824,
      "há»Ļp": 4825,
      "ä¸": 4826,
      "Ġtags": 4827,
      "Ġbáº¿": 4828,
      "Ġong": 4829,
      "nhÅ©ng": 4830,
      "Ġtá»Ľ": 4831,
      "nÃ£o": 4832,
      "aly": 4833,
      "Ġxá»ĭt": 4834,
      "sÃłn": 4835,
      "rÃºt": 4836,
      "Ġgiá»įt": 4837,
      "Ġalbum": 4838,
      "ĠbÃºn": 4839,
      "ĠcÃ¡o": 4840,
      "Ġfree": 4841,
      "ĠluáºŃn": 4842,
      "tour": 4843,
      "Ġcode": 4844,
      "Ã¹n": 4845,
      "tvt": 4846,
      "Ġbarca": 4847,
      "ĠcÃłnh": 4848,
      "Ġláº½": 4849,
      "Ġall": 4850,
      "Ġever": 4851,
      "wa": 4852,
      "dai": 4853,
      "zo": 4854,
      "ĠtrÃ¢u": 4855,
      "Ġmanchester": 4856,
      "chá»Ŀ": 4857,
      "Ġláº¡ng": 4858,
      "ĠtrÃło": 4859,
      "thuáº§n": 4860,
      "xá»©ng": 4861,
      "Ġmuá»Ĺi": 4862,
      "Ġtang": 4863,
      "ĠbÃ³": 4864,
      "hÆ°á»Ľc": 4865,
      "Ġbáº¥y": 4866,
      "Ġbro": 4867,
      "Ġquá»³nh": 4868,
      "Ġbin": 4869,
      "há»§y": 4870,
      "Ġronaldo": 4871,
      "Ġná»©t": 4872,
      "ĵi": 4873,
      "gd": 4874,
      "ĠÄĳiÃªn": 4875,
      "Ġgs": 4876,
      "dáº¯t": 4877,
      "Ġráº¯c": 4878,
      "bá»ģn": 4879,
      "ny": 4880,
      "giáºŃn": 4881,
      "tb": 4882,
      "lÄĥng": 4883,
      "Ġcorona": 4884,
      "Ġkiá»ģu": 4885,
      "Ġcty": 4886,
      "ĠÄĳÃŃnh": 4887,
      "Ġfe": 4888,
      "rá»Ļn": 4889,
      "ÄĳÃ¡n": 4890,
      "ator": 4891,
      "Ġdiá»ĩp": 4892,
      "Ġkhiáº¿u": 4893,
      "xÃ³m": 4894,
      "wei": 4895,
      "gÃ³c": 4896,
      "Ġtrá»į": 4897,
      "Ġâĸ": 4898,
      "rá»ĭa": 4899,
      "Ġthis": 4900,
      "ĠláºŃu": 4901,
      "táº¯t": 4902,
      "ela": 4903,
      "Ġlá»Ļc": 4904,
      "Ġvina": 4905,
      "wh": 4906,
      "Ġcáº¯n": 4907,
      "ná»Ł": 4908,
      "ĠgiÃłn": 4909,
      "ĠgÃ£y": 4910,
      "bÃª": 4911,
      "Ġkhuy": 4912,
      "ĠkhÃºc": 4913,
      "ep": 4914,
      "gra": 4915,
      "hang": 4916,
      "Ġcá»Ĺ": 4917,
      "Ġkáº½": 4918,
      "má»¡": 4919,
      "Ġ\\": 4920,
      "īa": 4921,
      "ashington": 4922,
      "Ġlung": 4923,
      "Ġsize": 4924,
      "Ġms": 4925,
      "cuá»ĳn": 4926,
      "kt": 4927,
      "phÃ¢n": 4928,
      "uters": 4929,
      "Ġgá»¡": 4930,
      "ĠmÆ°á»£t": 4931,
      "ĠÄĳá»ĭch": 4932,
      "Ġos": 4933,
      "usd": 4934,
      "ĠkhÃŃa": 4935,
      "ashi": 4936,
      "pal": 4937,
      "khÃ¡c": 4938,
      "há»į": 4939,
      "náº¡i": 4940,
      "Ġcmnd": 4941,
      "Ġbs": 4942,
      "Ġthoa": 4943,
      "mb": 4944,
      "hÃ©t": 4945,
      "eu": 4946,
      "rÃło": 4947,
      "fc": 4948,
      "etooth": 4949,
      "mw": 4950,
      "ĠkhÆ¡i": 4951,
      "Ġvic": 4952,
      "ĠthoÃ¡i": 4953,
      "Ġdel": 4954,
      "ĠÄĳc": 4955,
      "Ġns": 4956,
      "Ġlike": 4957,
      "giÃł": 4958,
      "cá»ı": 4959,
      "cedes": 4960,
      "tine": 4961,
      "hao": 4962,
      "ngÆ°á»£c": 4963,
      "word": 4964,
      "ĠxÄĥm": 4965,
      "Ġ}": 4966,
      "Ġhá»įng": 4967,
      "Ġngá»Ļ": 4968,
      "chá»ĳt": 4969,
      "Ġmobi": 4970,
      "Ġrun": 4971,
      "ater": 4972,
      "khoÃ¡c": 4973,
      "tráº¡ch": 4974,
      "ĠvuÃ´ng": 4975,
      "bÃ£o": 4976,
      "Ġwith": 4977,
      "Ġdá»įa": 4978,
      "gmail": 4979,
      "Äĳáº·n": 4980,
      "kin": 4981,
      "dá»¯": 4982,
      "Ġsung": 4983,
      "ĠxÃ³m": 4984,
      "Ġceo": 4985,
      "thuyá»ģn": 4986,
      "Ġphiá»ģn": 4987,
      "Ġquyá»ĥn": 4988,
      "ium": 4989,
      "Ġseries": 4990,
      "sang": 4991,
      "huáº¿": 4992,
      "Ġmessi": 4993,
      "ĠdáºŃp": 4994,
      "Ġgrand": 4995,
      "Ġvip": 4996,
      "Ġreuters": 4997,
      "nho": 4998,
      "dro": 4999,
      "aka": 5000,
      "tháº©m": 5001,
      "Ġauto": 5002,
      "Ġgá»ĳm": 5003,
      "siÃªu": 5004,
      "eta": 5005,
      "tent": 5006,
      "ĠsÃ¢m": 5007,
      "Ġvtc": 5008,
      "Ġtro": 5009,
      "ĠngÆ°ng": 5010,
      "ngáº¯n": 5011,
      "off": 5012,
      "ĠchuÃ´ng": 5013,
      "Ġleague": 5014,
      "_âĢ¢": 5015,
      "ventus": 5016,
      "ĠÄĳÃ²n": 5017,
      "ĠrÃ¢u": 5018,
      "Ġgra": 5019,
      "ttenham": 5020,
      "Ġag": 5021,
      "trÃ¡i": 5022,
      "ĠlÆ°á»Ľt": 5023,
      "ĠrÃ²": 5024,
      "bÃ¡ch": 5025,
      "cor": 5026,
      "Ġnhá»ī": 5027,
      "ĠkiÃªm": 5028,
      "Ġnghá»ĭch": 5029,
      "Ġgiáº£n": 5030,
      "Ġtháº¡c": 5031,
      "vÆ°á»£ng": 5032,
      "áº¿m": 5033,
      "Ġgb": 5034,
      "Ġthiá»ģn": 5035,
      "ĠquÃ£ng": 5036,
      "rá»ī": 5037,
      "ĠÃĹ": 5038,
      "ĠsÃ³c": 5039,
      "mas": 5040,
      "gl": 5041,
      "ÄĳÃ´i": 5042,
      "thoáº£ng": 5043,
      "Ġbos": 5044,
      "tum": 5045,
      "Ġsv": 5046,
      "khÃ¡t": 5047,
      "tá»±u": 5048,
      "Ġkhoang": 5049,
      "lanh": 5050,
      "pos": 5051,
      "cher": 5052,
      "Ġback": 5053,
      "Ġsel": 5054,
      "má»©c": 5055,
      "Ġmt": 5056,
      "nháº¡t": 5057,
      "Ġbtc": 5058,
      "ĠthÃ¨": 5059,
      "ĠquÃ¡i": 5060,
      "rÆ¡i": 5061,
      "ition": 5062,
      "ader": 5063,
      "ĠgiÃ²n": 5064,
      "Ġcheck": 5065,
      "Ġque": 5066,
      "ppo": 5067,
      "Ġjack": 5068,
      "ĠtÆ°á»Ľi": 5069,
      "há»¥t": 5070,
      "Ġab": 5071,
      "Ġgai": 5072,
      "sai": 5073,
      "Ġtá»ĩp": 5074,
      "Ġgá»ī": 5075,
      "Ġrobot": 5076,
      "Ġngáº«u": 5077,
      "des": 5078,
      "báº¡o": 5079,
      "sl": 5080,
      "Ġ=>": 5081,
      "Ġgtvt": 5082,
      "Ġmercedes": 5083,
      "cal": 5084,
      "dinh": 5085,
      "wood": 5086,
      "Äĳáº·c": 5087,
      "Äĳáº¡c": 5088,
      "Ġpower": 5089,
      "Ġváº¡ch": 5090,
      "_âĢĶ": 5091,
      "Ġhn": 5092,
      "Ġná»ĩm": 5093,
      "Ġlá»į": 5094,
      "ðĿĲ": 5095,
      "urinho": 5096,
      "Ġhá»Ł": 5097,
      "ĠvÄĳ": 5098,
      "soi": 5099,
      "Ġgay": 5100,
      "ĠmuÃ´n": 5101,
      "Ġwashington": 5102,
      "tainer": 5103,
      "nhá»Ł": 5104,
      "ĠvÃłnh": 5105,
      "rael": 5106,
      "chÃºc": 5107,
      "nhung": 5108,
      "phá»ķ": 5109,
      "xay": 5110,
      "ĠthÃ¨m": 5111,
      "covid": 5112,
      "Ġlim": 5113,
      "than": 5114,
      "ÄĳáºŃp": 5115,
      "Ġtriáº¿t": 5116,
      "urn": 5117,
      "Ġnguyá»ĩn": 5118,
      "dÃ£": 5119,
      "ĠbuÃ´ng": 5120,
      "Ġok": 5121,
      "Ġláº©u": 5122,
      "Ġcomments": 5123,
      "Ġpháº©m": 5124,
      "ngá»Ļt": 5125,
      "ĠsÆ°á»Ŀn": 5126,
      "ngá»±": 5127,
      "nhá»ĭ": 5128,
      "Ġtrá»«ng": 5129,
      "cáº§n": 5130,
      "thÃŃ": 5131,
      "Ġgreen": 5132,
      "lÃ¡i": 5133,
      "Ġrong": 5134,
      "ĠthÃ¡m": 5135,
      "Ġxsm": 5136,
      "ĠâĨĴ": 5137,
      "Ġsá»ī": 5138,
      "stagram": 5139,
      "Ġtest": 5140,
      "áº»m": 5141,
      "ction": 5142,
      "ĠsÃ©t": 5143,
      "Ġgym": 5144,
      "nhang": 5145,
      "Ġxs": 5146,
      "liá»ģn": 5147,
      "Ġnhá»©c": 5148,
      "ĠvÃ³c": 5149,
      "Ġsáº§m": 5150,
      "ĠhÃ©": 5151,
      "Ġquáº¿": 5152,
      "Ġmenu": 5153,
      "Ġexcel": 5154,
      "Ãºm": 5155,
      "vÃ´": 5156,
      "lá»Ļn": 5157,
      "Ġshare": 5158,
      "ĠÄĳá»©t": 5159,
      "Ġamaz": 5160,
      "ngon": 5161,
      "elts": 5162,
      "kÃ´ng": 5163,
      "ora": 5164,
      "Ġbalo": 5165,
      "Ġnáº£y": 5166,
      "mart": 5167,
      "Ġcháº¯n": 5168,
      "bel": 5169,
      "inter": 5170,
      "Ġcb": 5171,
      "Ġkáº¹p": 5172,
      "max": 5173,
      "máº¯m": 5174,
      "Ġpal": 5175,
      "Ġpgs": 5176,
      "má»ĳi": 5177,
      "táº§m": 5178,
      "khÃª": 5179,
      "Ġtwitter": 5180,
      "chain": 5181,
      "ÄĳÃºc": 5182,
      "Ġvp": 5183,
      "ram": 5184,
      "world": 5185,
      "giÃ¢y": 5186,
      "zy": 5187,
      "chay": 5188,
      "Ġrá»ħ": 5189,
      "ĠgiáºŃn": 5190,
      "Ġdong": 5191,
      "Ġlá»ĳp": 5192,
      "táº§n": 5193,
      "bÃ¡i": 5194,
      "Ġháº¹p": 5195,
      "Ġkhang": 5196,
      "Ġnghiá»ĩn": 5197,
      "ĠthÃ¡c": 5198,
      "lÃ´": 5199,
      "Ġgroup": 5200,
      "Ġbus": 5201,
      "Ġmit": 5202,
      "Ġmá»Ļng": 5203,
      "ifa": 5204,
      "Ġtottenham": 5205,
      "Ġlogi": 5206,
      "kiá»ĥm": 5207,
      "lux": 5208,
      "gáº·p": 5209,
      "Ġav": 5210,
      "tÃºi": 5211,
      "Ġjuventus": 5212,
      "huá»ĩ": 5213,
      "Ġhua": 5214,
      "Äĳau": 5215,
      "del": 5216,
      "triá»ģu": 5217,
      "á»¥p": 5218,
      "ĠphÆ°á»£ng": 5219,
      "Ġbac": 5220,
      "Ġbluetooth": 5221,
      "Ġfran": 5222,
      "xáº¯n": 5223,
      "Ġluá»Ļc": 5224,
      "Ġhel": 5225,
      "Ġnhiáº¿p": 5226,
      "je": 5227,
      "lÃ£o": 5228,
      "gá»ĳi": 5229,
      "itan": 5230,
      "ĠmÆ°á»£n": 5231,
      "Ġpos": 5232,
      "rá»ĩt": 5233,
      "pot": 5234,
      "Ġnote": 5235,
      "Ġhiá»ĥm": 5236,
      "post": 5237,
      "thor": 5238,
      "Ġxoa": 5239,
      "Ġsaigon": 5240,
      "eland": 5241,
      "Ġber": 5242,
      "ĠÆ°á»Ľt": 5243,
      "ĠÄĳiÃªu": 5244,
      "yáº¿n": 5245,
      "ĠbÃ³c": 5246,
      "sau": 5247,
      "cÃ¡t": 5248,
      "tam": 5249,
      "cÃºc": 5250,
      "ĠbÆ°á»Łi": 5251,
      "Ġher": 5252,
      "hotel": 5253,
      "hÃ¡n": 5254,
      "mun": 5255,
      "Ġclo": 5256,
      "gentina": 5257,
      "ĠnÃ³n": 5258,
      "ene": 5259,
      "tok": 5260,
      "cy": 5261,
      "ĠtrÃºc": 5262,
      "soáº¡n": 5263,
      "nÃ¡m": 5264,
      "tháº§m": 5265,
      "pearl": 5266,
      "ĠhÃŃ": 5267,
      "ĠÂ«": 5268,
      "ami": 5269,
      "hiá»ģn": 5270,
      "khÃ´": 5271,
      "nháº«n": 5272,
      "ĠcháºŃt": 5273,
      "Ġluá»ĵng": 5274,
      "tháº¥p": 5275,
      "báº¡": 5276,
      "ÄĳÃ¨n": 5277,
      "Ġare": 5278,
      "ĠhÃ³c": 5279,
      "ĠÄĳÃ¹a": 5280,
      "ĠÆ°á»Ľp": 5281,
      "Ġbáº¡t": 5282,
      "thiáº¿u": 5283,
      "att": 5284,
      "Ġdv": 5285,
      "Ġkiá»ģm": 5286,
      "Ġvat": 5287,
      "ages": 5288,
      "Ġjun": 5289,
      "ĠcÃ¹": 5290,
      "ĠlÃ³t": 5291,
      "vÄ©nh": 5292,
      "Ġnov": 5293,
      "ĠÄĳá»¥c": 5294,
      "Ġshowroom": 5295,
      "won": 5296,
      "á»Ńng": 5297,
      "nhá»ĭp": 5298,
      "Ġxá»ĳp": 5299,
      "Ġoffice": 5300,
      "Ġtá»ĳng": 5301,
      "blog": 5302,
      "bus": 5303,
      "vy": 5304,
      "tyle": 5305,
      "Ġisrael": 5306,
      "Ġtokyo": 5307,
      "ĠxÃ¡ch": 5308,
      "Äĳáº¯n": 5309,
      "Ġhor": 5310,
      "Ġthá»īnh": 5311,
      "dao": 5312,
      "ĠcÆ°ng": 5313,
      "tag": 5314,
      "Ġlondon": 5315,
      "Ġnáº¿n": 5316,
      "Â²": 5317,
      "Ġking": 5318,
      "chá»£": 5319,
      "ĠÄĳoáº£n": 5320,
      "entr": 5321,
      "Ġmuá»Ĺng": 5322,
      "ĠkhoÃ¡c": 5323,
      "ĠtÃł": 5324,
      "ub": 5325,
      "láº«n": 5326,
      "Ġet": 5327,
      "Ġlá»ĩch": 5328,
      "val": 5329,
      "buÃ½t": 5330,
      "pc": 5331,
      "ĠmÃ³c": 5332,
      "Ġcsgt": 5333,
      "Ġclub": 5334,
      "Ġbayern": 5335,
      "Ġiso": 5336,
      "ishi": 5337,
      "Ġniá»ģng": 5338,
      "Ġcá»Ńu": 5339,
      "mÆ°Æ¡i": 5340,
      "ement": 5341,
      "Ġtá»ĵi": 5342,
      "fer": 5343,
      "thÄĥm": 5344,
      "hÃ£y": 5345,
      "dl": 5346,
      "Ġsáº¥y": 5347,
      "ĠtÃºy": 5348,
      "ĠchÃ³ng": 5349,
      "amaha": 5350,
      "marketing": 5351,
      "Ġfun": 5352,
      "Ġnhung": 5353,
      "ical": 5354,
      "iforn": 5355,
      "dá»Ļi": 5356,
      "xao": 5357,
      "trol": 5358,
      "Ġcháº£o": 5359,
      "Ã²a": 5360,
      "dÃło": 5361,
      "thÃºy": 5362,
      "giáº¥c": 5363,
      "ifornia": 5364,
      "ĠtÃª": 5365,
      "hoi": 5366,
      "auty": 5367,
      "Ã©c": 5368,
      "chá»©a": 5369,
      "Ġkhá»ĳng": 5370,
      "cos": 5371,
      "ĠcÃºm": 5372,
      "Ġmos": 5373,
      "cÃ¡": 5374,
      "Ġsáº¯m": 5375,
      "ná»£": 5376,
      "Ġkhay": 5377,
      "lor": 5378,
      "ĠgÃ¡c": 5379,
      "villa": 5380,
      "Ġcá»į": 5381,
      "ĠÄĳáº¿m": 5382,
      "Ġhá»ĳ": 5383,
      "ĠsÃłnh": 5384,
      "manh": 5385,
      "ĠchÃł": 5386,
      "Ġdáº»o": 5387,
      "Ġout": 5388,
      "ju": 5389,
      "unt": 5390,
      "uth": 5391,
      "Ġintel": 5392,
      "váº¥p": 5393,
      "Ġnháº¡t": 5394,
      "Ġsá»¥t": 5395,
      "ms": 5396,
      "Ġamazon": 5397,
      "Ġpage": 5398,
      "Ġinstagram": 5399,
      "Ġlá»Ļt": 5400,
      "Ġcry": 5401,
      "Ġnor": 5402,
      "thá»ĭt": 5403,
      "oney": 5404,
      "Ġql": 5405,
      "main": 5406,
      "code": 5407,
      "Ġcontainer": 5408,
      "ĠsÃ¡p": 5409,
      "fin": 5410,
      "Ġtráº¯c": 5411,
      "Ġmiss": 5412,
      "ãĥ": 5413,
      "Ġsec": 5414,
      "Ġdá»ĵi": 5415,
      "Ġart": 5416,
      "Ġráº¡p": 5417,
      "dÃ²": 5418,
      "Äĳá»ķ": 5419,
      "Ġmore": 5420,
      "ning": 5421,
      "Ġruá»Ļng": 5422,
      "Ġforex": 5423,
      "berg": 5424,
      "ĠmÃºa": 5425,
      "Ġláº·p": 5426,
      "ates": 5427,
      "ĠbÃłng": 5428,
      "cÆ°á»Ŀi": 5429,
      "sam": 5430,
      "Ġhuawei": 5431,
      "Ġkáº½m": 5432,
      "Ġgiá»ı": 5433,
      "Ġnano": 5434,
      "suá»ĳt": 5435,
      "Äĳá»įng": 5436,
      "index": 5437,
      "ixel": 5438,
      "Ġolympic": 5439,
      "Ġcalo": 5440,
      "Ġnokia": 5441,
      "Ġláº§m": 5442,
      "Ġacid": 5443,
      "mark": 5444,
      "há»ĳi": 5445,
      "ateg": 5446,
      "xÄĥm": 5447,
      "Ãºn": 5448,
      "Ġcáº¡n": 5449,
      "ĠÄĳáº¯ng": 5450,
      "bit": 5451,
      "Ġdavid": 5452,
      "facebook": 5453,
      "ml": 5454,
      "Ġdáº¡i": 5455,
      "lÆ°á»Ŀng": 5456,
      "Ġkit": 5457,
      "ĠxÃ¬": 5458,
      "Ġbai": 5459,
      "Ġver": 5460,
      "Ġfanpage": 5461,
      "dáº¹p": 5462,
      "brid": 5463,
      "Ġul": 5464,
      "Ġpiano": 5465,
      "pháº³ng": 5466,
      "Ġchan": 5467,
      "Ġå": 5468,
      "Ġdá»ĵn": 5469,
      "ĠthÃºy": 5470,
      "gÃ¬n": 5471,
      "rá»ĵi": 5472,
      "Ġthon": 5473,
      "Ġgáº¥u": 5474,
      "gar": 5475,
      "eng": 5476,
      "pol": 5477,
      "khoan": 5478,
      "Ġcá»Łi": 5479,
      "amil": 5480,
      "ĠkiÃªng": 5481,
      "Ġtb": 5482,
      "Ġcv": 5483,
      "Äĳá»Ļt": 5484,
      "ĠbÃ¬a": 5485,
      "Ġoppo": 5486,
      "Ġháº»m": 5487,
      "garden": 5488,
      "ĠsáºŃp": 5489,
      "comment": 5490,
      "báº¯p": 5491,
      "dan": 5492,
      "ĠphÃ¡n": 5493,
      "gio": 5494,
      "real": 5495,
      "mal": 5496,
      "Ġwik": 5497,
      "_>": 5498,
      "Ġká»ī": 5499,
      "Ġgiáº¿ng": 5500,
      "club": 5501,
      "Ġxoáº¯n": 5502,
      "tÃ¡o": 5503,
      "Ã²m": 5504,
      "jet": 5505,
      "Ġpsg": 5506,
      "triá»ĩu": 5507,
      "Ġhá»ĵn": 5508,
      "ĠtrÄĥng": 5509,
      "ĠÄĳoÃ¡n": 5510,
      "vÃ²ng": 5511,
      "Ġpdf": 5512,
      "chinh": 5513,
      "Ġyoga": 5514,
      "Ġsáº¿p": 5515,
      "_ðŁ": 5516,
      "Ġchá»Ń": 5517,
      "hoáº¡i": 5518,
      "Ġlives": 5519,
      "Ġxá»ī": 5520,
      "sÆ°á»Ľng": 5521,
      "thÃª": 5522,
      "Æ°Æ¡m": 5523,
      "ĠtrÃ¹m": 5524,
      "ĠthÆ°á»Ľc": 5525,
      "ĠkÃ©t": 5526,
      "national": 5527,
      "iverside": 5528,
      "exico": 5529,
      "Ġviews": 5530,
      "Ġshowbiz": 5531,
      "bÃŃch": 5532,
      "face": 5533,
      "Ġ@_": 5534,
      "Ġtui": 5535,
      "giÃłu": 5536,
      "Ġye": 5537,
      "Ġalex": 5538,
      "ĠÄĳáº¡p": 5539,
      "ĠbÃ¹n": 5540,
      "Ġkcn": 5541,
      "ĠchÆ°ng": 5542,
      "atar": 5543,
      "tÃ¹": 5544,
      "Ġ$_": 5545,
      "ngáº·t": 5546,
      "ors": 5547,
      "plan": 5548,
      "Ġmake": 5549,
      "Ġchoi": 5550,
      "Ġlá»¯": 5551,
      "ĠchÆ°": 5552,
      "Ġmaster": 5553,
      "Ġdt": 5554,
      "thon": 5555,
      "Ġyour": 5556,
      "tá»ĭ": 5557,
      "ĠlÃ¡ng": 5558,
      "Ġhen": 5559,
      "viÃªm": 5560,
      "anmar": 5561,
      "sÃ´i": 5562,
      "rang": 5563,
      "Ġyamaha": 5564,
      "Ġphá»Ł": 5565,
      "fast": 5566,
      "Ġbel": 5567,
      "Ġkáº¹o": 5568,
      "Ġargentina": 5569,
      "Ġvá»īa": 5570,
      "táº©y": 5571,
      "eme": 5572,
      "Ġsars": 5573,
      "Ġbody": 5574,
      "Ġgran": 5575,
      "Ġchap": 5576,
      "ĠhÅ©": 5577,
      "Ġfed": 5578,
      "Ġom": 5579,
      "try": 5580,
      "bÃ¡c": 5581,
      "cas": 5582,
      "Ġxen": 5583,
      "huyá»ģn": 5584,
      "ĠphiÃªu": 5585,
      "cáº©m": 5586,
      "agl": 5587,
      "Ġthun": 5588,
      "ury": 5589,
      "buÃ´n": 5590,
      "láº¯k": 5591,
      "ray": 5592,
      "á»£t": 5593,
      "ĠphÃ´": 5594,
      "Äĳáº§y": 5595,
      "app": 5596,
      "Ġsol": 5597,
      "lá»Ĺ": 5598,
      "ĠthÃ¹y": 5599,
      "táº¡ng": 5600,
      "Ġfb": 5601,
      "nÃ©n": 5602,
      "lá»ıng": 5603,
      "ÄĳáºŃu": 5604,
      "giáºŃt": 5605,
      "Ġmix": 5606,
      "bá»ĳi": 5607,
      "bÃ²": 5608,
      "chuyÃªn": 5609,
      "tn": 5610,
      "ĠâĤ«_": 5611,
      "gÃł": 5612,
      "nhÆ°ng": 5613,
      "--------": 5614,
      "ves": 5615,
      "Ġpet": 5616,
      "pháº¥n": 5617,
      "áº¥ng": 5618,
      "ĠrÃło": 5619,
      "read": 5620,
      "bÃ´ng": 5621,
      "ĠxÃ´": 5622,
      "ĠlÄĳ": 5623,
      "mÃłn": 5624,
      "ĠÃª": 5625,
      "Ġgirl": 5626,
      "quÃł": 5627,
      "nhÆ°á»£c": 5628,
      "vÃłn": 5629,
      "vÄ©": 5630,
      "asonic": 5631,
      "Ġtom": 5632,
      "Ġsub": 5633,
      "liá»ħu": 5634,
      "Ġá»ĳm": 5635,
      "Ġchat": 5636,
      "Ġdat": 5637,
      "bor": 5638,
      "láº¡p": 5639,
      "Ġwho": 5640,
      "Ġláº»": 5641,
      "Ġeng": 5642,
      "ĠÂ°": 5643,
      "ĠâĢº": 5644,
      "Ġpau": 5645,
      "ĠÌ": 5646,
      "Ġwest": 5647,
      "mong": 5648,
      "nghiá»ĩt": 5649,
      "bro": 5650,
      "ont": 5651,
      "pop": 5652,
      "ngÃłn": 5653,
      "ĠsÃºt": 5654,
      "trÆ°á»Ľc": 5655,
      "icon": 5656,
      "Ġmacbook": 5657,
      "burg": 5658,
      "Ġ?_|": 5659,
      "zda": 5660,
      "Ġhost": 5661,
      "ĠÄĳoáº¡t": 5662,
      "Ġfo": 5663,
      "Ġfc": 5664,
      "Ġcaf": 5665,
      "khe": 5666,
      "media": 5667,
      "ĠlÅ©y": 5668,
      "lad": 5669,
      "Ġhc": 5670,
      "par": 5671,
      "ĠchÃ¹m": 5672,
      "kÃŃn": 5673,
      "ĠmiÃªu": 5674,
      "Ġlive": 5675,
      "_ï¸ı": 5676,
      "ĠnhÃŃ": 5677,
      "ĠÐ": 5678,
      "Ġduyá»ĩt": 5679,
      "ĠkhiÃªu": 5680,
      "ins": 5681,
      "bÃ¡t": 5682,
      "store": 5683,
      "Ġ.....": 5684,
      "Ġob": 5685,
      "ys": 5686,
      "Ġnan": 5687,
      "way": 5688,
      "you": 5689,
      "Ġwill": 5690,
      "ranh": 5691,
      "Ġielts": 5692,
      "Ġlaz": 5693,
      "Ġsapa": 5694,
      "yal": 5695,
      "Ġvnexpress": 5696,
      "Ġfa": 5697,
      "dá»ĳi": 5698,
      "bá»©c": 5699,
      "bá»Ļi": 5700,
      "váº¿t": 5701,
      "tá»¥ng": 5702,
      "Ġláº¥n": 5703,
      "rome": 5704,
      "bÃºt": 5705,
      "Ġá»©c": 5706,
      "xÃ´": 5707,
      "Ġï¸ı": 5708,
      "ĠnÃ¡t": 5709,
      "times": 5710,
      "Ġcáº¥y": 5711,
      "há»ıa": 5712,
      "house": 5713,
      "Ġacc": 5714,
      "Ġvá»£t": 5715,
      "ngáº¡ch": 5716,
      "vua": 5717,
      "ká»¹": 5718,
      "ĠâĢĶ_âĢĶ": 5719,
      "Ġvoi": 5720,
      "ï¼": 5721,
      "ĠhÄĳqt": 5722,
      "Ġae": 5723,
      "les": 5724,
      "crip": 5725,
      "ÄĳÃ¡m": 5726,
      "Ġbb": 5727,
      "Ġmobifone": 5728,
      "Ġland": 5729,
      "khÃ´i": 5730,
      "Ġget": 5731,
      "Ġwal": 5732,
      "thÃ©p": 5733,
      "ĠÄĳÃłnh": 5734,
      "yu": 5735,
      "Ġcd": 5736,
      "Ġfifa": 5737,
      "táºŃn": 5738,
      "Ġdata": 5739,
      "Ġserver": 5740,
      "Å©a": 5741,
      "Ġstress": 5742,
      "Ġeco": 5743,
      "Ġnguá»Ļi": 5744,
      "ĠmÆ°á»Ŀng": 5745,
      "áº½n": 5746,
      "Ġphe": 5747,
      "ĠtrÃ¡n": 5748,
      "há»įng": 5749,
      "Ġrá»§": 5750,
      "Ġton": 5751,
      "ĠÑ": 5752,
      "cá»Ŀ": 5753,
      "tton": 5754,
      "ĠnÃªm": 5755,
      "asa": 5756,
      "lÃ¡t": 5757,
      "ĠchÃ¢m": 5758,
      "ima": 5759,
      "ward": 5760,
      "ĠghÃ©t": 5761,
      "Ġtc": 5762,
      "Ġali": 5763,
      "Ġvá»±ng": 5764,
      "Ġcalifornia": 5765,
      "itch": 5766,
      "Ġtráº§y": 5767,
      "lÃµi": 5768,
      "Ġhotel": 5769,
      "Ġháº¯c": 5770,
      "utd": 5771,
      "nÃłnh": 5772,
      "Ġmá»§": 5773,
      "Ġláº·ng": 5774,
      "ĠtrÃ¡ng": 5775,
      "Ġupdate": 5776,
      "blu": 5777,
      "Ġâľħ": 5778,
      "Ġthá»§ng": 5779,
      "Ġcombo": 5780,
      "ngáº¡c": 5781,
      "ĠlÆ¡": 5782,
      "light": 5783,
      "Ġbook": 5784,
      "ÄĳÃ¹a": 5785,
      "Ġcntt": 5786,
      "emon": 5787,
      "ĠhÃŃt": 5788,
      "quÃ¡i": 5789,
      "ĠhÃ¢n": 5790,
      "ngÃ´i": 5791,
      "ĠxÃ´n": 5792,
      "hÃ£ng": 5793,
      "ĠkhiÃªm": 5794,
      "hyt": 5795,
      "hoÃłi": 5796,
      "ida": 5797,
      "Äĳu": 5798,
      "esterol": 5799,
      "fu": 5800,
      "edu": 5801,
      "atin": 5802,
      "Ġdc": 5803,
      "eno": 5804,
      "Ġtáº£": 5805,
      "khang": 5806,
      "ingroup": 5807,
      "ĠÄĳai": 5808,
      "website": 5809,
      "Ġdell": 5810,
      "ĠsÃłng": 5811,
      "mc": 5812,
      "Ġgdp": 5813,
      "xÆ°Æ¡ng": 5814,
      "Ġslot": 5815,
      "Ġchol": 5816,
      "Ġcup": 5817,
      "Ġkey": 5818,
      "Ġbá»įt": 5819,
      "boo": 5820,
      "Ġlux": 5821,
      "nháº¯n": 5822,
      "back": 5823,
      "Ġpi": 5824,
      "xáº£o": 5825,
      "Ġchá»ĳn": 5826,
      "lish": 5827,
      "vit": 5828,
      "Ġnhuá»Ļm": 5829,
      "itar": 5830,
      "mÃłi": 5831,
      "Ġáº£": 5832,
      "ĠphÃ¹ng": 5833,
      "Ġcopy": 5834,
      "ĠÄĳáº¯m": 5835,
      "Æ°á»Ľu": 5836,
      "dt": 5837,
      "lÄĥn": 5838,
      "lex": 5839,
      "form": 5840,
      "Ġthá»į": 5841,
      "mini": 5842,
      "iger": 5843,
      "ĠlÃ¹i": 5844,
      "bÃłng": 5845,
      "Ġbá»Ļc": 5846,
      "gam": 5847,
      "Ġmed": 5848,
      "huyá»ĩn": 5849,
      "ous": 5850,
      "Ġsáº£nh": 5851,
      "Ġhoáº£ng": 5852,
      "gá»Ļi": 5853,
      "ĠloÃ£ng": 5854,
      "watch": 5855,
      "hÃ¡i": 5856,
      "ĠmáºŃu": 5857,
      "hÃłi": 5858,
      "ori": 5859,
      "trÄĥm": 5860,
      "ĠgiÃ²": 5861,
      "kÃ©p": 5862,
      "gas": 5863,
      "Ġcontent": 5864,
      "sá»¯a": 5865,
      "gá»Ĺ": 5866,
      "Ġhiv": 5867,
      "ette": 5868,
      "Ġaff": 5869,
      "cáº£i": 5870,
      "ĠmÃ¹ng": 5871,
      "Ġkiá»ĩt": 5872,
      "Ġlin": 5873,
      "tá»©": 5874,
      "Ġbhyt": 5875,
      "tÃ¡m": 5876,
      "Ġhap": 5877,
      "tÃ¬m": 5878,
      "Ġdon": 5879,
      "ĠchÃ¨n": 5880,
      "Ġday": 5881,
      "láº¯p": 5882,
      "Ġváº¯t": 5883,
      "Ġhigh": 5884,
      "cau": 5885,
      "chool": 5886,
      "raq": 5887,
      "cháº£i": 5888,
      "ĠchÃ©m": 5889,
      "Ġblockchain": 5890,
      "Ġ{_": 5891,
      "Ġbmw": 5892,
      "ĠtrÃłng": 5893,
      "Ġatm": 5894,
      "Ġráº¡ch": 5895,
      "Ġgáº§m": 5896,
      "ĠchoÃ¡ng": 5897,
      "sim": 5898,
      "thÃ¡o": 5899,
      "ĠbÃ¡": 5900,
      "cÃ¢n": 5901,
      "Ġpen": 5902,
      "nÃłn": 5903,
      "xÆ°á»Ľc": 5904,
      "logy": 5905,
      "laza": 5906,
      "Ġ^": 5907,
      "gá»įn": 5908,
      "more": 5909,
      "ĠlÆ°á»Ŀi": 5910,
      "iep": 5911,
      "verter": 5912,
      "Ġoc": 5913,
      "letico": 5914,
      "Ġsch": 5915,
      "set": 5916,
      "Ġseoul": 5917,
      "ten": 5918,
      "tráº§m": 5919,
      "Ġmazda": 5920,
      "Ġâĺ": 5921,
      "mÆ°a": 5922,
      "iness": 5923,
      "ĠkÃ©p": 5924,
      "ĠnhÃ¡nh": 5925,
      "phiÃªn": 5926,
      "nan": 5927,
      "Ġ--": 5928,
      "nger": 5929,
      "ĠbÃŃch": 5930,
      "Ġtand": 5931,
      "Ġuv": 5932,
      "ler": 5933,
      "Ġyu": 5934,
      "dragon": 5935,
      "chÃ¡n": 5936,
      "ek": 5937,
      "ez": 5938,
      "kÃŃp": 5939,
      "ráºŃp": 5940,
      "Ġmexico": 5941,
      "Ġvinaphone": 5942,
      "ĠÄĳáº¥ng": 5943,
      "Ġserum": 5944,
      "thÃ¹y": 5945,
      "oli": 5946,
      "Ġvingroup": 5947,
      "gai": 5948,
      "entral": 5949,
      "lá»Ł": 5950,
      "subishi": 5951,
      "Ġhol": 5952,
      "kit": 5953,
      "Ġlá»Ļng": 5954,
      "pper": 5955,
      "Ġwordpress": 5956,
      "xÆ¡": 5957,
      "tá»ĳn": 5958,
      "zealand": 5959,
      "ngáºŃp": 5960,
      "ĠhÃ´ng": 5961,
      "Ġnat": 5962,
      "Ġpháº³ng": 5963,
      "Ġgieo": 5964,
      "ĠmÃło": 5965,
      "ĠbÃ£": 5966,
      "Ġopt": 5967,
      "mic": 5968,
      "quá»µ": 5969,
      "Ġgar": 5970,
      "ĠquyÃªn": 5971,
      "key": 5972,
      "ĠÄĳÃ¹i": 5973,
      "uch": 5974,
      "Äĳoan": 5975,
      "Ġnguyen": 5976,
      "Ġmáº¡n": 5977,
      "Ġpoker": 5978,
      "gital": 5979,
      "point": 5980,
      "ĠnÆ°Æ¡ng": 5981,
      "nhanh": 5982,
      "įi": 5983,
      "Ġgeo": 5984,
      "Ġmotor": 5985,
      "Ġmáº¯m": 5986,
      "Ġvir": 5987,
      "pee": 5988,
      "Ġbon": 5989,
      "Ġros": 5990,
      "Ġtiki": 5991,
      "ĠbÄĥm": 5992,
      "ql": 5993,
      "ago": 5994,
      "isa": 5995,
      "Ġmyanmar": 5996,
      "lÃºc": 5997,
      "dd": 5998,
      "Ġmáº¡o": 5999,
      "giÃªsu": 6000,
      "gáº¯t": 6001,
      "Ġcholesterol": 6002,
      "háºŃn": 6003,
      "ling": 6004,
      "lÃ¡nh": 6005,
      "ery": 6006,
      "ghÃ©p": 6007,
      "ific": 6008,
      "kok": 6009,
      "Ġflc": 6010,
      "ĠngÃ¢y": 6011,
      "Ġir": 6012,
      "bert": 6013,
      "ĠnÃ´n": 6014,
      "nÃ¡t": 6015,
      "Äĳáº¯p": 6016,
      "cá»Ļt": 6017,
      "ged": 6018,
      "nv": 6019,
      "Ġtrá»ĩt": 6020,
      "lÃ¹i": 6021,
      "ĠâĻ": 6022,
      "Ġbill": 6023,
      "Ġsá»¥p": 6024,
      "Ġsur": 6025,
      "bá»¥ng": 6026,
      "xinh": 6027,
      "Ġmtt": 6028,
      "Ġbxh": 6029,
      "Ġquáº¥n": 6030,
      "ated": 6031,
      "gold": 6032,
      "Ġbáº«y": 6033,
      "Ãµm": 6034,
      "list": 6035,
      "Ġcel": 6036,
      "ĠÄĳÃª": 6037,
      "Ġgl": 6038,
      "Ġitalia": 6039,
      "girl": 6040,
      "Ġatletico": 6041,
      "resort": 6042,
      "dá»ĭu": 6043,
      "ĠmÃŃa": 6044,
      "Ġky": 6045,
      "ĠcÃµ": 6046,
      "ĠâĢĻ": 6047,
      "trá»©ng": 6048,
      "láºŃn": 6049,
      "mÃ¹": 6050,
      "Ġnháº·t": 6051,
      "Ġhagl": 6052,
      "Ġkhuáº¥y": 6053,
      "ĠtÃ¹ng": 6054,
      "phouse": 6055,
      "order": 6056,
      "rá»ĳt": 6057,
      "fan": 6058,
      "ika": 6059,
      "Ġmttq": 6060,
      "phan": 6061,
      "Ġráº¡n": 6062,
      "dep": 6063,
      "tron": 6064,
      "vÆ°á»Ŀn": 6065,
      "má»ĳc": 6066,
      "Ġsum": 6067,
      "sil": 6068,
      "Ġphá»ĳt": 6069,
      "ĠrÃ¡ch": 6070,
      "vip": 6071,
      "Ġnail": 6072,
      "Ġvictor": 6073,
      "Ġtur": 6074,
      "zuki": 6075,
      "Ġnick": 6076,
      "Ġcac": 6077,
      "Ġmourinho": 6078,
      "ĠÄĳiá»ĩu": 6079,
      "Ġvá»©t": 6080,
      "Ġnot": 6081,
      "Ġngá»¡": 6082,
      "hoo": 6083,
      "Ġfin": 6084,
      "board": 6085,
      "Ġep": 6086,
      "Ġglu": 6087,
      "omega": 6088,
      "dá»Ĺ": 6089,
      "Ġpanasonic": 6090,
      "Ġcolor": 6091,
      "Ġanime": 6092,
      "cá»Ńu": 6093,
      "nhá»Ŀ": 6094,
      "Ġláº·n": 6095,
      "Ġghen": 6096,
      "ĠbÃºa": 6097,
      "lÃªn": 6098,
      "dÃłnh": 6099,
      "Ġasus": 6100,
      "lá»ĳi": 6101,
      "Ġdecal": 6102,
      "ĠmÃ£nh": 6103,
      "káº½": 6104,
      "Ġgáº§y": 6105,
      "Ġzo": 6106,
      "ĠnhÃ£": 6107,
      "tÆ°Æ¡ng": 6108,
      "tk": 6109,
      "ĠmÃ²n": 6110,
      "Äĳáº¡m": 6111,
      "ĠnhÃ¢m": 6112,
      "Ġaz": 6113,
      "Ġauthor": 6114,
      "cle": 6115,
      "Ġdang": 6116,
      "Ãºy": 6117,
      "Ġvuá»ĳt": 6118,
      "ĠgáºŃt": 6119,
      "Ġhal": 6120,
      "Ġgolden": 6121,
      "Ġsuv": 6122,
      "ttg": 6123,
      "get": 6124,
      "Ġcle": 6125,
      "alth": 6126,
      "nes": 6127,
      "____": 6128,
      "Ġ>>_": 6129,
      "sw": 6130,
      "ccc": 6131,
      "jc": 6132,
      "cean": 6133,
      "ĠmÄĥng": 6134,
      "gmt": 6135,
      "Ġchá»Ńi": 6136,
      "ret": 6137,
      "nguyá»ħn": 6138,
      "ÄĳÃ¢u": 6139,
      "dis": 6140,
      "Ġfrom": 6141,
      "travel": 6142,
      "Ġtime": 6143,
      "Ġsearch": 6144,
      "ĠgÃ¢n": 6145,
      "vá»¡": 6146,
      "Ġhtx": 6147,
      "ĠgáºŃp": 6148,
      "Ġtor": 6149,
      "Ġngoan": 6150,
      "spa": 6151,
      "Ġcá»įc": 6152,
      "tá»±a": 6153,
      "Ġxsmb": 6154,
      "lobal": 6155,
      "mac": 6156,
      "Ġthung": 6157,
      "Ġdomain": 6158,
      "rá»Ļ": 6159,
      "vision": 6160,
      "uk": 6161,
      "quáº§n": 6162,
      "tháº¡o": 6163,
      "stem": 6164,
      "Ġgram": 6165,
      "Ġiraq": 6166,
      "láº«y": 6167,
      "vÃµ": 6168,
      "weet": 6169,
      "berry": 6170,
      "Ġpas": 6171,
      "tha": 6172,
      "Äĳá»«ng": 6173,
      "tuc": 6174,
      "tÆ¡": 6175,
      "Ġhao": 6176,
      "Ġkiáº¿p": 6177,
      "ĠdÃ¬": 6178,
      "ital": 6179,
      "Ġwar": 6180,
      "ĠgáºŃy": 6181,
      "hen": 6182,
      "Ġsáº¡t": 6183,
      "Ġnuá»ĳt": 6184,
      "cáº¯t": 6185,
      "Ġngáº§n": 6186,
      "Ġwhite": 6187,
      "har": 6188,
      "Ġgt": 6189,
      "nghiÃªm": 6190,
      "Ġchen": 6191,
      "Ġcad": 6192,
      "Ġ->": 6193,
      "dÃ©p": 6194,
      "Ġnhá»ķ": 6195,
      "Ġchina": 6196,
      "ubnd": 6197,
      "leo": 6198,
      "asia": 6199,
      "Ġhand": 6200,
      "ĠhÃ¡n": 6201,
      "tá»ĳt": 6202,
      "ĠÄĳÃ¨o": 6203,
      "wal": 6204,
      "ĠbÃ³p": 6205,
      "Ġgáº¡t": 6206,
      "mat": 6207,
      "thun": 6208,
      "Ġcáº·n": 6209,
      "iter": 6210,
      "Ġpass": 6211,
      "anda": 6212,
      "plaza": 6213,
      "Ġtháº¯p": 6214,
      "trÆ¡n": 6215,
      "_ãĢ": 6216,
      "ĠÄĳÃ¡i": 6217,
      "Ġsáº§u": 6218,
      "ese": 6219,
      "Ġsá»¥n": 6220,
      "khoÃ¡i": 6221,
      "Ġdáº«u": 6222,
      "nik": 6223,
      "ware": 6224,
      "Ġlay": 6225,
      "á»£n": 6226,
      "vina": 6227,
      "zen": 6228,
      "Ġkang": 6229,
      "á»¥y": 6230,
      "graph": 6231,
      "Ġsport": 6232,
      "táº¿t": 6233,
      "Ġtip": 6234,
      "ffet": 6235,
      "peria": 6236,
      "Æ°á»Ŀm": 6237,
      "Ġmitsubishi": 6238,
      "center": 6239,
      "Ġind": 6240,
      "Ġjan": 6241,
      "ĠcÄĳv": 6242,
      "chael": 6243,
      "Ġmid": 6244,
      "gp": 6245,
      "ican": 6246,
      "lÅ©y": 6247,
      "Ġvol": 6248,
      "Ġdor": 6249,
      "ella": 6250,
      "hoang": 6251,
      "file": 6252,
      "Ġvá»Ĺ": 6253,
      "bong": 6254,
      "ãĤ": 6255,
      "ngÃµ": 6256,
      "ĠxÃŃ": 6257,
      "Ġá´": 6258,
      "Ġdá»Ł": 6259,
      "Ġbre": 6260,
      "Ġthat": 6261,
      "ardi": 6262,
      "down": 6263,
      "Ġvietcombank": 6264,
      "Ġkr": 6265,
      "andal": 6266,
      "jong": 6267,
      "ĠkiÃªu": 6268,
      "ĠdÃª": 6269,
      "rÃ´": 6270,
      "vÃ£": 6271,
      "Äĳáº£ng": 6272,
      "Ġshe": 6273,
      "Ġmil": 6274,
      "Ġnhat": 6275,
      "ĠrÃ£": 6276,
      "bg": 6277,
      "Ġfir": 6278,
      "Ġnn": 6279,
      "Ġhoan": 6280,
      "ĠngáºŃm": 6281,
      "mestay": 6282,
      "Ġlove": 6283,
      "cÃ³c": 6284,
      "Ġnews": 6285,
      "Ġtes": 6286,
      "Ġneo": 6287,
      "fit": 6288,
      "ĠtrÃ¬": 6289,
      "ĠbÃºp": 6290,
      "ffee": 6291,
      "how": 6292,
      "cÃº": 6293,
      "ject": 6294,
      "Ġcore": 6295,
      "phá»ıng": 6296,
      "Ġkhuáº¥t": 6297,
      "Ġhit": 6298,
      "Ġri": 6299,
      "carat": 6300,
      "Ġmadrid": 6301,
      "quay": 6302,
      "Ġarch": 6303,
      "Ġah": 6304,
      "Ġken": 6305,
      "Ġserie": 6306,
      "Ġteen": 6307,
      "Ġter": 6308,
      "Ġlip": 6309,
      "ĠxÃ³c": 6310,
      "Ġpart": 6311,
      "tÄĳ": 6312,
      "Æ°á»Ľm": 6313,
      "aro": 6314,
      "copy": 6315,
      "âĢ": 6316,
      "Ġguitar": 6317,
      "Ġvh": 6318,
      "thÃ´": 6319,
      "Ġship": 6320,
      "Ġtrá»ħ": 6321,
      "Ġpvc": 6322,
      "Ġoan": 6323,
      "tom": 6324,
      "rá»ĥ": 6325,
      "Ġnap": 6326,
      "Ġtrá»¯": 6327,
      "Ġeb": 6328,
      "ĠphÆ°á»£t": 6329,
      "Ġcáº±m": 6330,
      "zz": 6331,
      "Ġbat": 6332,
      "ĠcÃ²i": 6333,
      "Äĳam": 6334,
      "Ġnv": 6335,
      "hiá»ĥn": 6336,
      "Ġtrans": 6337,
      "Ġsale": 6338,
      "Ġmor": 6339,
      "ilding": 6340,
      "orts": 6341,
      "Ġnhá»Ļn": 6342,
      "ĠchÃ´n": 6343,
      "hon": 6344,
      "Ġxoang": 6345,
      "ná»Ĺi": 6346,
      "ply": 6347,
      "sÃ¹i": 6348,
      "Ġbts": 6349,
      "nguyen": 6350,
      "Ġren": 6351,
      "Ġgang": 6352,
      "Äĳá»ĩm": 6353,
      "Ġlm": 6354,
      "xÃ¡t": 6355,
      "ĠsÃ¡nh": 6356,
      "Ġsouth": 6357,
      "vill": 6358,
      "................": 6359,
      "Ġchay": 6360,
      "sport": 6361,
      "Ġpccc": 6362,
      "Ġcáº©u": 6363,
      "Ġtq": 6364,
      "host": 6365,
      "her": 6366,
      "Ġvinpearl": 6367,
      "ĠthiÃªng": 6368,
      "Ġflash": 6369,
      "lay": 6370,
      "Ġngá»«a": 6371,
      "edit": 6372,
      "tá»ķn": 6373,
      "ĠÄĳk": 6374,
      "ness": 6375,
      "care": 6376,
      "Äĳáº¯c": 6377,
      "avel": 6378,
      "chang": 6379,
      "chÃ¡u": 6380,
      "báº©n": 6381,
      "ĠnháºŃu": 6382,
      "ĠsÆ°á»Łi": 6383,
      "mÃ¡": 6384,
      "tÃŃ": 6385,
      "Ġrich": 6386,
      "cript": 6387,
      "ráº»": 6388,
      "ĠgiÃª": 6389,
      "tÃºng": 6390,
      "máº«n": 6391,
      "Äĳang": 6392,
      "Ġnik": 6393,
      "ĠgiÃ¡c": 6394,
      "Ġbox": 6395,
      "Ġnhá»ĵi": 6396,
      "Ġchá»ķ": 6397,
      "Ġold": 6398,
      "cis": 6399,
      "Ġvinfast": 6400,
      "Ġpn": 6401,
      "ĠmÆ°u": 6402,
      "Ġfer": 6403,
      "plant": 6404,
      "Ġbangkok": 6405,
      "Ġstudio": 6406,
      "Ġcá»«": 6407,
      "oot": 6408,
      "Ġtá»³": 6409,
      "Ġoffline": 6410,
      "Äĥk": 6411,
      "Ġjames": 6412,
      "ire": 6413,
      "Ġbot": 6414,
      "Ġmá»ıi": 6415,
      "gro": 6416,
      "Ġgá»¥c": 6417,
      "Ġkháº¯t": 6418,
      "ids": 6419,
      "rá»ķ": 6420,
      "ĠchÃ©o": 6421,
      "ĠhoÃ£n": 6422,
      "ander": 6423,
      "gy": 6424,
      "Ġráº£i": 6425,
      "ĠrÆ°á»Ľc": 6426,
      "nhÃ´m": 6427,
      "chan": 6428,
      "trá»į": 6429,
      "Ġblo": 6430,
      "cuá»ĵng": 6431,
      "ĠrÃ©t": 6432,
      "Ġpp": 6433,
      "views": 6434,
      "ift": 6435,
      "chanh": 6436,
      "ĠnÃ´": 6437,
      "Ġcháº§n": 6438,
      "Ġkt": 6439,
      "ĠnhÆ°á»Ŀng": 6440,
      "Ġnm": 6441,
      "apan": 6442,
      "ngáº§m": 6443,
      "ĠthÃªu": 6444,
      "Ġbt": 6445,
      "bour": 6446,
      "vÃ´i": 6447,
      "aya": 6448,
      "phun": 6449,
      "ĠmÃ¡ch": 6450,
      "Ġhom": 6451,
      "xÃŃch": 6452,
      "ider": 6453,
      "thiÃªm": 6454,
      "Ġur": 6455,
      "_>>": 6456,
      "ls": 6457,
      "Ġvietjet": 6458,
      "tis": 6459,
      "milan": 6460,
      "Ġden": 6461,
      "treet": 6462,
      "ĠtÃ¡": 6463,
      "Ġlos": 6464,
      "Ġcpu": 6465,
      "cat": 6466,
      "ĠcÃºi": 6467,
      "aa": 6468,
      "Ġomega": 6469,
      "admin": 6470,
      "raft": 6471,
      "má»Ŀ": 6472,
      "Ġchá»įc": 6473,
      "pháº£n": 6474,
      "Ġact": 6475,
      "grand": 6476,
      "fran": 6477,
      "time": 6478,
      "mÃ´ng": 6479,
      "ĠcÃ£i": 6480,
      "ĠvÃ²m": 6481,
      "tex": 6482,
      "Ġkáº¹t": 6483,
      "á»ģnh": 6484,
      "sáº¥u": 6485,
      "Ġcoin": 6486,
      "Ġdh": 6487,
      "den": 6488,
      "agu": 6489,
      "ghan": 6490,
      "Ġak": 6491,
      "ender": 6492,
      "ká»µ": 6493,
      "Ġloáº¡n": 6494,
      "Ġge": 6495,
      "card": 6496,
      "Ġnhá»Ŀn": 6497,
      "Ġsáº£": 6498,
      "phiá»ģn": 6499,
      "sal": 6500,
      "ĠÄĳáº¡m": 6501,
      "chel": 6502,
      "Äĳá»ĩ": 6503,
      "ĠvÄĳv": 6504,
      "Ġbáº©m": 6505,
      "Ġxua": 6506,
      "sÃłi": 6507,
      "icester": 6508,
      "itt": 6509,
      "oanh": 6510,
      "ĠsÄ©": 6511,
      "cow": 6512,
      "galaxy": 6513,
      "Ġhiáº¿p": 6514,
      "Ġngháº¹t": 6515,
      "dow": 6516,
      "loa": 6517,
      "Ġblue": 6518,
      "fr": 6519,
      "review": 6520,
      "Ġelec": 6521,
      "dÃŃnh": 6522,
      "Ġháº¡ch": 6523,
      "))": 6524,
      "ĠvÃ¢y": 6525,
      "now": 6526,
      "Ġmichael": 6527,
      "Ġbidv": 6528,
      "Ġsgk": 6529,
      "cial": 6530,
      "Ġafp": 6531,
      "Ġbosch": 6532,
      "hp": 6533,
      "æľ": 6534,
      "Ġruá»ĵi": 6535,
      "dáº·m": 6536,
      "lÃ¢n": 6537,
      "má»ĭn": 6538,
      "tháº£": 6539,
      "Ġkhuya": 6540,
      "Ġchris": 6541,
      "mone": 6542,
      "vc": 6543,
      "ĠÃ¡i": 6544,
      "lá»¥t": 6545,
      "riverside": 6546,
      "Ġether": 6547,
      "Ġngáº¥t": 6548,
      "new": 6549,
      "Ġcáº¡o": 6550,
      "Ġtá»¥t": 6551,
      "muá»Ļn": 6552,
      "giáº¥u": 6553,
      "Ġcuá»ĵng": 6554,
      "jin": 6555,
      "tÃ¡t": 6556,
      "Ġbn": 6557,
      "oma": 6558,
      "Ġtáº£o": 6559,
      "ĠkhoÃ¡i": 6560,
      "dÆ°ng": 6561,
      "Ġrá»ĳt": 6562,
      "Ġlou": 6563,
      "Ġmá»ĵi": 6564,
      "rá»ĵng": 6565,
      "Ġï¼": 6566,
      "ĠnhÆ¡n": 6567,
      "Ġmail": 6568,
      "Ġunited": 6569,
      "mus": 6570,
      "wan": 6571,
      "dáº¡n": 6572,
      "Ġloan": 6573,
      "ĠÆ¡n": 6574,
      "xÃ´i": 6575,
      "cá»Ļ": 6576,
      "tháº¯n": 6577,
      "free": 6578,
      "Ġshopee": 6579,
      "Ġháº£": 6580,
      "Ġwas": 6581,
      "Ġmetro": 6582,
      "Ġcnc": 6583,
      "ĠnhÃłm": 6584,
      "Ġlá»¥a": 6585,
      "Ġfont": 6586,
      "studio": 6587,
      "nhá»©c": 6588,
      "Ġclass": 6589,
      "dotel": 6590,
      "ymar": 6591,
      "lÅ©ng": 6592,
      "Ġrec": 6593,
      "Ġaudio": 6594,
      "rÃ¡o": 6595,
      "Ġhydro": 6596,
      "Ġtab": 6597,
      "Ãªnh": 6598,
      "Ġpt": 6599,
      "nhan": 6600,
      "iam": 6601,
      "Ġnis": 6602,
      "Ġtext": 6603,
      "food": 6604,
      "Ġsco": 6605,
      "ĠthÃŃnh": 6606,
      "ĠphÃ¡c": 6607,
      "Ġroyal": 6608,
      "Ġasia": 6609,
      "alog": 6610,
      "Ġchá»Ľ": 6611,
      "vie": 6612,
      "ĠtoÃ¡t": 6613,
      "sanh": 6614,
      "chiÃªu": 6615,
      "bra": 6616,
      "vice": 6617,
      "cast": 6618,
      "gom": 6619,
      "iel": 6620,
      "Ġsexy": 6621,
      "ngháº½n": 6622,
      "Ġfil": 6623,
      "ĠcÃºc": 6624,
      "oan": 6625,
      "Ġváº·n": 6626,
      "Ġbest": 6627,
      "Ġvá»Ł": 6628,
      "cay": 6629,
      "tÃ½": 6630,
      "Ġcy": 6631,
      "tric": 6632,
      "thay": 6633,
      "ĠâĢĺ": 6634,
      "ĠnhÃ¡i": 6635,
      "Ġitaly": 6636,
      "ĠxÃ´i": 6637,
      "pto": 6638,
      "Ġplo": 6639,
      "Ġsá»«ng": 6640,
      "Ġplu": 6641,
      "Ġná»į": 6642,
      "ĠloÃ©t": 6643,
      "ĠcÃµi": 6644,
      "Ġtx": 6645,
      "nháº£y": 6646,
      "Ġion": 6647,
      "ĠÄĳá»ĳm": 6648,
      "Ġnext": 6649,
      "green": 6650,
      "chen": 6651,
      "thá»¥c": 6652,
      "Ġple": 6653,
      "Ġsuzuki": 6654,
      "shine": 6655,
      "biá»ĩn": 6656,
      "international": 6657,
      "nhá»Ŀn": 6658,
      "Ġjose": 6659,
      "Ġmain": 6660,
      "ston": 6661,
      "ĠlÆ°á»Ŀng": 6662,
      "hung": 6663,
      "Ġtitan": 6664,
      "Ġchá»Ľp": 6665,
      "ading": 6666,
      "Ġctc": 6667,
      "Ġoto": 6668,
      "táº¥u": 6669,
      "tá»ĭnh": 6670,
      "cept": 6671,
      "ager": 6672,
      "Ġquáº¥y": 6673,
      "Ġopen": 6674,
      "Ġbaby": 6675,
      "allet": 6676,
      "Ġtrend": 6677,
      "full": 6678,
      "hua": 6679,
      "hiÃªn": 6680,
      "É´": 6681,
      "Ġsá»Ŀ": 6682,
      "Ġka": 6683,
      "Ġhormone": 6684,
      "pay": 6685,
      "Ġráº£nh": 6686,
      "Ġmark": 6687,
      "ĠrÃ¡o": 6688,
      "Ġtk": 6689,
      "Ġtal": 6690,
      "Ġchuyá»ģn": 6691,
      "tw": 6692,
      "duc": 6693,
      "fs": 6694,
      "ĠsÆ°á»Ľng": 6695,
      "Ġviáº¿ng": 6696,
      "Ġthá»ģm": 6697,
      "Ġapk": 6698,
      "Ġvff": 6699,
      "stal": 6700,
      "Ġdiá»ħm": 6701,
      "Ġ...._": 6702,
      "btc": 6703,
      "field": 6704,
      "hs": 6705,
      "pon": 6706,
      "class": 6707,
      "loud": 6708,
      "Ġdigital": 6709,
      "Ġlat": 6710,
      "Ġvov": 6711,
      "phÃ¬": 6712,
      "ĠchÃ²": 6713,
      "Ġmá»©t": 6714,
      "Ġvill": 6715,
      "Ġshophouse": 6716,
      "war": 6717,
      "Ġbal": 6718,
      "Ð°": 6719,
      "Ġgrab": 6720,
      "vÃ¹ng": 6721,
      "Ġbio": 6722,
      "Ġcháº£nh": 6723,
      "ito": 6724,
      "aku": 6725,
      "life": 6726,
      "hotline": 6727,
      "Ġnhá»ĭn": 6728,
      "Ġvá»¥n": 6729,
      "ngÃ´": 6730,
      "Ġtien": 6731,
      "ats": 6732,
      "Ġhappy": 6733,
      "nghÃ¨o": 6734,
      "Ġleicester": 6735,
      "Ġsus": 6736,
      "dá»Ŀi": 6737,
      "ĠÄĳÃ£ng": 6738,
      "Ġmilan": 6739,
      "Ġiv": 6740,
      "Ġrá»ī": 6741,
      "ido": 6742,
      "Ġhanh": 6743,
      "ei": 6744,
      "Ġvar": 6745,
      "Ġnq": 6746,
      "thoÃ¡i": 6747,
      "bÃ©n": 6748,
      "ĠtÆ¡": 6749,
      "bre": 6750,
      "cáº£ng": 6751,
      "ĠnÃºm": 6752,
      "Ġvietnamnet": 6753,
      "ĠquÃŃ": 6754,
      "Ġsnap": 6755,
      "Ġgeor": 6756,
      "ĠrÃ¡n": 6757,
      "Ġmien": 6758,
      "iversity": 6759,
      "Ġtd": 6760,
      "ival": 6761,
      "Ġ\\_": 6762,
      "dáº»o": 6763,
      "sÃºc": 6764,
      "thá»Ł": 6765,
      "bÃ£i": 6766,
      "ways": 6767,
      "Ġná»Ľi": 6768,
      "Ġqual": 6769,
      "Ġue": 6770,
      "Ġvv": 6771,
      "ĠchÃ³i": 6772,
      "Ġpaul": 6773,
      "ĠvÃ´i": 6774,
      "Ġbol": 6775,
      "Ġcall": 6776,
      "Ġcur": 6777,
      "sá»ī": 6778,
      "cá»įc": 6779,
      "Äĳá»ģu": 6780,
      "Ġvnpt": 6781,
      "kiÃªn": 6782,
      "row": 6783,
      "acom": 6784,
      "ĠnhÃºng": 6785,
      "ĠngÃ³i": 6786,
      "Ð½": 6787,
      "young": 6788,
      "Ġngá»¥y": 6789,
      "bac": 6790,
      "ráº¯n": 6791,
      "Ġrá»Ľt": 6792,
      "Ġngoáº¡n": 6793,
      "trÃ£i": 6794,
      "trÃłn": 6795,
      "hÃ©n": 6796,
      "Ġdau": 6797,
      "ĠxoÃłi": 6798,
      "pad": 6799,
      "rist": 6800,
      "pháº«u": 6801,
      "lywood": 6802,
      "Ġchui": 6803,
      "ká»ī": 6804,
      "massage": 6805,
      "ĠdÃ²": 6806,
      "kháº£": 6807,
      "Ġdoc": 6808,
      "Ġchá»£t": 6809,
      "Ġhtc": 6810,
      "Ġtháº§m": 6811,
      "vest": 6812,
      "Ġtá»ĭnh": 6813,
      "ux": 6814,
      "lip": 6815,
      "Ġzen": 6816,
      "ĠmÃ¡c": 6817,
      "gba": 6818,
      "ĠãĢĲ": 6819,
      "live": 6820,
      "Ġsta": 6821,
      "khiáº¿p": 6822,
      "ĠcÃło": 6823,
      "Ġrock": 6824,
      "Ġstream": 6825,
      "Ġphá»¥ng": 6826,
      "iso": 6827,
      "ĠkÃ¬m": 6828,
      "triá»ĩt": 6829,
      "Äĳá»ĳt": 6830,
      "Ġwi": 6831,
      "Ġchuá»ĵng": 6832,
      "Ġtype": 6833,
      "Äĳuá»ĳi": 6834,
      "nology": 6835,
      "Ġmáº¡c": 6836,
      "Ġharry": 6837,
      "Ġpor": 6838,
      "ania": 6839,
      "tÃª": 6840,
      "Ġstyle": 6841,
      "Ġbik": 6842,
      "lau": 6843,
      "xd": 6844,
      "Ġgiáº¥m": 6845,
      "thuá»Ļt": 6846,
      "ĠsuÃ´n": 6847,
      "Ġcer": 6848,
      "ema": 6849,
      "eles": 6850,
      "Ġccc": 6851,
      "Ġgá»Łi": 6852,
      "Ġfre": 6853,
      "Ġinfo": 6854,
      "trade": 6855,
      "Ġbas": 6856,
      "cÄĳ": 6857,
      "Ġmá»ī": 6858,
      "show": 6859,
      "ĠãĢĤ": 6860,
      "Ġji": 6861,
      "sel": 6862,
      "Ġht": 6863,
      "khanh": 6864,
      "sá»Ńu": 6865,
      "Ġchrome": 6866,
      "quá»·": 6867,
      "ĠphÃ¬": 6868,
      "aker": 6869,
      "urt": 6870,
      "hill": 6871,
      "vÄĳ": 6872,
      "lá»¥a": 6873,
      "ĠâľĶ": 6874,
      "lui": 6875,
      "Ð¾": 6876,
      "hoáº·c": 6877,
      "lÃ²": 6878,
      "Ġcentral": 6879,
      "trá»Ļm": 6880,
      "bb": 6881,
      "há»įp": 6882,
      "ĠtrÃ³c": 6883,
      "Ġnang": 6884,
      "Ġjul": 6885,
      "chÃ¬": 6886,
      "od": 6887,
      "hoc": 6888,
      "gn": 6889,
      "Ġbaccarat": 6890,
      "dáºŃu": 6891,
      "lá»Ńng": 6892,
      "ete": 6893,
      "af": 6894,
      "sol": 6895,
      "Ġprote": 6896,
      "ĠnÃ¡o": 6897,
      "Ġneymar": 6898,
      "ngoan": 6899,
      "Ġkhan": 6900,
      "emy": 6901,
      "Ġwork": 6902,
      "oucher": 6903,
      "mor": 6904,
      "Ġmá»īm": 6905,
      "má»ı": 6906,
      "zer": 6907,
      "ĠrÃ¡t": 6908,
      "baba": 6909,
      "Ġitem": 6910,
      "quáº£ng": 6911,
      "Ġsá»ĵi": 6912,
      "tháº¥u": 6913,
      "Ġvene": 6914,
      "Ġráº½": 6915,
      "ribank": 6916,
      "dÃ¡n": 6917,
      "cua": 6918,
      "Ġphai": 6919,
      "Ġcá»«u": 6920,
      "Ã²e": 6921,
      "Ġgre": 6922,
      "á»£p": 6923,
      "Ġmet": 6924,
      "Ġpho": 6925,
      "stics": 6926,
      "Ġvá»Ľt": 6927,
      "_$": 6928,
      "dec": 6929,
      "lá»Ļi": 6930,
      "Ġmtv": 6931,
      "ations": 6932,
      "Ġcarbon": 6933,
      "Ġphotoshop": 6934,
      "Ġstart": 6935,
      "ĠxoÃ¡y": 6936,
      "jun": 6937,
      "ná»Ļ": 6938,
      "Ġlivestream": 6939,
      "Äĳáº¿n": 6940,
      "rit": 6941,
      "Ġngáº¯t": 6942,
      "osa": 6943,
      "má»¥n": 6944,
      "Äĳáº±ng": 6945,
      "Ġ::": 6946,
      "gic": 6947,
      "eral": 6948,
      "ngá»ĵi": 6949,
      "Ġlcd": 6950,
      "Ġrol": 6951,
      "rá»«ng": 6952,
      "name": 6953,
      "Ġsiáº¿t": 6954,
      "Ġxáº¡": 6955,
      "ashion": 6956,
      "ĠÄĳáºŃy": 6957,
      "Ġbá»±c": 6958,
      "ier": 6959,
      "ĠlÃ©n": 6960,
      "ste": 6961,
      "Ġnem": 6962,
      "vÃ³c": 6963,
      "váº¡n": 6964,
      "Ġsms": 6965,
      "Ġputin": 6966,
      "ting": 6967,
      "Ġltd": 6968,
      "sec": 6969,
      "ĠrÃ¹a": 6970,
      "lic": 6971,
      "Ð¸": 6972,
      "Ġkb": 6973,
      "ĠâĿ": 6974,
      "Ġdoi": 6975,
      "Ġbá»ĵng": 6976,
      "giam": 6977,
      "Ġflor": 6978,
      "ngÆ°": 6979,
      "tower": 6980,
      "ient": 6981,
      "Ġcre": 6982,
      "Ġshin": 6983,
      "ĠÃ¹n": 6984,
      "Ñĥ": 6985,
      "ĠvÃ¢ng": 6986,
      "chá»«": 6987,
      "Ġtrau": 6988,
      "unce": 6989,
      "Ġev": 6990,
      "sch": 6991,
      "ngÃłng": 6992,
      "dam": 6993,
      "Ġnissan": 6994,
      "ruá»Ļt": 6995,
      "Ġcart": 6996,
      "ipedia": 6997,
      "mit": 6998,
      "Ġmedia": 6999,
      "Ġnhnn": 7000,
      "ngang": 7001,
      "Ġvest": 7002,
      "Ġkhuáº©n": 7003,
      "ennis": 7004,
      "Ġobama": 7005,
      "keo": 7006,
      "âĢĻ": 7007,
      "ien": 7008,
      "jack": 7009,
      "ĠghÃª": 7010,
      "kn": 7011,
      "Ġimplant": 7012,
      "Ġnhá»įn": 7013,
      "Ġtravel": 7014,
      "Ġvietin": 7015,
      "Ġbá»©t": 7016,
      "med": 7017,
      "liÃªng": 7018,
      "ovo": 7019,
      "micro": 7020,
      "ĠcafÃ©": 7021,
      "vnÄĳ": 7022,
      "alan": 7023,
      "Ġleave": 7024,
      "chÃ¹i": 7025,
      "Ġcccd": 7026,
      "Ġmah": 7027,
      "ĠhÃ¡o": 7028,
      "Ġfol": 7029,
      "Ġinf": 7030,
      "Ġdáº·m": 7031,
      "Ġmag": 7032,
      "tup": 7033,
      "ĠvÄĥng": 7034,
      "Ġtone": 7035,
      "ĠsÃºp": 7036,
      "Ġjoe": 7037,
      "Ġbá»į": 7038,
      "town": 7039,
      "bout": 7040,
      "Ġliá»ħu": 7041,
      "_=": 7042,
      "tráº¯c": 7043,
      "nder": 7044,
      "Ġshar": 7045,
      "plex": 7046,
      "Ġhomestay": 7047,
      "hÃ³t": 7048,
      "Ġquá»³": 7049,
      "Ġcotton": 7050,
      "nghá»ĭch": 7051,
      "cci": 7052,
      "Ġctcp": 7053,
      "Ġdvd": 7054,
      "Ġgáº·t": 7055,
      "treo": 7056,
      "Ġkhao": 7057,
      "khá»§ng": 7058,
      "Ġpak": 7059,
      "lon": 7060,
      "ĠÄĳá»ĭt": 7061,
      "lim": 7062,
      "Ġvá»įt": 7063,
      "bt": 7064,
      "sáº¡c": 7065,
      "Ġcand": 7066,
      "Ġbung": 7067,
      "ĠrÃ²ng": 7068,
      "hÃªnh": 7069,
      "bÃ¹": 7070,
      "vÃ¢y": 7071,
      "Ġsat": 7072,
      "org": 7073,
      "aga": 7074,
      "Äĳáº»": 7075,
      "Ġlist": 7076,
      "Ġxá»ĭn": 7077,
      "kháº£i": 7078,
      "Ġdragon": 7079,
      "Ġniá»ĩu": 7080,
      "Ġhuyá»ĩt": 7081,
      "Ġranh": 7082,
      "Ġaug": 7083,
      "Ġder": 7084,
      "thy": 7085,
      "Ġsalon": 7086,
      "Ġphiáº¿n": 7087,
      "mÆ°á»£t": 7088,
      "ĠxÃ©": 7089,
      "pton": 7090,
      "ones": 7091,
      "ĠsÃ³t": 7092,
      "Ġuni": 7093,
      "Ġkháº£i": 7094,
      "diá»ĩp": 7095,
      "Ġlien": 7096,
      "Ġtap": 7097,
      "hip": 7098,
      "lÆ°á»¡i": 7099,
      "Ġrio": 7100,
      "ategor": 7101,
      "Ġbec": 7102,
      "tags": 7103,
      "vro": 7104,
      "ĠxÃłi": 7105,
      "ĠtÃ½": 7106,
      "asy": 7107,
      "ĠhiÃªn": 7108,
      "Ġmá»įt": 7109,
      "note": 7110,
      "kd": 7111,
      "exus": 7112,
      "Ġbáº»": 7113,
      "Ġbá»īm": 7114,
      "Ġkhá»ī": 7115,
      "Ġtá»īa": 7116,
      "well": 7117,
      "Ġkali": 7118,
      "Ħ¢": 7119,
      "ĠtrÄĥn": 7120,
      "Ġtg": 7121,
      "Ġmus": 7122,
      "bie": 7123,
      "Ġfire": 7124,
      "yan": 7125,
      "ká»ĩ": 7126,
      "Ġdien": 7127,
      "Ġsjc": 7128,
      "Ġbeauty": 7129,
      "Ġváº£y": 7130,
      "Ġado": 7131,
      "thuáº¿": 7132,
      "Ġedu": 7133,
      "chiáº¿m": 7134,
      "gap": 7135,
      "hop": 7136,
      "Ġskin": 7137,
      "sÃ©t": 7138,
      "Ġpháº§m": 7139,
      "Ġsá»įc": 7140,
      "Ġqh": 7141,
      "chá»įi": 7142,
      "huá»³nh": 7143,
      "Ġtoe": 7144,
      "Ġce": 7145,
      "amine": 7146,
      "toan": 7147,
      "ffe": 7148,
      "amond": 7149,
      "sky": 7150,
      "máºŃp": 7151,
      "ĠmÃ©p": 7152,
      "wi": 7153,
      "lum": 7154,
      "nhá»Ļn": 7155,
      "ding": 7156,
      "Ġkq": 7157,
      "hÆ°": 7158,
      "láº·p": 7159,
      "igue": 7160,
      "Ġsed": 7161,
      "Ġnguoi": 7162,
      "Ġtiktok": 7163,
      "pany": 7164,
      "Ġâĸº": 7165,
      "Ġstu": 7166,
      "Ġpixel": 7167,
      "Ġsilicon": 7168,
      "bridge": 7169,
      "ĠniÃªn": 7170,
      "Ġtá»¥i": 7171,
      "ĠháºŃn": 7172,
      "hoÃ£n": 7173,
      "Ġlá»«ng": 7174,
      "Ġmad": 7175,
      "xÃŃ": 7176,
      "Ġvil": 7177,
      "ob": 7178,
      "ĠuyÃªn": 7179,
      "ĠnÃł": 7180,
      "Ġlight": 7181,
      "Ġvalen": 7182,
      "ĠhÃ¡i": 7183,
      "chiá»ĥu": 7184,
      "benz": 7185,
      "cad": 7186,
      "Ġsunshine": 7187,
      "Ġlá»ĵn": 7188,
      "chÃło": 7189,
      "ptnt": 7190,
      "Ġcanon": 7191,
      "bá»«ng": 7192,
      "erson": 7193,
      "vÃ¡y": 7194,
      "káº¹t": 7195,
      "Ġsx": 7196,
      "tphcm": 7197,
      "Ġocean": 7198,
      "dáº¡i": 7199,
      "chá»Ł": 7200,
      "báº©y": 7201,
      "ken": 7202,
      "Ġfr": 7203,
      "leg": 7204,
      "tiáº¿c": 7205,
      "dia": 7206,
      "Ġbur": 7207,
      "Ġagribank": 7208,
      "Ġnoel": 7209,
      "met": 7210,
      "Ġvks": 7211,
      "Ġbáº§y": 7212,
      "cola": 7213,
      "Ġmanh": 7214,
      "Ġkha": 7215,
      "Ġdortm": 7216,
      "trÃ¢m": 7217,
      "Ġoz": 7218,
      "Ġevn": 7219,
      "ĠÃºt": 7220,
      "Ġtrail": 7221,
      "Ġdortmund": 7222,
      "cáº¥t": 7223,
      "Ġdiá»ĩu": 7224,
      "cháº¥n": 7225,
      "cro": 7226,
      "vers": 7227,
      "ĠkhÃŃt": 7228,
      "ual": 7229,
      "Ġthá»ı": 7230,
      "Ġtáº©m": 7231,
      "Ġalibaba": 7232,
      "cation": 7233,
      "Ġpubl": 7234,
      "Ġxáº¿": 7235,
      "ĠvÃŃt": 7236,
      "Ġdá»©a": 7237,
      "chiÃªn": 7238,
      "Ġgarden": 7239,
      "ila": 7240,
      "ŃĲ": 7241,
      "Ġmes": 7242,
      "power": 7243,
      "äº": 7244,
      "ĠtÃłng": 7245,
      "Ġplan": 7246,
      "Ġnoi": 7247,
      "ĠphÃ´i": 7248,
      "bÃ³p": 7249,
      "há»ķng": 7250,
      "Ġdaily": 7251,
      "ĠcÃły": 7252,
      "ngá»¥c": 7253,
      "á»§ng": 7254,
      "Ġtweet": 7255,
      "Ġháº£o": 7256,
      "Ġcondotel": 7257,
      "Ġapr": 7258,
      "wifi": 7259,
      "ĠrÃ£nh": 7260,
      "hiáº¿p": 7261,
      "omas": 7262,
      "Ġidol": 7263,
      "pping": 7264,
      "báº¥t": 7265,
      "xÃ¬": 7266,
      "ĠâĹ": 7267,
      "cin": 7268,
      "ports": 7269,
      "ĠnhÅ©": 7270,
      "Ġdáº¯t": 7271,
      "Ġwater": 7272,
      "ĠmáºŃp": 7273,
      "Ġcuba": 7274,
      "cia": 7275,
      "Ġline": 7276,
      "Ġthá»Ńa": 7277,
      "há»ĩt": 7278,
      "premi": 7279,
      "Ġvali": 7280,
      "Ġamer": 7281,
      "Ġforum": 7282,
      "eum": 7283,
      "oa": 7284,
      "idan": 7285,
      "kr": 7286,
      "Ġvoucher": 7287,
      "xb": 7288,
      "ĠãĢĳ": 7289,
      "nhuyá»ħn": 7290,
      "dáº·n": 7291,
      "Ġbiden": 7292,
      "Ġhosting": 7293,
      "Ġcabin": 7294,
      "Ġkhinh": 7295,
      "nk": 7296,
      "Ġvá»±c": 7297,
      "utnik": 7298,
      "ĠÄĳáº¥m": 7299,
      "izen": 7300,
      "Ġasian": 7301,
      "vá»Ł": 7302,
      "ĠnhÃ¡y": 7303,
      "tháº§y": 7304,
      "tÃ²a": 7305,
      "virus": 7306,
      "nÃ´n": 7307,
      "vá»ģ": 7308,
      "tuáº¥t": 7309,
      "há»£i": 7310,
      "Ġpay": 7311,
      "Ġnáº¿m": 7312,
      "quoc": 7313,
      "Æ°Æ¡u": 7314,
      "rá»Ĺi": 7315,
      "kiÃªng": 7316,
      "boy": 7317,
      "Ġia": 7318,
      "Ġwikipedia": 7319,
      "nÆ°Æ¡ng": 7320,
      "Ġthuá»Ł": 7321,
      "Ġorgan": 7322,
      "ĠhÃ²m": 7323,
      "Ġsto": 7324,
      "Ġaudi": 7325,
      "Äĳao": 7326,
      "Ġjet": 7327,
      "Ġthong": 7328,
      "plo": 7329,
      "Ġjava": 7330,
      "Ġwc": 7331,
      "Ġtruc": 7332,
      "Ġya": 7333,
      "Ġtá»§y": 7334,
      "cus": 7335,
      "hong": 7336,
      "cÄĥn": 7337,
      "ortun": 7338,
      "series": 7339,
      "Ġáº¯c": 7340,
      "ĠxÃ³t": 7341,
      "ronaldo": 7342,
      "ĠmÃºt": 7343,
      "Ġenglish": 7344,
      "bá»¥i": 7345,
      "Ġcasio": 7346,
      "Ġret": 7347,
      "sÃło": 7348,
      "Ġlá»ģu": 7349,
      "Ġnil": 7350,
      "khÃ´n": 7351,
      "qh": 7352,
      "ghanistan": 7353,
      "há»©c": 7354,
      "ĠsÃºc": 7355,
      "castle": 7356,
      "xÆ°ng": 7357,
      "ĠtÆ°ng": 7358,
      "ĠlÃ¬": 7359,
      "fun": 7360,
      "Ġnlá»Ĺi": 7361,
      "ĠrÃ³t": 7362,
      "Ġadd": 7363,
      "Ġdá»¥": 7364,
      "ĠtrÃłm": 7365,
      "trogen": 7366,
      "Ã¢t": 7367,
      "Ġnhuyá»ħn": 7368,
      "Ġdy": 7369,
      "trÃłm": 7370,
      "made": 7371,
      "esel": 7372,
      "iku": 7373,
      "buá»ĵn": 7374,
      "pm": 7375,
      "Ġtran": 7376,
      "Ġ>_": 7377,
      "tá»ķng": 7378,
      "Ġvietinbank": 7379,
      "ĠÆ°": 7380,
      "ille": 7381,
      "von": 7382,
      "xs": 7383,
      "Ġbor": 7384,
      "Ġlenovo": 7385,
      "Ġbuffet": 7386,
      "posite": 7387,
      "Ġlas": 7388,
      "Ġmoscow": 7389,
      "báº¯n": 7390,
      "Ġná»©c": 7391,
      "Ġuae": 7392,
      "rect": 7393,
      "hyun": 7394,
      "ÄĳÃ´n": 7395,
      "Ġabs": 7396,
      "ĠÄĳÃ´n": 7397,
      "bil": 7398,
      "Ġtex": 7399,
      "ĠnhÃłn": 7400,
      "cá»±u": 7401,
      "chÃ¬m": 7402,
      "cÃ´i": 7403,
      "Ġnáº¡o": 7404,
      "Ġnghiá»ĩm": 7405,
      "Ġrap": 7406,
      "ĠkhÆ°Æ¡ng": 7407,
      "Ġlouis": 7408,
      "Ġgá»įt": 7409,
      "ape": 7410,
      "hlv": 7411,
      "Ġbrand": 7412,
      "Ġenter": 7413,
      "Äĳá»ĳ": 7414,
      "phÆ°á»Ŀng": 7415,
      "lÃło": 7416,
      "thá»¥y": 7417,
      "bid": 7418,
      "Ġvietsub": 7419,
      "Ġbá»ıng": 7420,
      "ey": 7421,
      "Ġsir": 7422,
      "Ġnhá»ıng": 7423,
      "cur": 7424,
      "ĠphÃ´ng": 7425,
      "Ġounce": 7426,
      "rÃ£": 7427,
      "ım": 7428,
      "Ġváº¥p": 7429,
      "Ġsand": 7430,
      "Ġlazada": 7431,
      "fford": 7432,
      "Ġcau": 7433,
      "mÃ³ng": 7434,
      "acid": 7435,
      "vrolet": 7436,
      "count": 7437,
      "quÃ©t": 7438,
      "ĠhÃº": 7439,
      "tung": 7440,
      "ĠnÃ¡ch": 7441,
      "ĠdÃ©p": 7442,
      "lee": 7443,
      "gel": 7444,
      "chat": 7445,
      "nhá»įc": 7446,
      "dá»¡": 7447,
      "Ġmun": 7448,
      "Ġeverton": 7449,
      "láºŃu": 7450,
      "ngÆ°u": 7451,
      "Ġvictoria": 7452,
      "Ġmaria": 7453,
      "ĠÄĳb": 7454,
      "Ġnato": 7455,
      "Ġbá»ĩ": 7456,
      "nect": 7457,
      "Ġdam": 7458,
      "quÃª": 7459,
      "láº¥n": 7460,
      "táº¯n": 7461,
      "Ġbá»Ļi": 7462,
      "Ġstartup": 7463,
      "baby": 7464,
      "à¹": 7465,
      "cover": 7466,
      "Ġket": 7467,
      "Ġhollywood": 7468,
      "ä¸ļ": 7469,
      "Ġandre": 7470,
      "Ġhero": 7471,
      "Ġlock": 7472,
      "ĠsÃ©c": 7473,
      "Ġprodu": 7474,
      "khÃ³i": 7475,
      "Ġray": 7476,
      "Ġkhoanh": 7477,
      "Ġmak": 7478,
      "munich": 7479,
      "Ġfdi": 7480,
      "tháº£m": 7481,
      "Ġngáº£": 7482,
      "Ġtoa": 7483,
      "ior": 7484,
      "nis": 7485,
      "Ġgiáº·c": 7486,
      "thong": 7487,
      "nÃ©": 7488,
      "Ġmap": 7489,
      "Ġwon": 7490,
      "ĠcháºŃp": 7491,
      "á»±u": 7492,
      "gÃ³t": 7493,
      "tháº»": 7494,
      "umi": 7495,
      "Ġprotect": 7496,
      "pet": 7497,
      "quáº¡t": 7498,
      "sin": 7499,
      "Ġá»ĵ": 7500,
      "Ġtel": 7501,
      "opt": 7502,
      "quÃ¡": 7503,
      "voi": 7504,
      "Ġâŀ": 7505,
      "Ġkhá»ĳn": 7506,
      "xen": 7507,
      "Ġthá»ĳt": 7508,
      "Ġá»©": 7509,
      "Ġthiá»ĩp": 7510,
      "Ġiq": 7511,
      "vet": 7512,
      "Ġkhiáº¿m": 7513,
      "tÄĥm": 7514,
      "çļ": 7515,
      "Ġif": 7516,
      "Ġexc": 7517,
      "ev": 7518,
      "Ġbam": 7519,
      "Ġnung": 7520,
      "khuyáº¿t": 7521,
      "bat": 7522,
      "dv": 7523,
      "lÃ¡ch": 7524,
      "Ġgranite": 7525,
      "dá»Ł": 7526,
      "mÃ¡c": 7527,
      "Ġdá»¡": 7528,
      "ttp": 7529,
      "mann": 7530,
      "sáº£o": 7531,
      "tuyá»ĩt": 7532,
      "Ġmoi": 7533,
      "xÃŃu": 7534,
      "ngá»į": 7535,
      "nat": 7536,
      "Ġgá»Ļi": 7537,
      "Ġthen": 7538,
      "idence": 7539,
      "sey": 7540,
      "phá»¥ng": 7541,
      "Ġgom": 7542,
      "Ġauthority": 7543,
      "esco": 7544,
      "Ġ}_": 7545,
      "Ġgames": 7546,
      "los": 7547,
      "Ġdubai": 7548,
      "nhÃ³m": 7549,
      "Ġdet": 7550,
      "Ġphone": 7551,
      "dor": 7552,
      "ĠnÃ©": 7553,
      "gáº¡o": 7554,
      "ráº±ng": 7555,
      "cáº¥m": 7556,
      "Ġgmail": 7557,
      "ascript": 7558,
      "ĠxÆ°á»Ľc": 7559,
      "cá»«": 7560,
      "ĠÄĳÄĥk": 7561,
      "tran": 7562,
      "cháº¡p": 7563,
      "ĠnÃ¨": 7564,
      "undes": 7565,
      "cá»ĳi": 7566,
      "map": 7567,
      "ui": 7568,
      "fol": 7569,
      "Ġbeta": 7570,
      "háº¥u": 7571,
      "xÃŃt": 7572,
      "Ġhinh": 7573,
      "Ġcarton": 7574,
      "ĠmÃŃt": 7575,
      "cÆ°á»Ľc": 7576,
      "Ġhun": 7577,
      "hoáº¡n": 7578,
      "xáº¯c": 7579,
      "ads": 7580,
      "Ġmica": 7581,
      "váº¡ch": 7582,
      "Ġnin": 7583,
      "rá»±c": 7584,
      "Ġorder": 7585,
      "niá»ĩu": 7586,
      "beauty": 7587,
      "xuÃ´i": 7588,
      "ordan": 7589,
      "dney": 7590,
      "ĠnhÃ³c": 7591,
      "email": 7592,
      "Ġlogistics": 7593,
      "die": 7594,
      "Ġnguyá»ĩt": 7595,
      "rad": 7596,
      "ĠcÆ°a": 7597,
      "Ġchar": 7598,
      "xáº£": 7599,
      "Ġmir": 7600,
      "iko": 7601,
      "ieng": 7602,
      "_<": 7603,
      "Ġafghanistan": 7604,
      "vt": 7605,
      "nhÆ°á»¡ng": 7606,
      "iti": 7607,
      "tuy": 7608,
      "quyÃªn": 7609,
      "mobi": 7610,
      "black": 7611,
      "Ġbch": 7612,
      "Ġrou": 7613,
      "zuela": 7614,
      "dn": 7615,
      "Ġaqua": 7616,
      "ized": 7617,
      "Ġeuropa": 7618,
      "tar": 7619,
      "Ġmega": 7620,
      "mÃ¹i": 7621,
      "gie": 7622,
      "khuÃª": 7623,
      "auto": 7624,
      "attle": 7625,
      "fil": 7626,
      "Ġspe": 7627,
      "Ġbk": 7628,
      "lÃ£ng": 7629,
      "Ġci": 7630,
      "Ġplugin": 7631,
      "bÃ¡u": 7632,
      "goo": 7633,
      "miá»ģn": 7634,
      "Ġkháº½": 7635,
      "Ġremo": 7636,
      "Ġmoon": 7637,
      "Ġráº±m": 7638,
      "tiá»ĩc": 7639,
      "yang": 7640,
      "Ġbra": 7641,
      "moi": 7642,
      "Ġinverter": 7643,
      "Ġdáº¿": 7644,
      "ush": 7645,
      "iller": 7646,
      "urce": 7647,
      "amo": 7648,
      "ĠcsÄĳt": 7649,
      "Ġcrystal": 7650,
      "nÃ¡ch": 7651,
      "xÃ³t": 7652,
      "Ġbáº¡i": 7653,
      "Ġkw": 7654,
      "xuá»ĳng": 7655,
      "_Â®": 7656,
      "Ġdep": 7657,
      "Ġtáº¥p": 7658,
      "Ġks": 7659,
      "Ġtrader": 7660,
      "thÃ¡m": 7661,
      "iphone": 7662,
      "Ġxá»ĩ": 7663,
      "onia": 7664,
      "ráº½": 7665,
      "Ġpakistan": 7666,
      "Ġdesign": 7667,
      "undesliga": 7668,
      "táº¡": 7669,
      "Ġrel": 7670,
      "Ġname": 7671,
      "cÃºp": 7672,
      "ĠtÆ°á»Ľc": 7673,
      "Ġultra": 7674,
      "Ġusa": 7675,
      "Ġsputnik": 7676,
      "Ġkhá»ĳc": 7677,
      "ngÃ£": 7678,
      "erry": 7679,
      "Ðµ": 7680,
      "encia": 7681,
      "Ġtrade": 7682,
      "Ġnl": 7683,
      "tic": 7684,
      "Ġnhá»Ľt": 7685,
      "Ġhat": 7686,
      "Ġdáº·n": 7687,
      "Ġover": 7688,
      "Ġkhuynh": 7689,
      "zi": 7690,
      "luÃ¢n": 7691,
      "Ġvilla": 7692,
      "Äĳan": 7693,
      "Ġchang": 7694,
      "Ġdream": 7695,
      "Ġjenn": 7696,
      "master": 7697,
      "Ġbá»ĭt": 7698,
      "Ġshb": 7699,
      "thÃªm": 7700,
      "dien": 7701,
      "blet": 7702,
      "ĠquÃ¡ch": 7703,
      "cent": 7704,
      "Ġdj": 7705,
      "Ġgio": 7706,
      "una": 7707,
      "Ġjapan": 7708,
      "Ġlav": 7709,
      "Ġsite": 7710,
      "ĠngÃł": 7711,
      "Ġphotocopy": 7712,
      "ĠÃ´i": 7713,
      "Ġglobal": 7714,
      "Ġhim": 7715,
      "ani": 7716,
      "ĠchÃ¨o": 7717,
      "Ġoh": 7718,
      "Ġkhuáº¿ch": 7719,
      "ĠhÄĥng": 7720,
      "Ġfac": 7721,
      "ĠbÃ¨": 7722,
      "vas": 7723,
      "Ġhas": 7724,
      "khiáº¿u": 7725,
      "ná»ī": 7726,
      "dáºŃp": 7727,
      "acific": 7728,
      "nÃºi": 7729,
      "Ġgp": 7730,
      "smart": 7731,
      "Ġsedan": 7732,
      "Ġlá»ĳc": 7733,
      "ĠgÃ¬n": 7734,
      "tÃ¡ng": 7735,
      "ráº«y": 7736,
      "Ġxh": 7737,
      "lá»ĵng": 7738,
      "nhiá»ħu": 7739,
      "hol": 7740,
      "Ã½p": 7741,
      "Ġ~_": 7742,
      "ify": 7743,
      "ween": 7744,
      "tintuc": 7745,
      "Ġnhai": 7746,
      "Ġvalentine": 7747,
      "tÃ¹y": 7748,
      "má»ıng": 7749,
      "Ġngáº¥m": 7750,
      "motor": 7751,
      "wai": 7752,
      "Ġself": 7753,
      "ĠbÃ³n": 7754,
      "Ġadobe": 7755,
      "khao": 7756,
      "saigon": 7757,
      "Ġkn": 7758,
      "illa": 7759,
      "viettel": 7760,
      "mÄ©": 7761,
      "Ġphen": 7762,
      "Ġchevrolet": 7763,
      "Ġhoc": 7764,
      "mÃ¨o": 7765,
      "Ġvá»Ľ": 7766,
      "rs": 7767,
      "Ġbusiness": 7768,
      "clip": 7769,
      "Ġcharl": 7770,
      "rush": 7771,
      "Ġtl": 7772,
      "atia": 7773,
      "ĠÄĳá»Ļn": 7774,
      "Ġfrank": 7775,
      "building": 7776,
      "sÆ°t": 7777,
      "kw": 7778,
      "laptop": 7779,
      "Ġsáº¯n": 7780,
      "ĠvÄĳqg": 7781,
      "Ġzoom": 7782,
      "Ġwat": 7783,
      "android": 7784,
      "Ġphilips": 7785,
      "Ġbanh": 7786,
      "Ġkai": 7787,
      "çļĦ": 7788,
      "lÃŃt": 7789,
      "Ġsaudi": 7790,
      "Ġrobert": 7791,
      "nel": 7792,
      "Ġgv": 7793,
      "Ġphao": 7794,
      "white": 7795,
      "_âĢº": 7796,
      "láº¥p": 7797,
      "sÃ´ng": 7798,
      "Ġbiáº¿u": 7799,
      "vat": 7800,
      "shiba": 7801,
      "Ġvy": 7802,
      "ĠsÃ²": 7803,
      "máº©n": 7804,
      "Ġdl": 7805,
      "Ġsupp": 7806,
      "Ġfirst": 7807,
      "Ġscandal": 7808,
      "Ġbbc": 7809,
      "Ġjung": 7810,
      "school": 7811,
      "ship": 7812,
      "palace": 7813,
      "máº¡": 7814,
      "pen": 7815,
      "Ġcent": 7816,
      "Ġtá»¥c": 7817,
      "imo": 7818,
      "Ġuefa": 7819,
      "Ġls": 7820,
      "pers": 7821,
      "iki": 7822,
      "ric": 7823,
      "ures": 7824,
      "Ġslo": 7825,
      "Ġethereum": 7826,
      "náº¿p": 7827,
      "Ġpic": 7828,
      "tage": 7829,
      "ius": 7830,
      "lich": 7831,
      "Ġmá»ģ": 7832,
      "Ġnsnd": 7833,
      "Ġtar": 7834,
      "ĠkhÃŃch": 7835,
      "giÃ²n": 7836,
      "cum": 7837,
      "Ġkhong": 7838,
      "bÆ°á»Ľc": 7839,
      "káº¡n": 7840,
      "Ġtennis": 7841,
      "trafford": 7842,
      "gáº¯m": 7843,
      "fire": 7844,
      "bol": 7845,
      "ug": 7846,
      "west": 7847,
      "ĠthiÃªu": 7848,
      "phen": 7849,
      "ĠhÃ£m": 7850,
      "Ġtrailer": 7851,
      "ĠgiÃ£": 7852,
      "Ġmáº¯ng": 7853,
      "háº¡t": 7854,
      "káº¹o": 7855,
      "door": 7856,
      "pact": 7857,
      "Ġhá»§": 7858,
      "Ġqatar": 7859,
      "ĠbÆ°á»Ľm": 7860,
      "ĠmÃºi": 7861,
      "Ġten": 7862,
      "xp": 7863,
      "bá»ĵn": 7864,
      "bp": 7865,
      "mÃ¢y": 7866,
      "Ġvung": 7867,
      "Ġapec": 7868,
      "Ġxá»īu": 7869,
      "Ġpop": 7870,
      "nháº¹n": 7871,
      "Ġlá»Ļi": 7872,
      "Êľ": 7873,
      "test": 7874,
      "nuá»ĳi": 7875,
      "gáº¯n": 7876,
      "Ġæ": 7877,
      "Ġnar": 7878,
      "estival": 7879,
      "oai": 7880,
      "tráº·c": 7881,
      "ĠrÆ¡m": 7882,
      "Ġvenezuela": 7883,
      "Ġà¸": 7884,
      "_âľ": 7885,
      "ĠxiÃªn": 7886,
      "ghz": 7887,
      "pink": 7888,
      "ĠrÃªu": 7889,
      "Ġpháº«n": 7890,
      "tec": 7891,
      "quá»¹": 7892,
      "ĠÄĳÅ©a": 7893,
      "Ġzip": 7894,
      "Ġ]_[": 7895,
      "system": 7896,
      "sá»Ľm": 7897,
      "uel": 7898,
      "Ġkv": 7899,
      "ĠlÆ°á»£c": 7900,
      "Ġalpha": 7901,
      "thoa": 7902,
      "ĠvÃµng": 7903,
      "gá»Ńi": 7904,
      "lÃ³c": 7905,
      "Ġger": 7906,
      "Ġsoft": 7907,
      "ector": 7908,
      "Ġjavascript": 7909,
      "Ġcuá»ĳng": 7910,
      "ĠhuÃ¢n": 7911,
      "Ġlexus": 7912,
      "model": 7913,
      "Ġvietnamplus": 7914,
      "ĠÄĳÃ£i": 7915,
      "jan": 7916,
      "lÆ°": 7917,
      "Ġdriver": 7918,
      "Ġlet": 7919,
      "ðĿĹ": 7920,
      "dá»ĵi": 7921,
      "ĠmÆ°Æ¡i": 7922,
      "Ġran": 7923,
      "Äĳáº¯m": 7924,
      "Ġhcv": 7925,
      "Ġarchives": 7926,
      "Ġstt": 7927,
      "Ġpubg": 7928,
      "Ġbikini": 7929,
      "Ġleg": 7930,
      "Ġkubet": 7931,
      "vÃŃt": 7932,
      "Ġcenter": 7933,
      "love": 7934,
      "Ġprotected": 7935,
      "atus": 7936,
      "chÃ¹a": 7937,
      "nÃ³n": 7938,
      "Ġspec": 7939,
      "uzu": 7940,
      "ĠnsÆ°t": 7941,
      "nguy": 7942,
      "Ġlife": 7943,
      "Ġmá»³": 7944,
      "Ġtimes": 7945,
      "ĠbÃŃnh": 7946,
      "Ġago": 7947,
      "craft": 7948,
      "Ġvincom": 7949,
      "Ġmade": 7950,
      "quáº¿": 7951,
      "bÃ£": 7952,
      "Ġthomas": 7953,
      "ĠáºŃp": 7954,
      "Ġá»ĳ": 7955,
      "info": 7956,
      "Ġblackberry": 7957,
      "Ġráº§m": 7958,
      "Ġtpo": 7959,
      "Ġmusic": 7960,
      "ĠchÆ°á»Ľng": 7961,
      "quyá»ĩn": 7962,
      "ĠâĨĴ_": 7963,
      "dom": 7964,
      "dule": 7965,
      "Ġtechcombank": 7966,
      "rai": 7967,
      "Ġkan": 7968,
      "ç»": 7969,
      "under": 7970,
      "Ġ^_": 7971,
      "Ġcf": 7972,
      "Ġhtm": 7973,
      "hÆ¡n": 7974,
      "Ġnáº§y": 7975,
      "diá»ħm": 7976,
      "thá»ĳn": 7977,
      "ÄĳÃ³ng": 7978,
      "tham": 7979,
      "ĠsÃ¡o": 7980,
      "tainment": 7981,
      "dh": 7982,
      "ĠmÄ©": 7983,
      "ily": 7984,
      "sum": 7985,
      "Ġtto": 7986,
      "Ġnháº¥c": 7987,
      "Ġcá»ĵng": 7988,
      "ecom": 7989,
      "bes": 7990,
      "Ġbá»ķn": 7991,
      "bas": 7992,
      "itu": 7993,
      "kar": 7994,
      "Ġbks": 7995,
      "bá»¯a": 7996,
      "Ġths": 7997,
      "izza": 7998,
      "ĠvÃ¡": 7999,
      "Ġgiun": 8000,
      "ĠxÆ°ng": 8001,
      "Æ°á»Ľn": 8002,
      "Ġil": 8003,
      "bÄĳ": 8004,
      "Ġcrist": 8005,
      "samsung": 8006,
      "dang": 8007,
      "láº¯c": 8008,
      "åĲ": 8009,
      "Ġboo": 8010,
      "Ġtrip": 8011,
      "icle": 8012,
      "ĠsuÃ½t": 8013,
      "Ġcrypto": 8014,
      "vious": 8015,
      "ĠâĢº_": 8016,
      "Ġgiáº§y": 8017,
      "Ġxperia": 8018,
      "Ġsolo": 8019,
      "buá»ĳt": 8020,
      "Ġtáº·c": 8021,
      "Ġssd": 8022,
      "ĠgiÆ¡": 8023,
      "miÃªn": 8024,
      "Ġgáº¯t": 8025,
      "char": 8026,
      "Ġtmcp": 8027,
      "Ġbundesliga": 8028,
      "lat": 8029,
      "trÃ¢n": 8030,
      "Ġhouse": 8031,
      "ademy": 8032,
      "Ġea": 8033,
      "thuÃª": 8034,
      "ights": 8035,
      "kem": 8036,
      "idas": 8037,
      "nhá»įn": 8038,
      "riend": 8039,
      "Ġsáº¡m": 8040,
      "phÃłm": 8041,
      "Ġbinomo": 8042,
      "cáº¥n": 8043,
      "nc": 8044,
      "vá»£t": 8045,
      "Ġmáº¡i": 8046,
      "Ġnewcastle": 8047,
      "Ġpat": 8048,
      "ĠcÃ³c": 8049,
      "Ġsá»¹": 8050,
      "len": 8051,
      "xem": 8052,
      "Ġç": 8053,
      "ĠtrÃªu": 8054,
      "Ġhill": 8055,
      "tá»·": 8056,
      "ÄĳuÃ´i": 8057,
      "Ġvl": 8058,
      "able": 8059,
      "nhá»¥c": 8060,
      "airways": 8061,
      "Ġwo": 8062,
      "uri": 8063,
      "Ġtoken": 8064,
      "ĠÃŃch": 8065,
      "ns": 8066,
      "jaer": 8067,
      "categor": 8068,
      "ĠÄĳiá»ĩp": 8069,
      "Ġox": 8070,
      "Ġrá»Ļn": 8071,
      "Ġcrack": 8072,
      "Ġdia": 8073,
      "Ġevent": 8074,
      "Ġkts": 8075,
      "comm": 8076,
      "ket": 8077,
      "ugh": 8078,
      "senger": 8079,
      "Ġbrun": 8080,
      "Ġsnapdragon": 8081,
      "Ġmis": 8082,
      "Ġalo": 8083,
      "Ġnapoli": 8084,
      "ville": 8085,
      "ĠgÄĳ": 8086,
      "ordred": 8087,
      "Ġpep": 8088,
      "há»ģ": 8089,
      "Ġsáº£ng": 8090,
      "ĠphÃłn": 8091,
      "náºŃp": 8092,
      "Ġnilon": 8093,
      "dar": 8094,
      "Ġhose": 8095,
      "bá»ĵ": 8096,
      "sing": 8097,
      "audio": 8098,
      "hÃ´m": 8099,
      "igo": 8100,
      "Ġpok": 8101,
      "Ġmiá»ĩt": 8102,
      "ĠbÃ¡u": 8103,
      "amilk": 8104,
      "Ġdiesel": 8105,
      "ional": 8106,
      "trans": 8107,
      "Ġjin": 8108,
      "stan": 8109,
      "ror": 8110,
      "tÃ³m": 8111,
      "ĠtÃ£": 8112,
      "xáº»": 8113,
      "Ġunder": 8114,
      "nova": 8115,
      "kham": 8116,
      "Ġxx": 8117,
      "Ġngá»Ŀi": 8118,
      "Ġgps": 8119,
      "tuyá»ģn": 8120,
      "Ġtiá»ħn": 8121,
      "Ġlogic": 8122,
      "Ġlmht": 8123,
      "náº¿n": 8124,
      "Ġná»ĥ": 8125,
      "ĠhÆ°Æ¡u": 8126,
      "Ġxáº¥p": 8127,
      "uv": 8128,
      "Ġsak": 8129,
      "mos": 8130,
      "zing": 8131,
      "Ġquai": 8132,
      "pgvn": 8133,
      "phat": 8134,
      "google": 8135,
      "gg": 8136,
      "dáº»": 8137,
      "nom": 8138,
      "vÃłnh": 8139,
      "mod": 8140,
      "Ġhtml": 8141,
      "esh": 8142,
      "skjaer": 8143,
      "Ġtit": 8144,
      "Ġnike": 8145,
      "Ġnxb": 8146,
      "Ġhave": 8147,
      "Ġyahoo": 8148,
      "Ñģ": 8149,
      "Ġriver": 8150,
      "Ġtá»ĭch": 8151,
      "Ġlion": 8152,
      "tháº¯m": 8153,
      "ngoáº¡n": 8154,
      "ardiola": 8155,
      "Ŀn": 8156,
      "cÆ°ng": 8157,
      "Ġvivo": 8158,
      "tá»µ": 8159,
      "khan": 8160,
      "tem": 8161,
      "Ġvlad": 8162,
      "gate": 8163,
      "Ġdeb": 8164,
      "náº£n": 8165,
      "ring": 8166,
      "nÃł": 8167,
      "ĠbÃŃt": 8168,
      "Ġdb": 8169,
      "tháº¯t": 8170,
      "Ġib": 8171,
      "Ġgood": 8172,
      "Ġcontin": 8173,
      "Ġcomposite": 8174,
      "ball": 8175,
      "Ġgaming": 8176,
      "chÆ°ng": 8177,
      "ngáº¯t": 8178,
      "ĠâĢĶ_": 8179,
      "Ġnhang": 8180,
      "ĠðŁĳ": 8181,
      "ĠrÃłng": 8182,
      "urity": 8183,
      "Ġthá»ģ": 8184,
      "Ġpallet": 8185,
      "Ġstand": 8186,
      "Ġtexas": 8187,
      "Ġtua": 8188,
      "ental": 8189,
      "Ġmeta": 8190,
      "Ġkhá»ıa": 8191,
      "amily": 8192,
      "gor": 8193,
      "ĠsÃ´": 8194,
      "trÄ©": 8195,
      "Ġxing": 8196,
      "nhai": 8197,
      "Ġmao": 8198,
      "Ġmem": 8199,
      "nhá»§": 8200,
      "Ġhere": 8201,
      "Ġsydney": 8202,
      "pham": 8203,
      "thuong": 8204,
      "miá»ĩn": 8205,
      "Äĳinh": 8206,
      "ĠtuÃ½p": 8207,
      "ĠlÆ°á»£n": 8208,
      "Ġmoto": 8209,
      "Ġrem": 8210,
      "Ġvpbank": 8211,
      "ĠÃºp": 8212,
      "Ġsacom": 8213,
      "Ġdáº¥n": 8214,
      "angeles": 8215,
      "ÑĤ": 8216,
      "Ġangel": 8217,
      "Ġcristiano": 8218,
      "ath": 8219,
      "kan": 8220,
      "Ġoanh": 8221,
      "uss": 8222,
      "ĠmÃªnh": 8223,
      "Ġttt": 8224,
      "Ġport": 8225,
      "lott": 8226,
      "Ġhuá»ĩ": 8227,
      "eller": 8228,
      "Ġhacker": 8229,
      "Ġkore": 8230,
      "áº³m": 8231,
      "ĠkhÃ©t": 8232,
      "Ġisuzu": 8233,
      "Ġmh": 8234,
      "ĠðŁĺ": 8235,
      "Ġafc": 8236,
      "tá»ıi": 8237,
      "photo": 8238,
      "Ġicon": 8239,
      "wc": 8240,
      "bá»įt": 8241,
      "Ġpy": 8242,
      "nhá»±a": 8243,
      "Ġds": 8244,
      "ngÃ¡y": 8245,
      "ating": 8246,
      "nghÃ¬n": 8247,
      "Ġaston": 8248,
      "Ġgly": 8249,
      "oren": 8250,
      "ural": 8251,
      "Ġgift": 8252,
      "Ġfind": 8253,
      "Ġhow": 8254,
      "Ġath": 8255,
      "university": 8256,
      "Ġphp": 8257,
      "tek": 8258,
      "Ġcream": 8259,
      "Ġthá»ıi": 8260,
      "ved": 8261,
      "Ġedit": 8262,
      "dium": 8263,
      "Ġ`": 8264,
      "aux": 8265,
      "sofa": 8266,
      "_âĸ": 8267,
      "Ġwatch": 8268,
      "xiáº¿t": 8269,
      "Ġface": 8270,
      "cÃło": 8271,
      "lieu": 8272,
      "uto": 8273,
      "Ġcá»ĳi": 8274,
      "náº¯p": 8275,
      "Ġsá»į": 8276,
      "Ġgem": 8277,
      "Ġpap": 8278,
      "biáº¿ng": 8279,
      "Ġdou": 8280,
      "Ġhum": 8281,
      "ĠbÃºi": 8282,
      "gre": 8283,
      "háº§u": 8284,
      "trá»¥c": 8285,
      "Ġeth": 8286,
      "ĠhÃ©t": 8287,
      "Ġxxx": 8288,
      "Ġanti": 8289,
      "sá»§a": 8290,
      "Ġlá»±u": 8291,
      "Æ°Æ¡c": 8292,
      "ĠxÃª": 8293,
      "ense": 8294,
      "oid": 8295,
      "sÃ¢n": 8296,
      "trá»ħ": 8297,
      "á»Ńu": 8298,
      "cks": 8299,
      "acy": 8300,
      "Ġ=>_": 8301,
      "wall": 8302,
      "ĠthÃ¢u": 8303,
      "Ġnao": 8304,
      "Ġhealth": 8305,
      "Ġdaniel": 8306,
      "phÃ´ng": 8307,
      "ĠchÃŃch": 8308,
      "Ġdie": 8309,
      "imir": 8310,
      "tino": 8311,
      "Ġroma": 8312,
      "thiÃªng": 8313,
      "bscl": 8314,
      "Ġbamboo": 8315,
      "bos": 8316,
      "kai": 8317,
      "Ġgene": 8318,
      "Ġstore": 8319,
      "Ġwol": 8320,
      "Ġtouch": 8321,
      "Ġzin": 8322,
      "Ġhuynh": 8323,
      "fox": 8324,
      "_Ì": 8325,
      "cream": 8326,
      "giá»ģng": 8327,
      "Ġdol": 8328,
      "Ġburn": 8329,
      "Ġáº¿": 8330,
      "Ġec": 8331,
      "Ġchá»ķi": 8332,
      "ngá»±a": 8333,
      "Äĳáº½": 8334,
      "core": 8335,
      "ati": 8336,
      "Ġtrá»ķ": 8337,
      "Ġposter": 8338,
      "bá»ģ": 8339,
      "trend": 8340,
      "Ġbright": 8341,
      "gÃ¡y": 8342,
      "_âĨ": 8343,
      "via": 8344,
      "Ġpeter": 8345,
      "nhÃŃ": 8346,
      "giai": 8347,
      "vitamin": 8348,
      "Ġfood": 8349,
      "Äĳáº¯ng": 8350,
      "ĠnÆ°á»Ľu": 8351,
      "Ġchao": 8352,
      "Ġron": 8353,
      "ÄĳÃ£ng": 8354,
      "Ġscan": 8355,
      "quyá»ĥn": 8356,
      "Ġcroatia": 8357,
      "wr": 8358,
      "Ġngá»Ńa": 8359,
      "Ġmul": 8360,
      "server": 8361,
      "Äĳun": 8362,
      "quáº¥t": 8363,
      "'t": 8364,
      "Ġtoshiba": 8365,
      "din": 8366,
      "ĠÄĳbscl": 8367,
      "ombia": 8368,
      "yoga": 8369,
      "var": 8370,
      "Ġkyo": 8371,
      "Ġmáº¿n": 8372,
      "tÆ°á»Ľc": 8373,
      "vard": 8374,
      "Ġmill": 8375,
      "Ġfast": 8376,
      "Ġabout": 8377,
      "Ġï¸ı_": 8378,
      "Ġhanoi": 8379,
      "mel": 8380,
      "rÃ¡c": 8381,
      "Ġconcept": 8382,
      "izer": 8383,
      "tÃ²i": 8384,
      "ĠnháºŃm": 8385,
      "Ġfox": 8386,
      "tti": 8387,
      "Ġbloom": 8388,
      "Ġpx": 8389,
      "Ġek": 8390,
      "Ġcare": 8391,
      "Ġsr": 8392,
      "Ġgal": 8393,
      "ĠkhÃ³e": 8394,
      "bach": 8395,
      "awa": 8396,
      "chai": 8397,
      "Ġjean": 8398,
      "Ġtháº¡nh": 8399,
      "ĠdiÃªn": 8400,
      "Ġsevilla": 8401,
      "Ġcloud": 8402,
      "bÆ¡i": 8403,
      "má»ķ": 8404,
      "Ġblogger": 8405,
      "dÆ°á»Ľi": 8406,
      "xÄĥng": 8407,
      "imex": 8408,
      "Ġlac": 8409,
      "Ġdiamond": 8410,
      "share": 8411,
      "Ġsanta": 8412,
      "Ġmáº©u": 8413,
      "Ġchile": 8414,
      "ĠkÃ©n": 8415,
      "Ġfashion": 8416,
      "Ġlá»Ł": 8417,
      "team": 8418,
      "Ġsin": 8419,
      "Ġflo": 8420,
      "Ġlhpn": 8421,
      "ná»ĵi": 8422,
      "Ġgun": 8423,
      "aster": 8424,
      "loween": 8425,
      "Ġlá»Ļn": 8426,
      "Ġsd": 8427,
      "ĠnÃ³c": 8428,
      "elly": 8429,
      "Äĳáº¡n": 8430,
      "ĠÄĳiáº¿u": 8431,
      "Ġmarket": 8432,
      "thiá»ģn": 8433,
      "lÆ°á»£n": 8434,
      "thÃ¹ng": 8435,
      "tland": 8436,
      "gal": 8437,
      "Ġend": 8438,
      "Ġreviews": 8439,
      "ison": 8440,
      "Ġoi": 8441,
      "çĽ": 8442,
      "Ġcháº¯t": 8443,
      "Ġpg": 8444,
      "pre": 8445,
      "Ġamply": 8446,
      "Ġninja": 8447,
      "trÃ¡n": 8448,
      "Ġass": 8449,
      "mÃºa": 8450,
      "Ġsaf": 8451,
      "Ġvksnd": 8452,
      "sÃºng": 8453,
      "spir": 8454,
      "comments": 8455,
      "Ġchrist": 8456,
      "ros": 8457,
      "tos": 8458,
      "miáº¿ng": 8459,
      "ĠcÃłn": 8460,
      "ampton": 8461,
      "Ġcháº£i": 8462,
      "cac": 8463,
      "náº¥y": 8464,
      "chin": 8465,
      "ĠquÃ¢y": 8466,
      "Ġtool": 8467,
      "Ġlot": 8468,
      "astic": 8469,
      "sn": 8470,
      "mourinho": 8471,
      "Ġimages": 8472,
      "say": 8473,
      "ĠxÃŃu": 8474,
      "Ġntm": 8475,
      "Ġball": 8476,
      "eds": 8477,
      "Ġorg": 8478,
      "ening": 8479,
      "trÃ¹m": 8480,
      "Ġtráº§u": 8481,
      "cháº¿t": 8482,
      "tes": 8483,
      "hou": 8484,
      "táº»": 8485,
      "lake": 8486,
      "ear": 8487,
      "Ġmá»ĳt": 8488,
      "lf": 8489,
      "emen": 8490,
      "Ġfly": 8491,
      "trá»ĩ": 8492,
      "vp": 8493,
      "Ġrá»ĳn": 8494,
      "ĠÄĳá»įng": 8495,
      "windows": 8496,
      "Ġkaw": 8497,
      "ĠdÃ¢m": 8498,
      "quest": 8499,
      "bd": 8500,
      "ĠtÄĥm": 8501,
      "cafe": 8502,
      "nÃ£": 8503,
      "Ġmordred": 8504,
      "ĠsÃ³i": 8505,
      "tháº£n": 8506,
      "ĠbÃ¹a": 8507,
      "mad": 8508,
      "Ġstreet": 8509,
      "Ġcover": 8510,
      "Ġvinamilk": 8511,
      "xÆ°á»Ľng": 8512,
      "Ġvincity": 8513,
      "orning": 8514,
      "rao": 8515,
      "ib": 8516,
      "Ġselfie": 8517,
      "ĠtÃ©": 8518,
      "umber": 8519,
      "Ġdáº§m": 8520,
      "ets": 8521,
      "roy": 8522,
      "Ġict": 8523,
      "buá»ķi": 8524,
      "Ġhari": 8525,
      "ĠtáºŃu": 8526,
      "ĠâŃĲ": 8527,
      "Ġlui": 8528,
      "duong": 8529,
      "trÃ¹": 8530,
      "oÃ¡n": 8531,
      "Ġgá»ıi": 8532,
      "rÃ©t": 8533,
      "wich": 8534,
      "Ġxk": 8535,
      "tuong": 8536,
      "ĠÂ«_": 8537,
      "fect": 8538,
      "mall": 8539,
      "choi": 8540,
      "Ġatgt": 8541,
      "ĠvÃ¹i": 8542,
      "khÃ¡": 8543,
      "phÃ¡ch": 8544,
      "háº£": 8545,
      "ĠngÃ¡n": 8546,
      "Ġáº¥u": 8547,
      "há»Ł": 8548,
      "_âĢĵ": 8549,
      "Äĳá»ģn": 8550,
      "Ġjordan": 8551,
      "Ġgetty": 8552,
      "Ġhead": 8553,
      "Ġsee": 8554,
      "rent": 8555,
      "tact": 8556,
      "puter": 8557,
      "ĠÄĳÃłng": 8558,
      "Ġsáº·c": 8559,
      "ĠrÆ°á»¡i": 8560,
      "sáº¹o": 8561,
      "váº·n": 8562,
      "Ġntk": 8563,
      "ĠchÃ²m": 8564,
      "xá»ĭt": 8565,
      "Ġdemo": 8566,
      "Ġeva": 8567,
      "ĠlÄĳlÄĳ": 8568,
      "ĠðŁĴ": 8569,
      "Ġáº¥t": 8570,
      "Ġunesco": 8571,
      "Ġsar": 8572,
      "tract": 8573,
      "elec": 8574,
      "Ġjam": 8575,
      "Ġmiáº¿n": 8576,
      "thá»Ľi": 8577,
      "ful": 8578,
      "ĠvÆ°á»£ng": 8579,
      "coffee": 8580,
      "láº«m": 8581,
      "Ġtheme": 8582,
      "Ġhdmi": 8583,
      "messi": 8584,
      "Ġngá»ĳc": 8585,
      "champions": 8586,
      "Ġtruyen": 8587,
      "tagged": 8588,
      "cáº©n": 8589,
      "Ġlá»£p": 8590,
      "tÃ´m": 8591,
      "ĠchÃłm": 8592,
      "Ġsha": 8593,
      "ĠvÃły": 8594,
      "smi": 8595,
      "Ġebook": 8596,
      "yes": 8597,
      "Ġbtv": 8598,
      "ÃŃa": 8599,
      "urs": 8600,
      "Ġpokemon": 8601,
      "nghÃªnh": 8602,
      "ios": 8603,
      "hold": 8604,
      "biden": 8605,
      "Ġnáº·n": 8606,
      "Ġthiet": 8607,
      "Ġbut": 8608,
      "cáºŃu": 8609,
      "ĠgÃ³t": 8610,
      "fix": 8611,
      "Ġcnn": 8612,
      "Ġves": 8613,
      "Ġvladimir": 8614,
      "flo": 8615,
      "Ġháº¡m": 8616,
      "thÃ¢m": 8617,
      "ĠnhÃ¡t": 8618,
      "giÃły": 8619,
      "Ġoxi": 8620,
      "Ġxui": 8621,
      "Ġmodule": 8622,
      "ards": 8623,
      "trá»ĵ": 8624,
      "Ġsacombank": 8625,
      "ĠbÃ¬": 8626,
      "Ġrá»Ĺng": 8627,
      "lix": 8628,
      "Ġnhac": 8629,
      "giÃłnh": 8630,
      "ador": 8631,
      "ktop": 8632,
      "trolux": 8633,
      "atm": 8634,
      "Ġsound": 8635,
      "Ġprevious": 8636,
      "ĠnlÄĳ": 8637,
      "Ġsáº£y": 8638,
      "ÄĳÃ³i": 8639,
      "Ġrá»ĥ": 8640,
      "Ġsilic": 8641,
      "ħu": 8642,
      "Ġtesla": 8643,
      "ĠbÃ³i": 8644,
      "ĠnÆ¡": 8645,
      "Ġinc": 8646,
      "download": 8647,
      "hel": 8648,
      "lution": 8649,
      "logi": 8650,
      "bul": 8651,
      "cop": 8652,
      "Ġpaste": 8653,
      "spe": 8654,
      "idane": 8655,
      "Ġáº¿ch": 8656,
      "cÆ°a": 8657,
      "river": 8658,
      "Ġkháº¥u": 8659,
      "Ġvá»ın": 8660,
      "Ġmike": 8661,
      "Ġdra": 8662,
      "phy": 8663,
      "Ġwed": 8664,
      "Ġvalencia": 8665,
      "ustin": 8666,
      "Ġsáº»": 8667,
      "ask": 8668,
      "Ġipo": 8669,
      "ĠtÃ¡t": 8670,
      "lege": 8671,
      "Ġcoup": 8672,
      "Ġadidas": 8673,
      "Ġmartin": 8674,
      "Ġck": 8675,
      "quáºŃt": 8676,
      "ategory": 8677,
      "ĠtrÃºt": 8678,
      "Ġthá»ĳi": 8679,
      "brand": 8680,
      "mia": 8681,
      "Ġncov": 8682,
      "khÆ°Æ¡ng": 8683,
      "als": 8684,
      "poxy": 8685,
      "abia": 8686,
      "ĠÄĳao": 8687,
      "ĠtrÃ³i": 8688,
      "Ġhh": 8689,
      "mÆ°á»£n": 8690,
      "ady": 8691,
      "ĠxuÃ´i": 8692,
      "Ġjust": 8693,
      "Ġdich": 8694,
      "Ġxingfa": 8695,
      "ngá»«": 8696,
      "Ġvers": 8697,
      "tien": 8698,
      "Ġsáº§n": 8699,
      "station": 8700,
      "Ġexciter": 8701,
      "Ġtiá»ĩt": 8702,
      "Ġmáº©n": 8703,
      "inton": 8704,
      "dá»įn": 8705,
      "Ġbst": 8706,
      "ĠtrÃ¡m": 8707,
      "Ġnatri": 8708,
      "bourne": 8709,
      "zone": 8710,
      "market": 8711,
      "ÑĢ": 8712,
      "Ġpogba": 8713,
      "blo": 8714,
      "Ġash": 8715,
      "road": 8716,
      "jean": 8717,
      "ĠtÃ¬": 8718,
      "Ġlá»ĵi": 8719,
      "Ġrá»ķ": 8720,
      "chip": 8721,
      "Ġuber": 8722,
      "hinh": 8723,
      "amer": 8724,
      "rÃ²ng": 8725,
      "háº¡ch": 8726,
      "phÃ¹": 8727,
      "xic": 8728,
      "Ġsaint": 8729,
      "Ġsteve": 8730,
      "liu": 8731,
      "mil": 8732,
      "usb": 8733,
      "tg": 8734,
      "Ġacb": 8735,
      "ĠráºŃm": 8736,
      "ces": 8737,
      "ĠâĹı": 8738,
      "gÃ¡c": 8739,
      "Ġtáº£ng": 8740,
      "ĠnhÆ°á»£ng": 8741,
      "Ġradio": 8742,
      "Ġwilliam": 8743,
      "ĠtÃło": 8744,
      "ilet": 8745,
      "sá»Ļ": 8746,
      "æĹ": 8747,
      "ĠâĢĵ_": 8748,
      "Ġhnx": 8749,
      "Ġpleiku": 8750,
      "á»Ŀm": 8751,
      "cker": 8752,
      "áº©ng": 8753,
      "ground": 8754,
      "náº±m": 8755,
      "Ġvd": 8756,
      "look": 8757,
      "Ġháº¯t": 8758,
      "vir": 8759,
      "Ġgeorge": 8760,
      "thÃ¬n": 8761,
      "vtv": 8762,
      "Ġss": 8763,
      "Ġnd": 8764,
      "trá»įt": 8765,
      "ngÃ¢m": 8766,
      "tings": 8767,
      "ĠlÃºng": 8768,
      "ĠhoÃ¡n": 8769,
      "tool": 8770,
      "há»ķi": 8771,
      "cisco": 8772,
      "data": 8773,
      "Ġxsmn": 8774,
      "tq": 8775,
      "Ġuyá»ĥn": 8776,
      "Ġster": 8777,
      "its": 8778,
      "Ġchá»ĳi": 8779,
      "kaku": 8780,
      "nhÃłn": 8781,
      "Ġkpop": 8782,
      "lopp": 8783,
      "Ġdaikin": 8784,
      "fac": 8785,
      "hr": 8786,
      "Ġvá»¯a": 8787,
      "xÃª": 8788,
      "ĠÂ®": 8789,
      "Ġlevel": 8790,
      "Ġsocial": 8791,
      "Ġcoffee": 8792,
      "Ġsurface": 8793,
      "nic": 8794,
      "Ġcit": 8795,
      "Ġnháºµn": 8796,
      "thiáº¿p": 8797,
      "eless": 8798,
      "Ġjpg": 8799,
      "Ġalt": 8800,
      "heo": 8801,
      "Ġlhq": 8802,
      "Ġphá»ĵng": 8803,
      "Ġthoi": 8804,
      "vá»Ŀ": 8805,
      "toÃ¡i": 8806,
      "Ġdá»Ŀi": 8807,
      "chim": 8808,
      "Ġbá»«a": 8809,
      "ĠnÃŃu": 8810,
      "appe": 8811,
      "gÆ°Æ¡ng": 8812,
      "less": 8813,
      "sap": 8814,
      "Ġsá»Ńu": 8815,
      "khoe": 8816,
      "pass": 8817,
      "Ġá»«": 8818,
      "ĠkÄĳt": 8819,
      "eople": 8820,
      "Ġ._": 8821,
      "trick": 8822,
      "uma": 8823,
      "trile": 8824,
      "Ġsouthampton": 8825,
      "vÃ¡c": 8826,
      "ging": 8827,
      "mah": 8828,
      "Ġsales": 8829,
      "Ġbir": 8830,
      "Ġhr": 8831,
      "Ġtele": 8832,
      "Ġberlin": 8833,
      "háº¡o": 8834,
      "Ġcolombia": 8835,
      "Ġpremium": 8836,
      "Ġmáº§u": 8837,
      "ngoáº·t": 8838,
      "ghi": 8839,
      "Ġangela": 8840,
      "ĠÎ": 8841,
      "bio": 8842,
      "----------------": 8843,
      "lá»ģ": 8844,
      "Äģ": 8845,
      "Ġjim": 8846,
      "gaming": 8847,
      "ngáº«m": 8848,
      "iston": 8849,
      "dg": 8850,
      "Ġtáº¡ng": 8851,
      "Ġláº¡y": 8852,
      "káº»": 8853,
      "anin": 8854,
      "coun": 8855,
      "Ġdisney": 8856,
      "¹´": 8857,
      "rock": 8858,
      "Ġhá»ĳt": 8859,
      "ĠbÃłu": 8860,
      "Ġzom": 8861,
      "tÃ¡ch": 8862,
      "xá»ķ": 8863,
      "Ġtoeic": 8864,
      "_'": 8865,
      "philip": 8866,
      "hÃ²i": 8867,
      "Ġmanga": 8868,
      "ĠlÃºn": 8869,
      "Ġboy": 8870,
      "niá»ģm": 8871,
      "Ġáº§m": 8872,
      "nar": 8873,
      "office": 8874,
      "Ġhá»Ļt": 8875,
      "Ġ......": 8876,
      "Ġvck": 8877,
      "Ġtablet": 8878,
      "body": 8879,
      "zyme": 8880,
      "sulin": 8881,
      "bÃ¹i": 8882,
      "táº¡c": 8883,
      "Ġmom": 8884,
      "Ġcamp": 8885,
      "Ġcá»ĳp": 8886,
      "Ġteo": 8887,
      "Ġmui": 8888,
      "chuá»Ļt": 8889,
      "Ġfeb": 8890,
      "hoay": 8891,
      "ĠmÃ£o": 8892,
      "skin": 8893,
      "Ġvr": 8894,
      "doc": 8895,
      "Ġliáº¿c": 8896,
      "Ġcontrol": 8897,
      "Ġfit": 8898,
      "Ġestrogen": 8899,
      "sÆ°á»Łi": 8900,
      "ĠxÃ¡o": 8901,
      "roi": 8902,
      "ittle": 8903,
      "vÄĳqg": 8904,
      "Ã¼": 8905,
      "nhac": 8906,
      "Ġcoun": 8907,
      "ece": 8908,
      "camp": 8909,
      "super": 8910,
      "ĠxoÄĥn": 8911,
      "tuáº§n": 8912,
      "artment": 8913,
      "Ġhk": 8914,
      "thá»Ń": 8915,
      "Ġtechnology": 8916,
      "Ġngá»±": 8917,
      "tiáº¿u": 8918,
      "ortuner": 8919,
      "Ġshu": 8920,
      "ĠngÃ³": 8921,
      "Ġloay": 8922,
      "Ġcach": 8923,
      "Ġmakeup": 8924,
      "stu": 8925,
      "vá»£": 8926,
      "lab": 8927,
      "Ġentry": 8928,
      "ĠmÃ¨": 8929,
      "dáºŃy": 8930,
      "ĠbÃ¡i": 8931,
      "Ġnovaland": 8932,
      "Ġfollow": 8933,
      "cell": 8934,
      "Ġay": 8935,
      "Ġsetup": 8936,
      "Ġboe": 8937,
      "arn": 8938,
      "Ġwap": 8939,
      "vÃ£n": 8940,
      "Ġvun": 8941,
      "Ġmá»įng": 8942,
      "Ġhalloween": 8943,
      "eman": 8944,
      "Ġá´ł": 8945,
      "Ġbass": 8946,
      "Ġlá»ĳt": 8947,
      "phao": 8948,
      "Ġaids": 8949,
      "tá»Ľi": 8950,
      "tsal": 8951,
      "Ġsanh": 8952,
      "Ġluxury": 8953,
      "arez": 8954,
      "ĠÄĳuá»ĳi": 8955,
      "Ġess": 8956,
      "force": 8957,
      "ĠâĢ³": 8958,
      "asaki": 8959,
      "Äĳáº§m": 8960,
      "agement": 8961,
      "bom": 8962,
      "sur": 8963,
      "Ġbil": 8964,
      "Ġbá»«ng": 8965,
      "Ġ.._": 8966,
      "Ġchic": 8967,
      "australia": 8968,
      "Ġireland": 8969,
      "truong": 8970,
      "khoÃ¡t": 8971,
      "Ġyang": 8972,
      "aven": 8973,
      "imi": 8974,
      "Ġredmi": 8975,
      "Ġosaka": 8976,
      "ĠâĻ¦": 8977,
      "nghiá»ĩn": 8978,
      "nhá»Ľt": 8979,
      "ĠkitÃ´": 8980,
      "ĠchÃ³t": 8981,
      "Ġvien": 8982,
      "Ġswitch": 8983,
      "Ġpom": 8984,
      "Ġscreen": 8985,
      "Ð¿": 8986,
      "mv": 8987,
      "ono": 8988,
      "dá»ħ": 8989,
      "vá»¹": 8990,
      "ĠdÃ¬m": 8991,
      "Ġwil": 8992,
      "Ġbloomberg": 8993,
      "Ġá»ķi": 8994,
      "Ġligue": 8995,
      "Ġroom": 8996,
      "Ġkhoáº¯n": 8997,
      "usa": 8998,
      "Ġicloud": 8999,
      "ĠmÆ°á»Ľp": 9000,
      "chá»ĳc": 9001,
      "rÃ¨": 9002,
      "hydr": 9003,
      "Ġwhat": 9004,
      "sÄĥn": 9005,
      "nháº±n": 9006,
      "Ġny": 9007,
      "Ġ---": 9008,
      "gran": 9009,
      "Ġuser": 9010,
      "Ġthiá»ĩu": 9011,
      "Ġmá»Ľ": 9012,
      "onet": 9013,
      "tá»ħ": 9014,
      "zan": 9015,
      "Ġcool": 9016,
      "giÃªng": 9017,
      "design": 9018,
      "Ġcá»Ľ": 9019,
      "mien": 9020,
      "vl": 9021,
      "igan": 9022,
      "Ġngháº¹n": 9023,
      "Ġvietlott": 9024,
      "ĠcÄĥm": 9025,
      "phá»©c": 9026,
      "Ġwel": 9027,
      "ilia": 9028,
      "tÃłn": 9029,
      "Ġvie": 9030,
      "residence": 9031,
      "vov": 9032,
      "Ġsqu": 9033,
      "cá»į": 9034,
      "Ġtá»¥y": 9035,
      "hanh": 9036,
      "abe": 9037,
      "Ġest": 9038,
      "Ġroi": 9039,
      "htn": 9040,
      "Ġfix": 9041,
      "ká»ģnh": 9042,
      "Ġnáº¥c": 9043,
      "Ġcatalog": 9044,
      "vh": 9045,
      "gus": 9046,
      "Ġpowerpoint": 9047,
      "bic": 9048,
      "had": 9049,
      "Ġpk": 9050,
      "hÃ©m": 9051,
      "ifer": 9052,
      "Ġvga": 9053,
      "chine": 9054,
      "ĠnÃ´i": 9055,
      "fir": 9056,
      "Ġmiáº¿u": 9057,
      "Ġgiá»Ĺ": 9058,
      "tail": 9059,
      "unes": 9060,
      "Ġmol": 9061,
      "Ġwall": 9062,
      "tuÃ¢n": 9063,
      "Ġcase": 9064,
      "Ġtuyen": 9065,
      "Ġlotte": 9066,
      "zig": 9067,
      "apple": 9068,
      "cky": 9069,
      "Ġsalad": 9070,
      "qs": 9071,
      "stone": 9072,
      "resh": 9073,
      "drive": 9074,
      "gv": 9075,
      "Ġquáº¥t": 9076,
      "Ġhungary": 9077,
      "bitcoin": 9078,
      "tl": 9079,
      "Ġdef": 9080,
      "Ġscotland": 9081,
      "ira": 9082,
      "ĠhÃ¹": 9083,
      "Ġgab": 9084,
      "giÃ£": 9085,
      "Ġqr": 9086,
      "plor": 9087,
      "bn": 9088,
      "ĠÆ°Æ¡m": 9089,
      "eda": 9090,
      "Ġremote": 9091,
      "náº¥u": 9092,
      "cook": 9093,
      "with": 9094,
      "há»Ľi": 9095,
      "ĠnÃ²ng": 9096,
      "quÃªn": 9097,
      "size": 9098,
      "Ġdiá»ħu": 9099,
      "ĠÄĳÃ³a": 9100,
      "Ġbacklink": 9101,
      "khÃ©o": 9102,
      "tá»įa": 9103,
      "Ġsign": 9104,
      "Ġmxh": 9105,
      "báº¡t": 9106,
      "Ġtáº¡t": 9107,
      "publ": 9108,
      "ngá»¥": 9109,
      "Ġtá»ĳp": 9110,
      "Ġdiá»ģu": 9111,
      "Ļng": 9112,
      "Ġjetstar": 9113,
      "pack": 9114,
      "ĠdÃ¨": 9115,
      "ĠbÃªnh": 9116,
      "ĠnhÃło": 9117,
      "Ġnovember": 9118,
      "ald": 9119,
      "hÃ¹m": 9120,
      "mÃ£o": 9121,
      "Ġbáº£": 9122,
      "iá»ĥng": 9123,
      "ĠgÃ¡y": 9124,
      "máº¥t": 9125,
      "ÄĳáºŃm": 9126,
      "Ġdin": 9127,
      "gym": 9128,
      "mode": 9129,
      "john": 9130,
      "Ġwell": 9131,
      "jax": 9132,
      "Ġlinux": 9133,
      "ever": 9134,
      "ĠbÃ¨n": 9135,
      "ites": 9136,
      "shin": 9137,
      "váº¯ng": 9138,
      "Ġtáº©u": 9139,
      "Ġhoáº¡ch": 9140,
      "vien": 9141,
      "Ġvc": 9142,
      "edition": 9143,
      "quyáº¿n": 9144,
      "ctor": 9145,
      "chÃ©o": 9146,
      "Ġxy": 9147,
      "Ġeur": 9148,
      "ĠÄĳá»Ŀ": 9149,
      "Ġqueen": 9150,
      "Ġbreak": 9151,
      "sáº§u": 9152,
      "ĠmáºŃn": 9153,
      "Ġgout": 9154,
      "Ġxáº©y": 9155,
      "blue": 9156,
      "nhÃ¬": 9157,
      "Æ°á»£m": 9158,
      "Ġpham": 9159,
      "Ġâĺħ": 9160,
      "Ġnai": 9161,
      "Ġavatar": 9162,
      "Ġstreamer": 9163,
      "Ġnas": 9164,
      "arta": 9165,
      "igeria": 9166,
      "ÄĳÆ°a": 9167,
      "Ġlast": 9168,
      "edge": 9169,
      "ĠÄĳÃºp": 9170,
      "chez": 9171,
      "ernand": 9172,
      "iu": 9173,
      "=>": 9174,
      "Ġjune": 9175,
      "tit": 9176,
      "è¿": 9177,
      "loÃ©t": 9178,
      "hat": 9179,
      "Ġsocola": 9180,
      "emix": 9181,
      "Ġrs": 9182,
      "business": 9183,
      "Ġngao": 9184,
      "Ġdem": 9185,
      "phÃ¡o": 9186,
      "cuá»Ļn": 9187,
      "Ġfans": 9188,
      "ving": 9189,
      "Ġkhiáº¿p": 9190,
      "color": 9191,
      "Ġdro": 9192,
      "Ġft": 9193,
      "Ġtron": 9194,
      "ptember": 9195,
      "mobifone": 9196,
      "Ġimage": 9197,
      "chá»£t": 9198,
      "Ġjuly": 9199,
      "rari": 9200,
      "thiá»ĩt": 9201,
      "ingo": 9202,
      "mec": 9203,
      "Ġantv": 9204,
      "Ġnghien": 9205,
      "Ġruby": 9206,
      "Ġnitrile": 9207,
      "khá»ĳc": 9208,
      "ences": 9209,
      "will": 9210,
      "ĠÄĳá»±c": 9211,
      "Ġghe": 9212,
      "Ġmá»ĵm": 9213,
      "lá»«a": 9214,
      "nhat": 9215,
      "ĠnhÄ©": 9216,
      "Ġduong": 9217,
      "network": 9218,
      "Ġhdv": 9219,
      "Ġfestival": 9220,
      "ism": 9221,
      "bÆ¡": 9222,
      "ngham": 9223,
      "atic": 9224,
      "Ġwid": 9225,
      "Ġnáº¹p": 9226,
      "Ġthuy": 9227,
      "Ġpur": 9228,
      "ents": 9229,
      "rt": 9230,
      "tá»ĳng": 9231,
      "Ġngáº£i": 9232,
      "thuy": 9233,
      "nghÄ©nh": 9234,
      "Ġiu": 9235,
      "Ġ'_": 9236,
      "Ġful": 9237,
      "vegas": 9238,
      "Ġcis": 9239,
      "lá»¥y": 9240,
      "Ġváº§n": 9241,
      "Ġwales": 9242,
      "bá»įn": 9243,
      "flix": 9244,
      "sg": 9245,
      "water": 9246,
      "Ġcen": 9247,
      "nháº¡y": 9248,
      "Ġnhá»¯": 9249,
      "phire": 9250,
      "Ġyoung": 9251,
      "sá»ĩt": 9252,
      "kha": 9253,
      "Ġtoilet": 9254,
      "Ġliveshow": 9255,
      "ĠchÃ©p": 9256,
      "Ġmass": 9257,
      "chuÃ´ng": 9258,
      "Ġway": 9259,
      "Ġanton": 9260,
      "Ġhandmade": 9261,
      "Ġmuá»Ļi": 9262,
      "má»ĳt": 9263,
      "há»§": 9264,
      "Ġoffic": 9265,
      "Ġvá»ī": 9266,
      "Ġ->_": 9267,
      "Ġlag": 9268,
      "Ġtuc": 9269,
      "zard": 9270,
      "________": 9271,
      "Ġphil": 9272,
      "Ġcháº¯p": 9273,
      "Ġsom": 9274,
      "mag": 9275,
      "táº·c": 9276,
      "Ġcá»§i": 9277,
      "ĠquÃ½t": 9278,
      "vidia": 9279,
      "dau": 9280,
      "Ġabc": 9281,
      "lÃŃnh": 9282,
      "Ġbc": 9283,
      "xicÃ´": 9284,
      "ĠuÃ´ng": 9285,
      "Ġxiii": 9286,
      "Ġsushi": 9287,
      "elo": 9288,
      "inox": 9289,
      "ĠÄĳáº¯n": 9290,
      "náº¯ng": 9291,
      "ĠÏ": 9292,
      "words": 9293,
      "Ġschool": 9294,
      "Ġvá»įng": 9295,
      "ĠrÃ¹ng": 9296,
      "stom": 9297,
      "Ġnova": 9298,
      "Ġstatus": 9299,
      "khuyÃªn": 9300,
      "tober": 9301,
      "ocus": 9302,
      "yeon": 9303,
      "Ġ::_": 9304,
      "hand": 9305,
      "Ã³e": 9306,
      "kitÃ´": 9307,
      "nÃ³": 9308,
      "putin": 9309,
      "Ġxá»īn": 9310,
      "Ġnhá»ĩn": 9311,
      "Ġchau": 9312,
      "Ġactive": 9313,
      "Ġtáº¥y": 9314,
      "Ġtren": 9315,
      "Ġhá»ĳc": 9316,
      "Ġbanner": 9317,
      "xiii": 9318,
      "vani": 9319,
      "Ġhik": 9320,
      "content": 9321,
      "ardo": 9322,
      "Ġmelbourne": 9323,
      "Ġmá»ĭ": 9324,
      "Ġnhá»ĳt": 9325,
      "Ġfda": 9326,
      "cang": 9327,
      "Ġtá»µ": 9328,
      "ista": 9329,
      "adat": 9330,
      "Ġamd": 9331,
      "xoa": 9332,
      "fpt": 9333,
      "háº§m": 9334,
      "ĠphÃł": 9335,
      "Ġhá»¥t": 9336,
      "cert": 9337,
      "Ġaugust": 9338,
      "pace": 9339,
      "trÃªn": 9340,
      "cháº£": 9341,
      "Ġautocad": 9342,
      "báº§u": 9343,
      "ako": 9344,
      "obama": 9345,
      "Ġriverside": 9346,
      "chÆ°á»Ľc": 9347,
      "Ġupload": 9348,
      "Ġsource": 9349,
      "vÃ¡ng": 9350,
      "tia": 9351,
      "Ġapril": 9352,
      "Ġcru": 9353,
      "Ġbank": 9354,
      "woo": 9355,
      "Ġderby": 9356,
      "ĠgÃºt": 9357,
      "jeans": 9358,
      "è¡": 9359,
      "Ġtak": 9360,
      "Ġukraina": 9361,
      "Ġnormal": 9362,
      "elle": 9363,
      "put": 9364,
      "Ġmá»ĵng": 9365,
      "Ġtailieu": 9366,
      "ngá»£p": 9367,
      "Ġkhanh": 9368,
      "Ġproject": 9369,
      "html": 9370,
      "Ġant": 9371,
      "plorer": 9372,
      "isong": 9373,
      "duá»ĩ": 9374,
      "chÃ¹m": 9375,
      "ĠhÃ¡": 9376,
      "ĠâĪ": 9377,
      "rylic": 9378,
      "Ġbinance": 9379,
      "lÃ´i": 9380,
      "Ġxp": 9381,
      "ict": 9382,
      "cru": 9383,
      "Ġfax": 9384,
      "Ġtikibook": 9385,
      "Ġtth": 9386,
      "Ġhá»ħ": 9387,
      "Ġload": 9388,
      "Ġï¼Ī": 9389,
      "bá»Ľi": 9390,
      "eco": 9391,
      "ná»©c": 9392,
      "Ġáº£m": 9393,
      "Ġmáº£i": 9394,
      "Ġnic": 9395,
      "Ġrest": 9396,
      "Ġhuong": 9397,
      "Ġmot": 9398,
      "manager": 9399,
      "Äĳá»Ĺi": 9400,
      "há»ĳ": 9401,
      "Ġbbq": 9402,
      "premium": 9403,
      "Ġlionel": 9404,
      "ef": 9405,
      "nÃ¢u": 9406,
      "ngÃ¡ch": 9407,
      "ĠxÃ²e": 9408,
      "Ġchocol": 9409,
      "Ġnetizen": 9410,
      "mand": 9411,
      "Ġpors": 9412,
      "vac": 9413,
      "nhe": 9414,
      "wang": 9415,
      "ĠnhÃ¡": 9416,
      "Ġnav": 9417,
      "lut": 9418,
      "Ġaccess": 9419,
      "Ġvá»ĩt": 9420,
      "Ġacer": 9421,
      "ĠmÃ¡ng": 9422,
      "Ġkat": 9423,
      "uture": 9424,
      "vÆ°á»£t": 9425,
      "Ľn": 9426,
      "ĠlÃµm": 9427,
      "Ġnc": 9428,
      "yáº¿m": 9429,
      "Ġngá»Ńi": 9430,
      "Ġtct": 9431,
      "ĠlÃ¹m": 9432,
      "ips": 9433,
      "Ġamidan": 9434,
      "cáº©u": 9435,
      "lar": 9436,
      "Ġtrue": 9437,
      "voice": 9438,
      "ĠkrÃ´ng": 9439,
      "gat": 9440,
      "sÆ°Æ¡ng": 9441,
      "Ġporsche": 9442,
      "cáº¥y": 9443,
      "Ġdáº¥y": 9444,
      "Ġbaking": 9445,
      "rÃ¡t": 9446,
      "baotintuc": 9447,
      "Ġtagged": 9448,
      "vinaphone": 9449,
      "ĠhÄĳxx": 9450,
      "esta": 9451,
      "ige": 9452,
      "Ġqc": 9453,
      "cara": 9454,
      "ĠâĨĲ": 9455,
      "Ġamerican": 9456,
      "ĠnhÃ©t": 9457,
      "Ġcham": 9458,
      "ault": 9459,
      "Ġkhá»©": 9460,
      "youtube": 9461,
      "Ġtoner": 9462,
      "iÃªt": 9463,
      "aska": 9464,
      "Ġflorida": 9465,
      "Ġmn": 9466,
      "Ġnetwork": 9467,
      "flash": 9468,
      "Ġtanh": 9469,
      "Ġxáº»": 9470,
      "oshi": 9471,
      "Ġdha": 9472,
      "protein": 9473,
      "_--": 9474,
      "cÃłi": 9475,
      "Ġnhá»¥c": 9476,
      "asu": 9477,
      "Ġtaylor": 9478,
      "beach": 9479,
      "kva": 9480,
      "Ġlar": 9481,
      "ĠdiÃªm": 9482,
      "Ġtopic": 9483,
      "entertainment": 9484,
      "Ġngáº©ng": 9485,
      "Ġcontinue": 9486,
      "xoÃłi": 9487,
      "phá»Ļng": 9488,
      "price": 9489,
      "vÃªnh": 9490,
      "tur": 9491,
      "Ġmarch": 9492,
      "Ġspf": 9493,
      "gapixel": 9494,
      "corp": 9495,
      "xÃ¢y": 9496,
      "Ġcdc": 9497,
      "Ġbáº§m": 9498,
      "ential": 9499,
      "Ġkaz": 9500,
      "Ġthá»¥c": 9501,
      "Ġvinac": 9502,
      "phÃ¹ng": 9503,
      "Ġnt": 9504,
      "Ġdeal": 9505,
      "Ġwan": 9506,
      "ngá»±c": 9507,
      "Ġgá»Ļp": 9508,
      "doan": 9509,
      "Ġaccount": 9510,
      "bÃºa": 9511,
      "Ġcustom": 9512,
      "uld": 9513,
      "Ġngáº§u": 9514,
      "Ġseptember": 9515,
      "Ġranger": 9516,
      "Ġgáº¯ng": 9517,
      "Ġtá»ģ": 9518,
      "arning": 9519,
      "Ġjer": 9520,
      "Ġburnley": 9521,
      "aroo": 9522,
      "Ġtcvn": 9523,
      "sports": 9524,
      "english": 9525,
      "Ġwiki": 9526,
      "vÃ©t": 9527,
      "phá»ĵng": 9528,
      "verse": 9529,
      "guay": 9530,
      "ĠvÆ¡i": 9531,
      "Ġduá»Ĺi": 9532,
      "ĠÃ³c": 9533,
      "Ġqualcomm": 9534,
      "ngÃ¹ng": 9535,
      "ished": 9536,
      "dat": 9537,
      "Ġinst": 9538,
      "Ġjustin": 9539,
      "Äĳk": 9540,
      "hg": 9541,
      "ĠsÃ¹ng": 9542,
      "Ġâľħ_": 9543,
      "pes": 9544,
      "Ġmdf": 9545,
      "Ġlyon": 9546,
      "Ġbent": 9547,
      "ÄĳÅ©a": 9548,
      "Ġcháº±ng": 9549,
      "chiáº¿c": 9550,
      "Ġboss": 9551,
      "Ġngoc": 9552,
      "rich": 9553,
      "hÃ£m": 9554,
      "fly": 9555,
      "thing": 9556,
      "ulette": 9557,
      "ious": 9558,
      "microsoft": 9559,
      "Ġboeing": 9560,
      "vá»ĳn": 9561,
      "asma": 9562,
      "vices": 9563,
      "Ġchocolate": 9564,
      "á»£m": 9565,
      "categorized": 9566,
      "náº¡t": 9567,
      "arena": 9568,
      "econ": 9569,
      "daily": 9570,
      "ĳæ": 9571,
      "Ġtiger": 9572,
      "khiÃªm": 9573,
      "uron": 9574,
      "bÃ¨o": 9575,
      "bir": 9576,
      "ĠtáºŃt": 9577,
      "ĠngÃ²i": 9578,
      "Ġphá»ĵn": 9579,
      "rÃł": 9580,
      "Ġgara": 9581,
      "ĠthÃ¬n": 9582,
      "kÃªnh": 9583,
      "Ġmine": 9584,
      "Ġká»µ": 9585,
      "ĠtkhÃ´": 9586,
      "Ġbob": 9587,
      "Ðº": 9588,
      "Ġthaco": 9589,
      "rÆ°á»£u": 9590,
      "Ġmonaco": 9591,
      "ngáº¡o": 9592,
      "Ġcá»Ļi": 9593,
      "Ġnigeria": 9594,
      "Ġthink": 9595,
      "fess": 9596,
      "global": 9597,
      "ĠÄĳá»į": 9598,
      "æĹ¥": 9599,
      "Ġtrá»ı": 9600,
[...]
